06
05
09
0b
08
12
f5
17
fe
f7
0c
f6
fe
ff
02
07
f6
07
fd
0a
fd
00
f8
00
fc
03
ef
02
0c
04
f6
fa
0d
02
fd
07
03
00
01
fd
01
06
09
f1
01
03
ff
04
ff
fc
05
05
01
13
f7
11
f4
07
15
00
00
f8
fc
fc
ff
fc
fa
f8
0a
0d
f1
17
10
08
11
05
f7
f8
fc
fd
f5
08
08
04
19
f6
07
02
08
ff
fa
04
00
09
03
07
08
0e
00
01
02
fa
fa
f9
0e
10
fb
f4
f6
05
02
00
0b
04
0e
f5
01
06
00
08
01
f8
f1
14
fc
03
ff
11
f7
f7
f1
04
06
03
fb
fc
0c
f5
09
10
17
11
f2
00
06
0d
03
fb
03
09
f7
07
f1
07
08
f9
fe
fc
0c
08
07
fa
06
fa
0b
00
f6
ff
f4
fe
fb
0f
0f
f8
04
05
00
0b
08
00
10
11
f6
fc
00
ff
fb
0e
fd
03
01
08
16
04
f7
f3
02
ff
00
01
ff
04
08
08
ff
fa
14
08
02
07
fc
0f
01
ff
03
f4
f6
ff
fd
f8
0e
10
02
fe
04
08
fc
09
f8
0f
fb
f3
fe
0a
fa
fe
f6
27
09
0a
f7
02
09
03
06
02
fe
08
f9
08
fe
04
ff
04
fb
ff
00
00
f8
03
03
fd
0b
fc
ff
01
12
15
f7
0a
fb
fa
0e
fa
0f
ff
01
f5
02
02
05
12
f5
fc
08
12
ee
fa
06
02
ec
01
fe
06
00
03
00
f9
fa
ed
01
fc
01
11
0c
04
0a
0f
02
fd
04
f1
0e
f1
00
fc
f5
01
f6
01
10
0e
04
09
02
02
f7
ff
09
fe
fc
0a
00
04
0a
f8
f9
17
14
fc
f4
f3
fb
0d
06
07
f7
06
0c
fe
00
fa
05
07
f8
f2
00
fa
03
12
0e
10
00
ed
01
06
0b
fb
06
01
03
13
ff
02
fc
ff
02
ff
f4
05
08
fa
03
01
01
02
11
0a
03
f8
00
f8
13
11
f7
07
fa
f8
f6
f4
10
00
0f
fb
01
05
00
fe
04
f5
08
0c
0b
07
02
03
f6
fc
04
12
05
f3
f9
10
02
07
0f
01
07
ef
f1
09
f7
f3
04
f1
f8
04
ff
ea
03
05
fb
03
14
fc
04
fd
02
03
fe
fd
0b
0e
f3
02
02
0a
ff
05
fc
fa
04
0f
f1
fd
f8
04
07
f2
00
05
14
07
08
08
01
05
0a
f2
02
f9
11
01
09
04
04
02
fe
0c
0b
fa
0f
04
07
ef
f4
fc
0e
fc
ef
02
fb
f4
0b
ed
03
f8
07
f9
1f
f9
0f
06
00
00
f9
f9
fd
fe
f8
fa
17
fd
f6
08
09
00
fc
07
fc
0a
05
00
14
14
02
01
0e
fc
00
f7
00
f4
05
09
05
06
0d
00
f9
fb
03
0d
00
09
fb
0e
04
0f
04
fe
08
0e
f2
fb
03
0d
07
f8
02
ff
13
00
00
00
17
0a
fb
0c
f9
fb
fd
03
06
fc
0b
00
f3
f0
01
0a
08
f7
0f
ff
02
fa
01
f9
fd
fa
00
fb
05
fb
fc
04
00
0c
fe
fc
07
03
00
f4
03
02
02
00
01
03
05
16
fe
10
fc
00
11
0a
01
10
f4
fa
fd
f1
15
09
06
f0
f7
04
0e
f3
fa
0d
0f
0b
f7
04
fe
ff
04
03
05
f2
fc
03
0e
00
f2
fe
02
f4
11
06
01
f9
0f
05
f7
02
00
fb
fc
04
fc
09
fe
08
f7
06
05
09
04
03
03
f5
0c
f5
f9
12
f9
fe
0c
ff
fc
02
06
0d
0a
01
02
09
ff
02
04
03
fc
09
00
06
00
1a
02
f3
00
fa
fe
09
ff
03
00
ee
0b
0a
f6
fc
02
09
fd
0a
05
fd
f8
19
f5
ff
02
f4
06
f8
02
ed
0b
f4
07
0a
01
00
05
0f
ff
03
fe
08
ff
f6
05
02
15
09
00
f6
05
07
06
09
0b
14
08
08
00
00
fa
fe
ff
11
09
ff
f8
0f
f7
03
05
f9
f8
f7
0a
f6
02
04
06
fa
04
01
08
15
fe
fa
00
0a
f6
f5
02
03
01
ff
f6
05
01
ff
ff
03
fb
05
02
06
ff
0a
f3
13
00
fc
05
01
fc
fe
00
08
15
f5
ff
00
00
fa
fd
09
fc
ff
00
f8
03
00
06
ff
fd
01
04
06
ff
f9
ef
0a
fd
fb
f6
f8
02
01
03
ff
ff
fe
fe
05
00
f9
00
08
00
f6
00
fc
06
04
06
02
0a
f4
fb
15
ef
0f
00
00
18
14
08
0a
f6
fa
ff
f5
ff
f8
fe
03
fc
00
07
02
fa
09
05
f9
ff
0a
09
10
04
04
f9
fe
12
01
04
00
06
05
04
ff
08
0e
03
fe
fc
ff
03
f5
ff
05
f8
05
04
14
07
f8
f9
12
01
0f
00
fe
06
f6
f6
f8
fb
01
fd
f9
f8
03
05
f1
06
11
f7
02
0d
0e
04
fe
ff
1c
12
f4
ff
03
f6
1e
01
ff
fe
06
ff
08
02
f8
07
f7
03
0e
f8
08
ff
ed
0e
03
07
f9
fa
01
04
00
02
fd
07
f9
03
ff
f7
07
fe
ff
0c
ff
01
17
f8
f9
f7
11
06
f3
f1
fc
06
06
1a
f5
00
ee
03
06
0b
fc
02
f5
00
00
04
fa
02
02
f6
05
00
07
f5
f4
0c
0d
10
0d
f7
09
03
fc
00
0d
02
00
fb
ed
fe
1b
02
fe
0a
0a
f0
06
13
01
16
01
04
fd
01
09
17
0f
06
fe
02
fc
f9
fc
ff
f6
00
01
08
0d
03
08
f4
02
03
00
15
04
f8
f4
0c
0a
0a
05
0b
fc
fb
09
fd
f6
0a
fa
f2
06
04
04
f3
06
0a
06
02
05
fc
fd
0e
fc
fe
00
01
0b
fa
f9
11
12
00
12
fb
fe
07
05
0d
0d
05
f2
fd
02
01
01
00
f2
fc
f3
07
f8
03
04
14
08
05
01
02
02
01
fd
02
fb
fa
0a
02
01
06
f1
03
04
0a
02
00
0d
00
00
f2
12
00
10
02
ff
fb
03
fe
f9
f9
07
03
03
13
06
ff
f4
fb
10
08
f2
fd
f4
00
01
ff
0a
16
06
14
15
01
12
07
ff
ff
12
f7
f9
04
00
ee
05
fd
04
00
fd
02
0b
f1
0a
07
fc
fe
f3
05
07
01
03
ff
06
0c
04
fa
f4
03
06
02
fd
02
f8
f6
f3
06
09
f8
0f
01
12
f5
f6
09
08
00
fc
08
0b
f6
04
ed
fb
09
1a
09
05
08
f6
11
02
04
09
f3
0a
02
0a
03
0b
f4
09
f8
06
00
00
09
14
02
0a
08
07
fc
08
08
0d
fe
f8
ee
fd
08
04
f8
0a
02
06
fc
01
ee
0b
e4
05
f6
03
f6
0a
fb
f7
0d
01
ef
07
05
03
01
04
f4
08
f9
f2
02
03
11
05
0a
08
07
01
06
f8
f2
fb
f4
02
fb
00
03
fb
02
01
04
fb
fe
fa
05
0e
f5
16
ff
07
12
0c
07
06
04
04
08
f6
fa
08
06
fa
15
08
08
f9
01
00
00
0a
03
06
02
10
00
04
f5
03
fc
f7
04
0c
f3
f2
fa
fa
00
00
08
03
11
f7
08
fd
03
f9
07
f8
f9
07
05
01
f2
f9
06
f0
f5
08
0f
05
fe
fc
eb
f8
0b
fd
17
10
f2
00
04
08
04
02
00
00
ed
0a
f2
18
09
08
01
04
fe
06
fd
00
0e
ef
f9
01
02
fa
f3
01
f9
f6
0b
04
f8
09
05
f8
0a
04
16
01
f2
f6
fd
01
07
18
03
02
00
02
10
fe
03
f4
e8
fa
ea
0d
00
fb
02
01
03
05
0b
03
ea
0e
04
0f
03
06
fc
f1
f9
07
05
fe
14
0f
f9
05
14
04
fa
05
f8
ff
e7
f4
04
02
02
fa
fb
0b
08
06
f9
ff
f5
06
09
05
00
f9
00
fe
f8
07
fb
f0
01
06
00
00
06
09
05
0e
08
0d
f7
13
f8
f7
12
f4
fd
05
03
06
f8
02
04
00
fe
ff
fb
00
fc
fe
ee
fc
06
08
f7
fd
0b
01
f9
07
02
ff
00
01
fb
0d
07
ec
ff
00
00
05
03
fb
04
04
ff
14
f9
0e
f8
06
15
00
ff
fc
fa
f8
ff
fc
fa
f5
09
10
ec
19
11
ff
0d
04
f8
fc
00
01
f3
06
0d
03
1f
f5
03
06
05
fe
fa
02
00
0a
ff
08
00
0f
00
fe
01
f8
f9
fb
09
0f
fb
fa
f1
05
ff
01
0b
01
10
f7
fa
04
00
ff
0a
f7
ee
10
fe
02
00
13
f1
f2
ec
0a
05
03
fa
03
ff
f2
0a
12
1c
0f
f7
00
05
04
03
f9
08
09
fe
06
ed
02
0a
fa
00
fd
04
09
04
01
01
f8
0c
04
f4
ff
f7
fc
fb
10
0b
f4
02
07
01
01
09
00
12
0d
fd
00
01
00
03
12
f9
fe
01
09
16
06
f5
f7
04
00
04
fa
fe
03
04
0a
01
fd
13
04
05
05
f8
0e
01
01
fe
f9
f6
fd
fd
fc
10
0f
04
02
09
05
ff
0c
f2
0b
f9
f0
08
0a
f5
01
f4
25
08
08
f5
01
08
03
09
00
0a
0d
fb
00
fd
fd
fd
04
fa
fc
00
00
ef
07
04
fd
0b
fb
ff
07
01
19
fd
fa
f1
02
08
0b
fb
09
09
04
ff
00
f9
15
fe
f3
fa
0c
02
09
08
f3
0f
01
ef
04
01
10
01
fd
ed
08
fa
03
ff
03
07
08
04
04
06
16
05
ee
f4
f3
03
0c
03
00
02
f5
03
0c
fa
fb
f6
fb
05
07
fd
02
f5
0b
0b
0c
14
f2
fd
02
13
f8
fb
f1
0c
00
1a
01
00
04
ff
04
00
0b
01
06
fd
00
00
f0
09
0e
f6
f4
06
fb
ec
01
fc
03
fe
00
18
fe
10
01
f2
01
01
fd
04
ec
fa
f9
fb
03
05
04
03
fd
fe
04
02
12
fc
fd
02
03
05
f4
04
fd
fa
00
0a
f7
02
fa
fb
f7
f1
f5
f8
16
08
02
00
ff
f2
03
01
0b
0f
e4
f5
fc
0a
fc
fa
00
fd
eb
f7
04
f1
05
fc
fa
06
04
0b
f9
f3
ff
0a
00
01
16
03
06
02
07
0b
f8
14
f1
ed
03
ff
02
fd
fd
fe
0d
03
0c
fe
01
f2
18
02
03
01
04
01
f8
10
01
fb
07
03
f9
ed
f0
17
04
f9
ff
ef
06
f0
f2
02
06
fb
03
f9
fc
f5
04
ff
05
f9
fe
18
fc
00
ea
ff
f7
f8
00
09
ed
00
01
00
00
0b
02
fd
0e
0e
ff
00
14
f7
ed
07
0e
09
fe
0d
f3
05
f8
01
07
fe
02
0d
fe
f5
0e
0b
fd
f2
f8
f4
0c
fd
ff
0a
04
04
ee
01
0d
0d
02
03
ff
03
15
ea
fd
09
f4
00
ee
fc
fd
15
00
07
ea
f1
01
fa
0b
01
fa
05
09
0f
0c
04
fa
01
08
06
fa
06
05
e6
0c
03
10
ee
fa
f4
03
f6
fa
fa
03
13
fd
03
fe
00
fc
ff
0c
0f
03
00
12
f7
02
0e
10
0b
03
12
02
ff
0b
02
01
03
14
0b
fe
0a
ea
01
ee
09
0f
08
02
04
00
fb
fc
00
ff
fe
f6
05
ff
11
18
ea
05
fd
fe
17
04
03
00
f4
14
00
0b
0b
14
07
0a
01
f6
0a
07
01
03
0a
06
fe
01
f5
10
fc
18
fe
10
0a
01
0b
fa
0a
00
09
02
00
07
f7
01
12
f4
0f
0b
f2
02
14
03
fb
00
ff
1b
16
0f
f1
13
fb
00
f6
03
00
12
02
fe
02
f3
09
fb
00
00
f9
0e
01
fa
0d
07
f0
f4
07
fc
0f
0c
0b
12
ff
ea
0f
fd
15
02
f9
11
0e
fe
f9
0b
0e
ff
03
0d
05
e9
ff
04
f6
11
19
fc
09
02
0a
02
09
02
05
02
00
00
09
06
fb
11
f7
08
18
09
f8
04
01
05
fb
00
fb
06
f6
fc
03
10
08
01
00
03
03
0b
06
f5
fd
03
0c
06
05
00
f9
fe
05
0b
01
0d
ff
0a
f9
13
03
f3
fd
05
f4
f6
fd
0c
04
fe
f5
08
06
f5
f6
00
15
0c
f5
04
0a
fd
02
03
06
fc
17
0e
02
f1
02
f9
05
06
10
f2
07
f7
fa
0b
f9
06
13
ff
15
fc
f8
02
00
07
fd
fe
0a
18
00
04
fa
02
fb
fd
f9
0f
06
08
01
ff
fa
00
03
f6
03
05
0b
f4
ff
f4
0d
0d
07
ff
ff
01
08
ee
f6
0c
18
06
08
0f
f1
f3
fc
0c
0d
fa
09
1a
0b
00
f1
07
01
fb
05
01
f8
15
17
fd
fc
03
fe
0d
0d
05
fb
fc
ff
03
02
f4
08
f5
f6
01
f9
fe
1d
fa
00
0c
01
0a
04
ff
07
05
fb
05
0e
01
f1
fa
03
03
01
f8
0d
01
06
f5
f9
06
04
07
05
f1
04
12
fc
03
12
f9
f5
0a
f6
00
04
03
f3
f5
0a
01
04
19
0a
1c
06
06
f6
f3
fd
f1
0f
f4
08
0c
fb
f8
f1
02
00
05
0d
00
00
f8
fe
04
15
08
f4
06
06
06
fb
0c
fc
f8
f5
01
00
00
0a
0c
03
06
05
07
05
f9
0a
07
ff
f8
ff
f6
09
f7
09
f6
fe
e4
06
00
08
05
01
09
02
10
00
f8
06
0e
e8
02
00
09
ff
04
02
ed
05
e4
fc
fe
00
09
02
08
0d
0b
ff
fe
fc
07
09
00
05
00
06
01
e3
fb
10
0c
0c
06
07
fb
fc
0b
05
fc
13
12
f9
02
0d
0f
ee
11
05
03
01
07
fc
06
09
06
f5
0e
0d
fe
00
f4
0a
06
e7
fa
00
05
0d
0a
0b
0f
f2
00
01
05
fd
fb
06
01
ff
06
f6
06
09
08
02
13
e9
ef
fe
0f
0c
ff
fd
0b
0a
02
01
f8
08
f8
11
0d
0f
07
fd
10
ff
02
08
00
0b
f8
fe
06
07
f9
0a
0e
ff
ff
09
fb
02
11
fd
fb
08
0b
f8
07
0e
0a
02
0b
0b
fd
08
0f
fa
06
07
e3
03
fb
f9
03
01
ff
0c
05
03
03
0e
ec
07
f1
02
fb
fc
f1
06
0e
fa
03
03
14
04
10
03
f7
05
05
f8
17
0a
02
07
ee
00
f7
0d
06
06
08
06
fc
0a
ff
11
0a
fe
07
07
14
ef
09
0c
ff
09
03
0c
06
fd
f8
09
f6
07
0d
f6
04
ff
e4
05
0b
ff
f4
07
e3
15
fd
08
fc
00
00
ff
fa
03
07
00
03
18
04
ef
fe
0a
00
03
0f
fe
07
f6
00
08
19
03
00
0d
08
0e
fa
07
fb
14
03
0a
fc
07
ff
05
02
01
11
00
0c
06
0d
07
0e
02
fa
fb
08
f8
f2
02
0f
08
05
f8
0e
04
07
08
00
11
07
f2
fa
f9
fe
f9
03
0b
fb
12
04
09
fc
04
fb
fe
fb
0d
f9
02
0a
07
01
0c
04
04
fb
08
04
f4
05
01
0a
fd
03
09
02
00
f9
0e
00
f7
fa
18
08
fe
03
fc
03
fb
00
0e
f9
06
07
fb
04
ff
fc
13
05
02
06
f6
08
18
06
f3
12
10
07
fd
0b
f3
f9
0b
08
07
fd
fd
06
05
00
05
fc
02
f8
02
fb
f7
ff
0e
fd
ff
f9
ff
fe
08
04
03
02
ff
04
09
f8
0c
fb
f5
04
f8
09
09
f3
05
10
fb
09
08
00
fc
04
f9
07
1d
00
f7
06
00
05
02
03
ff
0e
02
f7
0f
06
0d
f2
01
04
03
0f
ff
fd
09
fe
ff
0e
f0
01
00
01
f8
f5
0a
f7
f9
17
f9
ff
f9
f8
f8
00
f8
00
08
0a
10
03
fe
06
f5
05
ff
11
03
04
fb
02
0e
01
16
0b
fa
fd
00
0d
fa
0d
02
0b
f3
01
00
00
06
0a
04
fd
f7
01
fd
f4
0e
03
ff
f6
09
06
fd
09
00
00
fb
fa
00
ff
f0
f8
01
0f
fb
01
0d
0d
fb
02
f9
03
03
01
02
04
01
f5
04
fd
fa
f2
00
fe
12
f8
07
07
ff
02
07
04
fe
ff
ee
10
06
00
f1
f8
0a
ff
0d
03
02
02
00
11
f3
03
07
0c
fc
fc
06
10
02
ff
fe
0a
0e
0e
02
02
05
06
f9
07
09
fd
00
0b
05
fa
ed
0a
00
09
03
01
ff
00
f4
0a
01
f3
05
eb
04
00
f7
f3
f6
f4
0b
10
03
1d
f8
f3
fb
0b
0c
00
fb
fe
06
f6
f2
0a
07
ed
fd
f2
03
fe
07
08
f7
03
f7
00
08
03
ff
05
02
f9
fa
07
f1
07
fc
09
02
09
01
fc
04
f6
02
06
0d
f3
f7
f7
03
ff
fb
0e
04
0b
0a
fa
06
02
0a
02
03
14
fc
ef
07
01
f7
f6
06
ff
01
e9
f7
07
06
ff
03
ef
fd
11
07
02
03
f3
01
0a
ff
1d
06
f5
0b
f5
02
04
fe
f5
fc
0b
0b
f8
02
04
08
07
00
11
01
10
f3
fd
ff
f5
f8
07
05
ed
01
0a
0d
f3
01
14
08
09
fa
ec
ef
0f
fc
03
fb
ed
f6
01
ff
02
00
00
0b
10
05
02
06
05
02
05
f3
f3
0f
05
04
05
04
fc
02
eb
ff
fb
02
01
10
03
05
06
02
fc
fe
fd
00
08
ee
01
06
06
fd
f2
01
00
03
ee
0e
04
02
01
f1
fa
01
f1
ff
f4
00
05
02
0c
ff
fd
03
00
02
0e
f3
fd
04
00
06
02
04
01
06
0a
14
fc
fa
fa
ed
0c
07
02
f3
06
04
10
0c
fb
f8
05
08
fd
01
fc
00
f8
00
07
f8
03
00
09
07
f4
09
06
03
0d
26
07
ff
01
00
00
f9
0a
fd
00
04
f8
ff
fc
fc
07
01
09
ff
fe
06
07
fe
03
00
fc
08
f2
05
0e
fd
00
01
08
ff
fc
07
00
02
f6
fd
ff
10
00
0b
13
00
f7
04
06
ff
03
16
fb
04
05
ec
1c
0b
10
fc
12
04
02
06
0b
04
f8
10
fe
fd
07
fb
ff
02
07
1a
02
01
01
10
f4
fa
fa
00
00
05
02
ef
06
0c
01
06
fe
03
09
05
ef
01
f6
fe
05
0f
fc
ee
f5
01
fe
05
0c
f8
fb
05
fa
0f
ff
1b
08
f8
fb
07
fb
0b
07
02
0b
0a
03
ff
f9
06
02
0a
f6
ff
01
fe
08
e9
02
0b
0e
ff
0d
06
fc
01
13
04
03
00
00
05
1c
05
09
0a
0e
f8
03
01
07
04
ee
f7
fb
09
f9
f5
ff
fb
ec
01
01
05
0a
05
fc
ed
fe
00
fa
02
01
ef
03
f7
08
00
f7
01
f4
fa
ee
03
fc
01
f9
02
fc
06
0a
06
f7
06
05
f4
01
fc
0a
05
00
ed
fc
05
0e
fc
f5
f1
f8
ff
18
fb
02
1e
10
fd
ff
07
ff
f5
fd
0f
07
ff
0d
0b
f0
11
05
ff
07
00
00
00
f4
06
08
f0
02
00
00
0e
fc
f4
f1
03
07
06
03
03
f8
fd
00
f9
04
02
ff
f9
0c
03
0b
ef
fd
f4
20
06
00
fd
09
f5
02
ff
f8
10
f6
f9
04
01
f9
fb
0b
0a
02
01
00
0c
f6
ff
f3
07
fd
ff
0b
fc
04
0a
fb
ff
03
12
fc
07
06
06
05
14
05
00
08
fb
02
fb
15
01
fe
ff
ed
00
01
f9
03
03
0c
03
fc
04
01
02
f6
00
fd
02
f5
06
fd
03
f7
03
f6
0c
0e
02
02
05
fc
03
f5
01
0a
08
fb
fd
fa
01
04
f7
fd
02
0d
ff
f3
12
fe
07
00
03
19
f6
06
fb
07
05
f4
06
04
09
f8
f0
03
09
f8
ec
10
fb
08
ef
f1
fd
0e
fa
ff
f9
f2
04
fe
06
fe
00
00
f1
f2
05
ff
fa
00
ff
02
12
00
fb
0b
1e
04
f5
f7
00
1a
f9
05
00
00
ff
00
12
09
0e
0e
fd
f4
07
f6
05
00
16
fd
02
fc
01
0d
0f
03
05
0e
00
fd
fa
04
08
0c
02
f8
05
04
01
07
fe
02
00
00
08
06
fe
00
05
0b
04
0f
ff
f5
0b
ed
f7
0e
01
0b
fe
fc
fb
fc
0b
0d
ff
f6
f8
17
01
fe
00
04
03
08
00
f9
03
fa
09
ef
00
fe
01
14
00
03
08
eb
f3
fc
1a
06
06
02
04
f4
00
fc
04
0b
03
06
06
07
0c
f8
fc
02
0e
03
06
08
0c
f8
f6
0c
fe
ef
09
12
f9
fb
fc
fb
fd
00
0a
0b
03
0e
f0
ff
f5
f1
08
f7
f6
02
02
ff
ff
04
04
f9
0e
ff
fe
f3
1e
f4
ff
08
fd
00
fa
16
06
09
05
0c
f6
03
00
f5
f2
06
03
00
ef
fb
0a
13
00
fd
01
03
08
01
0f
03
11
f8
05
03
03
0d
02
05
04
05
fa
06
0e
0e
fe
05
04
f6
09
02
01
0b
ee
fa
f0
fe
ff
0a
04
09
05
fe
10
08
f7
fd
fe
07
11
00
f7
0b
13
05
fe
fd
08
16
f0
00
04
00
fe
0d
fb
fb
fc
03
00
00
09
0f
ff
01
10
01
07
06
00
fb
02
10
11
09
0f
0d
fe
e9
00
07
01
01
05
03
01
11
f8
0a
09
10
f4
03
f5
01
04
09
01
09
02
00
11
fa
0a
fe
02
0c
fc
fa
08
f4
fd
09
04
ff
06
00
e6
02
0a
01
0d
07
f8
f3
0b
0a
05
0e
06
08
ff
0e
13
fd
01
f9
f8
15
09
06
f0
00
05
0a
11
fe
f7
04
0a
fc
01
fa
00
03
fe
0a
02
0b
00
14
f3
f8
0a
03
07
1c
08
e8
06
e9
ff
01
fe
01
04
e8
13
f4
00
fa
02
10
06
07
09
00
fa
0f
fc
02
ff
0b
0a
ea
06
04
f8
09
0c
09
00
ff
fa
00
fa
fa
fe
0e
02
f0
f7
0f
06
03
08
06
01
0b
11
f8
00
01
e9
08
07
01
fe
09
fc
ff
00
04
0b
02
15
0c
00
07
04
fe
ff
10
f6
e8
04
02
02
fe
fa
f4
02
f1
07
09
f7
05
01
e8
fe
06
02
0c
04
ef
02
0b
fb
08
f3
ff
f7
f4
03
ff
09
f6
f4
f6
03
06
0d
03
ff
0f
fa
f2
04
10
09
10
01
09
08
06
ef
e8
0b
03
0e
f6
04
f3
0e
08
f2
00
ff
04
01
10
ff
02
01
ff
f8
05
00
00
07
0d
01
01
09
02
f1
00
09
fd
04
00
05
fc
0b
ff
0e
f9
01
f1
ff
02
01
00
fc
0d
02
04
02
fe
f8
0e
ed
02
0a
08
ff
f5
01
f3
02
ed
01
f2
00
0c
fe
f9
0a
02
00
f8
02
00
0e
04
fb
fe
04
01
ed
fd
0d
03
0c
08
0b
02
fe
0c
f3
04
0e
05
fc
fb
fa
12
f7
14
f8
03
02
04
07
ff
ff
0b
fb
05
0c
fc
00
fc
06
0a
ed
03
00
09
06
fe
10
0f
f6
07
0d
03
01
fd
07
01
fb
0c
00
fe
10
03
03
0b
f1
f9
00
08
0f
00
f9
07
0a
f7
f4
fe
07
ec
17
13
02
fe
fe
0d
fa
01
00
00
ff
03
ff
07
0c
02
0d
06
f4
ff
0a
03
02
0b
01
ff
07
06
f7
08
0c
10
f8
10
0f
fe
0c
07
08
03
0c
ef
04
f6
fd
01
00
06
0a
01
f4
02
11
f1
00
f5
ff
00
02
00
fb
16
02
01
fc
16
01
18
05
ef
05
03
01
15
0b
00
05
f4
01
fb
15
08
f8
06
09
ed
0a
fe
17
14
00
00
0b
10
f6
08
fb
02
09
03
07
fb
01
02
09
f9
06
05
02
05
ed
ef
0e
0f
01
fe
0a
ee
0a
06
09
02
00
00
02
13
05
02
0b
07
f2
02
0c
05
fc
05
07
fc
0d
f8
00
ff
f5
ed
ff
00
f8
05
04
05
ff
11
fe
fb
fc
01
ef
03
08
0a
01
f5
02
f6
06
f2
00
f3
fe
02
09
f5
15
0e
01
f5
ff
02
fa
fe
f1
01
05
01
f1
fc
10
fe
0a
07
fd
04
fc
0b
f5
03
14
19
02
fe
f9
08
f3
0a
fe
05
ff
0a
07
02
fe
0b
f7
0a
08
fe
00
f7
0a
08
f6
fc
00
05
03
0a
00
fa
03
00
fd
f5
09
f3
07
02
fa
02
01
f3
08
0c
03
1c
ef
fa
fe
17
0d
ff
fd
10
0a
f7
f8
f9
0e
f2
02
05
fa
fd
fc
0f
01
01
f5
00
12
02
00
09
fb
f7
fc
07
f7
04
0a
03
03
02
03
fc
07
fc
ff
00
0e
04
fa
03
01
00
ff
0c
f7
0f
06
ef
07
01
f8
02
01
fe
fb
f1
f7
01
f9
f8
03
fe
ff
f5
03
fd
05
00
04
f1
00
1d
04
06
05
f3
04
fb
fc
21
01
00
0c
fb
01
ff
03
fa
fb
0c
0a
ef
0b
ff
ff
09
09
12
fc
1f
f8
11
04
fa
03
04
05
f3
01
fe
04
f7
ff
10
00
03
ee
f4
fd
0c
00
fb
fc
f2
02
fe
00
fe
00
00
03
0e
04
08
08
08
fb
02
0a
07
fd
f7
fe
fb
0a
f4
f8
fb
fd
e3
06
00
ff
0d
06
08
01
12
fe
f3
08
03
ec
01
fe
08
02
02
02
ef
05
e3
fb
03
00
fd
02
00
10
0a
01
fe
01
03
f6
fe
fc
05
02
01
e4
fb
0d
09
09
03
fd
fd
fa
0b
fa
01
16
1d
fc
00
0e
0e
ee
01
0c
09
00
0a
04
0a
0b
08
f6
0d
05
02
00
f3
08
08
e9
f8
00
03
0f
0b
fe
fe
f5
04
f9
0e
ff
f3
01
01
f7
f9
fe
01
0b
0d
05
17
e7
ee
f9
11
0a
01
02
0d
06
04
07
ef
0b
fa
fe
fc
0b
04
f9
15
fd
00
02
00
12
fb
01
04
01
f7
f8
0b
fe
01
0b
fd
01
0e
04
fd
09
07
fc
01
10
ff
00
01
fb
fc
fb
10
f5
0a
03
ea
01
fa
f3
03
fe
02
f6
ff
ff
00
03
f0
06
fc
00
f1
fd
ef
11
f6
ff
04
05
20
01
07
02
fe
05
04
02
21
01
04
09
f2
01
fb
04
f6
06
0e
06
fe
0b
00
fe
08
ff
0e
fb
1c
f1
08
0c
f7
05
03
05
fe
fb
f8
08
f6
02
10
f6
03
fd
ea
fc
11
02
f7
fa
ea
05
f6
01
fd
00
00
09
07
00
fa
f5
fe
fc
f9
10
00
05
fe
f6
fd
f5
06
15
07
0a
0a
fb
02
f3
ef
e6
0e
01
f0
ff
11
f2
0a
0d
01
f6
fb
04
00
01
ff
f9
08
f0
ee
01
09
10
04
03
06
01
04
03
fe
17
ff
00
05
f7
00
06
fb
0a
03
0c
07
13
01
05
0b
ef
0a
f9
f9
0b
10
09
16
04
02
fa
f4
fe
05
00
01
07
04
ff
fb
0d
fe
00
0a
03
f7
02
14
00
0f
f8
08
0d
0e
f0
0b
08
ff
03
10
05
01
ff
fc
01
01
11
ff
01
fe
05
f5
fd
f3
0d
03
f4
ee
0f
f1
ed
0e
05
00
09
03
ec
fb
0d
f5
fd
0b
01
00
fd
11
01
07
15
11
0d
06
ef
09
f7
14
03
03
f4
07
fb
fa
07
00
fe
00
f8
01
12
02
09
01
10
07
04
07
0b
f8
07
01
05
08
0c
08
f7
01
02
03
07
03
02
0b
01
ff
04
11
ef
05
e7
09
ff
fd
00
00
00
15
0d
fd
fd
f9
07
04
02
ff
02
0c
f6
07
0f
fe
fe
0d
12
10
0c
03
0e
f7
f8
ef
e9
00
fc
ff
0c
08
03
05
0a
06
04
00
fb
07
04
01
01
fa
04
fc
0a
fa
fd
03
0c
0a
00
00
09
09
0c
10
06
0f
ee
11
06
02
03
e1
fc
f6
03
ec
f8
0d
fb
fc
02
01
00
01
05
fa
eb
01
fb
ef
00
06
fd
02
f6
02
01
ef
00
03
f5
fe
02
f5
00
fa
fd
fe
04
09
03
e8
06
11
f8
17
07
05
03
00
fd
f7
04
0d
f8
f2
eb
f4
ff
08
f9
f9
0b
04
06
08
04
fa
e7
f0
0b
0b
ff
08
01
ec
0f
01
04
09
fc
08
00
f1
07
02
ff
f8
00
fa
0f
08
f3
f2
0b
f9
fb
0a
03
05
ff
01
ff
01
09
09
f1
13
03
fe
f7
f2
ee
10
01
ff
04
0f
f9
fc
fa
ec
08
04
f4
02
09
f8
f5
16
1a
08
04
00
07
04
03
ec
01
0d
06
05
f6
ff
0a
f7
ff
fd
0b
08
09
00
11
06
10
06
0a
01
fe
04
fd
11
ee
f8
f8
fe
02
15
ed
03
10
00
04
08
f5
01
02
00
00
0a
00
02
12
f8
fd
f1
02
08
07
fa
00
f6
04
03
02
f3
12
04
0e
00
00
0e
00
fd
f1
03
01
0a
fb
ed
0a
0d
02
f4
02
15
fd
04
f2
0e
fd
f1
03
04
0b
15
eb
08
08
10
f1
14
fe
00
fb
03
06
11
00
f6
00
00
fc
fc
08
f8
00
00
0b
03
0b
fd
f2
0f
01
00
0d
02
08
fc
02
02
f2
04
f3
05
fc
0e
03
01
fc
e9
fc
00
f2
f0
03
01
f4
00
07
02
ff
fe
03
f8
02
0c
f9
05
09
01
04
e7
0b
f9
fb
ff
03
fa
12
10
f9
04
f2
0e
ff
00
0f
06
00
07
fb
f6
f2
02
07
0f
00
00
00
ff
0c
08
fe
fd
0a
e7
fd
0d
06
0a
fb
e5
0c
02
14
04
02
06
00
02
03
fb
0c
0c
00
fc
fc
fe
f3
f3
0a
0a
0e
ef
09
06
02
00
f7
f2
fd
f0
fc
0e
03
01
0e
07
f8
03
ff
02
09
fb
f9
03
02
ff
03
fb
ee
f2
fb
f9
05
06
08
10
fc
00
04
04
02
ee
06
0c
fd
08
01
07
fa
01
01
fb
13
07
02
f2
14
11
06
f5
05
f6
fd
04
fa
07
15
fe
01
0e
03
1c
02
03
0c
0e
fe
fd
ff
00
ef
f9
03
0e
01
fd
01
0b
fd
ec
0d
fb
fb
03
06
ed
05
fd
01
fd
14
fd
02
f0
03
09
02
16
e5
fb
ef
0e
fe
06
02
10
06
f3
0a
06
fd
f4
06
fe
f8
01
f4
04
06
01
fe
16
12
02
f4
0d
09
04
f7
0a
f3
0e
03
0a
fa
0f
e7
06
07
02
00
00
f4
fb
07
ff
08
01
f9
0f
f3
f0
11
04
09
03
05
f7
03
06
01
0a
fc
00
17
01
f7
f5
fa
fc
02
f7
f7
fd
02
ff
0e
06
00
f2
ff
0e
0e
fc
1b
00
01
06
f0
04
01
f6
07
f4
fd
03
06
0c
00
00
08
00
ff
06
f7
ff
f5
fd
fa
04
03
fb
fa
fb
05
08
05
0b
ee
f1
00
04
f4
07
ff
f7
0e
f3
f2
fc
01
02
ff
06
00
fb
ff
07
14
f5
00
f5
04
f7
0c
02
2b
f1
08
04
02
0e
04
00
0b
11
09
00
f3
01
01
fc
11
07
04
02
f5
01
0c
10
fd
04
fe
f8
fc
f6
06
0e
06
01
f8
01
00
fb
06
00
0c
fc
02
fb
04
11
08
f8
fc
f8
08
f9
ff
f3
08
05
08
05
02
0a
03
0e
03
0e
03
01
07
03
fc
f8
05
0a
fd
0c
fb
01
04
f9
07
0c
00
00
16
0f
fc
03
01
19
08
0a
ea
03
05
0e
03
f1
fe
11
04
fc
03
ec
03
fa
18
0b
f9
02
fe
00
0a
0c
f6
fc
f7
f9
fe
fc
03
f6
03
07
07
00
0a
0e
09
0c
0a
05
fd
09
03
0a
fa
12
f9
03
05
ff
f9
08
15
fc
00
06
03
17
02
17
06
fd
00
00
03
0e
05
01
0b
0c
f1
09
0a
04
fd
08
07
fc
08
f7
fd
04
f2
f0
01
fe
f2
02
06
11
fe
0e
00
f9
fb
00
f2
02
09
0c
ff
f4
01
f9
0b
f2
03
f2
fe
08
00
f7
16
0d
01
f4
02
07
fa
03
ef
00
05
00
f2
f9
0f
fa
0b
09
01
05
02
0b
f4
00
0e
1a
00
fd
fc
09
f2
04
01
07
01
07
09
06
00
0b
ff
05
07
fe
00
f5
07
0a
fb
fc
00
0a
04
09
fd
fc
ff
fb
ef
ee
07
ef
05
01
f5
fa
05
f3
10
07
04
1a
f2
f8
00
14
0e
fe
f9
13
07
f6
f6
f8
0e
f9
04
fb
fe
ff
fb
12
0a
00
f3
00
12
0a
ff
0a
f5
fb
ea
08
f6
ff
0d
04
02
07
0a
fe
04
ff
05
02
0d
fd
ff
03
fa
00
fb
10
f8
13
0a
f0
09
03
f8
02
06
03
ee
ec
f4
00
fe
fa
02
ff
ff
f6
01
fe
06
fd
03
f3
00
16
02
06
04
f6
03
01
fe
24
fc
fc
0b
fc
00
fa
07
ef
fd
06
09
ef
0e
07
f4
0a
00
0f
ff
26
f8
10
00
fb
04
04
fc
ed
05
01
04
00
06
09
fc
00
f3
fa
fa
0c
fe
fe
fc
f4
fd
f9
fc
fe
00
00
f3
08
07
f0
07
ff
f7
fb
05
10
07
f6
00
06
0d
0c
02
00
06
01
fa
01
0a
02
f9
ec
f2
08
0a
0d
f8
f9
ff
02
01
04
fe
03
01
f8
f7
06
0b
f0
ff
ff
15
02
0d
0a
04
fc
09
fc
02
f6
f9
1c
16
00
fb
fa
07
07
f4
f9
f6
fa
02
09
ee
00
fa
0f
02
0a
15
f1
00
03
01
07
10
ee
12
f2
ff
03
f2
00
08
ff
00
ff
08
06
f5
01
00
ec
09
00
00
fe
05
fc
fe
02
04
fc
05
01
0b
0c
01
fb
f1
0d
00
05
fa
f7
f0
07
f9
02
fe
06
08
f2
f1
06
ff
ec
0b
0d
08
f1
02
fd
f6
f2
f9
00
15
ee
02
f9
02
fe
0a
f4
f0
1a
06
05
00
f5
f4
fb
09
06
06
fe
02
0d
fc
09
09
01
04
fb
f7
05
fa
07
02
f7
fe
03
ff
08
09
fc
0a
01
0c
09
00
ff
02
05
f7
08
09
fe
01
f9
04
ff
fc
07
00
f2
02
10
ed
01
0c
04
04
f4
01
08
05
0d
f7
09
fd
fd
fe
f0
02
f3
17
16
ff
04
f4
0e
f9
f2
06
0e
0d
fd
f9
02
f2
fd
f7
03
07
03
f7
f6
0a
fe
fe
05
03
ef
04
09
0d
01
00
00
06
fd
02
09
09
09
02
19
f7
f2
0b
0d
0a
09
09
06
fe
fc
00
13
01
ff
f8
fd
f7
0a
f9
fe
0a
07
f2
fb
0d
01
0d
08
04
f7
01
0b
09
09
11
00
03
03
f5
fc
0e
f1
ff
04
02
10
ff
0f
ea
01
08
00
01
07
fd
f2
06
08
0b
08
0b
05
fd
16
07
ff
0d
fd
ea
04
0e
03
e8
0a
0a
04
1c
f8
fb
01
0b
f8
fd
00
00
09
fc
07
0b
0b
00
07
f5
f4
06
ff
18
0b
02
e7
01
fc
01
01
0c
00
10
ea
0d
fa
01
fe
18
06
09
0a
00
01
03
0f
01
f9
f4
09
04
fe
05
04
fa
fd
0b
03
12
0d
f6
00
01
0c
02
0f
fe
01
f6
08
fb
fd
07
08
00
01
12
06
02
fd
f9
06
06
01
f8
03
00
ff
fd
05
17
05
0d
0d
01
16
0a
00
09
0f
f7
f3
08
00
00
14
f9
01
01
05
10
09
f1
fc
0a
f9
00
fb
02
08
03
fe
01
fc
0d
02
f9
04
f3
10
01
01
07
f5
f0
f5
01
02
0c
0b
fe
0d
00
f8
02
08
07
10
08
04
02
0a
ef
f7
09
1a
07
04
01
f9
0e
01
00
0f
03
06
fe
0e
fe
08
fc
09
f0
fe
00
00
02
fd
03
fe
f6
07
f9
01
09
f8
fd
0a
16
ff
f1
f8
07
19
f3
01
01
00
f0
ed
fe
0e
02
00
00
f6
f6
04
04
01
10
fe
03
f1
01
07
0a
00
ff
02
01
ff
04
f3
04
0a
00
f5
07
0c
04
07
f1
03
fb
00
04
04
07
fc
06
0a
03
10
01
fb
fd
fa
fd
03
0b
08
fd
0e
fb
fc
fa
08
fe
09
f6
03
06
01
0d
06
0b
05
00
f7
04
f9
0d
ff
00
0b
f7
0f
ff
00
04
ff
fc
f0
17
00
03
01
f8
ee
f9
ed
0a
0d
03
17
01
06
00
fc
06
01
ff
f6
0c
ff
ff
fa
01
07
00
ea
00
fd
f9
04
0a
0c
f6
00
fc
1c
00
09
fb
0c
f8
ff
fb
fa
f5
0b
04
fe
11
06
ff
ed
0e
10
07
ee
03
f2
01
04
fd
08
07
16
0d
02
08
1d
f8
03
03
0c
f9
f6
fd
00
e8
f8
04
17
fd
fb
05
03
02
00
11
f6
03
01
06
f9
07
00
02
03
11
10
ff
f0
0a
0f
00
0d
fa
f2
f1
0d
0e
fd
fe
10
fd
05
f9
0d
01
03
fe
f8
02
02
f1
02
04
f9
07
08
06
03
04
16
04
fe
fa
0a
ee
11
04
ff
00
0b
e8
03
01
03
00
00
08
0b
0d
0d
03
11
e8
12
0b
ff
01
ef
fe
f8
06
f0
f0
0c
f4
01
fe
01
f0
fd
fc
fb
ee
fe
fc
ef
f7
fb
fd
02
fe
05
01
ef
01
04
f8
f9
08
ef
01
f9
fa
f9
05
06
05
ee
04
16
f0
0d
f4
04
04
00
fb
fb
02
06
fa
f7
f1
f9
02
0d
f1
fe
10
05
07
03
fa
fd
ee
f6
00
0c
00
08
0b
f0
07
ff
05
03
fa
06
00
f4
05
0a
00
fa
00
fd
00
00
ef
f2
13
f2
f3
f9
04
00
01
ff
06
ff
09
f5
f9
11
03
06
00
f9
f2
18
fe
ff
fa
0c
fb
f7
f2
ef
0b
07
f1
ff
01
f2
f6
11
1b
06
f2
00
13
06
04
f6
fb
0d
f5
06
f2
00
0a
fa
ff
f8
11
08
06
fe
11
04
0c
fe
03
fd
f7
02
fa
0c
fb
00
fa
03
01
15
f3
05
0c
04
f6
00
f3
00
fa
02
03
08
00
03
18
f6
fe
ed
08
fe
fe
06
ff
fc
07
0a
01
f4
0f
04
05
fe
00
0d
00
fd
f2
f6
fa
09
fb
eb
0c
0d
fa
f9
05
16
f6
02
f7
0e
fa
f7
03
03
08
05
fa
11
08
0b
ef
10
ff
ff
f8
05
fe
0d
ff
f9
fc
fe
f6
fa
02
f9
00
00
f8
01
ff
06
04
fd
03
0a
f6
07
0e
f0
f5
ff
01
09
03
ff
15
0f
02
00
08
0d
fd
f7
fa
08
07
0e
07
ff
0f
01
f3
01
02
16
ff
fc
f8
0e
03
01
00
08
02
16
fc
f9
05
15
ff
fa
04
00
11
04
0b
00
05
f9
fc
08
fa
fb
00
f6
03
03
fd
0c
fe
03
02
08
0a
f7
fd
09
07
f7
01
f7
0c
07
09
00
fd
fc
f9
03
00
0f
00
07
fd
00
00
f6
0d
fd
03
06
03
05
fd
0a
e9
11
00
00
2c
13
11
12
f4
f8
fe
ed
07
f4
f8
ff
f9
03
02
05
fd
03
fc
0b
fe
03
07
0d
0b
fe
07
f9
05
00
08
00
02
fc
03
fc
0f
04
05
fc
fd
08
05
fc
00
06
f7
03
03
19
03
f5
f9
10
03
0c
03
fd
07
f3
01
f4
f8
0a
fd
f2
0d
02
02
02
08
0f
06
01
0c
1b
02
fc
03
1e
0b
fa
01
05
ed
1d
fd
fe
fb
fc
fe
0b
01
0e
fc
f4
06
1a
f6
01
01
f3
08
09
07
f9
f9
fd
00
f8
06
f6
0d
f4
03
fa
f1
04
fd
fd
0a
05
fc
10
f6
04
f6
0a
ff
f3
00
00
17
fd
07
f4
00
f6
05
fc
0d
00
05
ff
00
00
f3
01
07
fc
09
02
00
04
f8
f9
0c
09
09
0b
01
08
f9
02
00
12
fc
ff
05
07
01
f6
f6
06
0e
0b
f6
f3
14
00
0b
05
01
00
00
09
0b
04
18
fe
00
07
00
04
07
fb
06
02
03
00
fe
07
f5
08
14
00
0c
02
f9
f5
f8
02
fe
03
0a
07
fc
0b
06
0a
08
06
f9
f5
0c
02
f2
0d
0e
f4
19
f6
f7
fe
04
fe
fd
04
00
0e
00
08
09
ff
00
f3
02
f7
fc
fb
2a
fb
f7
f3
f8
03
04
00
1a
01
0d
f3
f4
04
00
fe
17
03
00
02
f3
01
08
0c
f7
01
f7
0c
f9
f7
02
05
04
f9
07
02
ff
01
f6
00
09
fc
01
06
f7
00
f8
f6
fc
05
04
03
00
f3
01
04
07
00
fd
01
02
03
fa
ff
f9
01
00
fd
fd
fc
06
11
fe
02
0e
00
03
0f
f9
fa
03
ff
01
24
fb
03
ff
12
09
14
f6
f8
0c
01
fd
f8
00
0c
04
fb
00
fe
f9
ff
03
1a
f6
0b
ff
02
0a
f9
f3
fb
f8
03
05
fd
f3
fd
0c
00
fe
06
03
05
00
02
02
0d
f5
00
02
0d
f9
09
fc
fa
15
fe
07
0a
06
03
fe
0e
fc
0d
fd
0e
f9
03
00
00
07
0d
06
f7
f5
06
07
f3
00
08
07
f9
04
0b
ef
0b
f8
f5
05
02
02
02
08
ee
fe
01
f3
f3
06
0a
f7
0e
f5
03
fb
fe
01
00
01
ff
f9
fb
01
fa
02
e7
0c
f8
f7
05
00
01
17
fe
fd
ff
fb
0e
01
00
fe
0b
02
0a
fa
f3
f4
02
03
12
04
08
01
01
fc
04
05
01
0b
eb
07
0c
0c
11
ff
ec
0c
01
09
04
ff
fe
00
fe
05
fa
f9
0c
00
fa
01
f9
f9
f6
f4
14
20
01
0e
f2
01
00
ee
f8
f0
fa
01
0c
00
01
fb
0b
fb
02
04
02
05
f7
fe
02
02
07
04
eb
f5
fe
fb
f7
07
0c
fc
0f
05
00
ff
f3
ff
f0
12
fe
09
09
02
08
fe
07
02
00
0e
fc
02
f6
03
13
08
00
fd
fd
00
08
02
0c
02
fc
fc
fc
01
0d
00
02
fe
13
11
fa
07
00
fb
f5
01
04
01
ed
f9
0c
ff
f8
09
f6
00
07
07
ec
05
ee
00
fa
fa
ff
0a
ee
05
ed
03
15
e8
0c
f3
16
fa
07
06
fd
15
ff
08
0f
f8
f3
08
f8
fb
fc
f9
06
0f
f7
ff
07
0f
f5
f2
0e
12
0d
f2
f9
fe
10
04
0f
00
fb
f0
0a
0c
04
00
00
f4
fb
06
fe
04
fd
0e
09
ef
ff
14
ff
fd
11
05
08
01
f9
14
16
ff
02
1f
06
09
f0
ff
00
0e
06
04
fa
0d
00
09
02
01
0d
ff
0b
08
10
15
09
02
04
fa
13
fb
f6
06
0c
07
fc
06
08
06
04
10
00
14
07
f7
ff
f1
fc
fb
00
09
ff
09
05
05
05
01
07
fd
eb
0e
03
01
08
0a
f2
0f
fc
f8
fe
07
01
fc
05
00
0c
ff
05
05
fe
00
e9
0c
f7
fe
fd
14
fa
fa
11
f7
12
fe
01
19
0d
0c
0d
ed
02
00
fd
16
06
ff
06
f0
06
19
06
f8
11
07
08
f7
fc
08
0c
0e
ff
02
fa
ff
01
0a
00
06
f2
01
f5
09
00
01
f1
07
03
00
f8
ff
f7
00
03
08
12
03
0a
01
10
00
08
01
02
04
fa
ff
f0
fd
0e
fa
fc
09
01
01
ff
fe
0d
12
01
09
1a
ff
00
04
15
01
12
f9
0b
0d
15
08
f4
00
09
01
07
02
fc
fe
f8
0d
10
f2
05
ff
00
02
06
03
f9
f4
13
04
f2
01
f2
06
02
03
00
08
10
0a
06
06
09
03
09
fd
0a
f4
0c
fa
f1
10
00
14
0b
0b
01
07
10
02
08
0a
1b
01
03
00
00
00
f8
01
f9
fd
02
fb
fb
05
f4
04
0c
1e
0a
fd
f8
00
fa
f7
03
00
ff
fe
fc
11
0d
09
0a
04
fa
fc
01
f7
01
1a
03
03
f9
01
06
19
f5
0b
03
02
06
f6
f4
09
fd
fe
f8
05
05
07
05
f2
06
00
01
08
08
fd
f2
0b
0b
03
10
03
f7
01
f7
03
01
fc
f8
f2
0b
02
04
f9
0d
08
ff
01
08
f3
ff
05
05
00
00
00
fb
fe
fc
09
fa
00
0e
ff
fe
01
00
0d
fa
00
f4
0c
f3
06
01
f6
f8
f9
f4
0f
ff
02
0c
05
03
05
05
00
02
fe
0c
00
04
fd
f7
fd
fa
02
f9
03
0c
fb
05
fa
ff
00
00
01
07
ff
0d
f8
f8
f7
fe
04
f1
fb
03
03
05
0d
fe
02
f6
f5
09
09
f9
05
f6
01
02
03
09
00
06
12
02
01
0e
fb
00
f7
02
f8
f4
0b
00
fc
f7
00
ff
00
f8
fa
09
fa
07
08
f5
06
f9
03
10
03
fa
02
01
00
08
02
fa
07
fd
00
ff
0b
f6
fa
f8
01
f9
f8
ff
f7
07
fa
02
07
0a
02
04
16
07
fc
01
fa
f4
0f
05
03
fa
08
02
06
fe
f9
09
f7
0a
04
09
04
09
fe
05
fa
02
00
00
f9
fc
03
07
04
00
06
07
f2
f6
0b
06
07
03
04
f3
02
f4
01
fe
03
01
19
0d
0e
f4
08
07
00
f6
06
06
f0
00
08
04
00
fc
ff
06
08
ef
14
07
01
05
ea
06
fe
f4
02
f6
01
03
01
0d
0b
fb
06
00
fc
0a
fb
00
f6
fc
fc
05
03
02
11
ff
03
00
fa
ff
f9
f5
fe
06
03
0d
fc
fa
04
04
f7
00
04
03
fe
03
00
f5
00
09
03
f3
00
f7
11
fd
06
03
12
f2
08
10
01
09
ff
01
08
0f
04
0e
f6
01
01
fb
01
08
07
05
f9
02
0f
11
f8
17
0d
f1
fe
00
05
0e
05
06
f5
05
02
f5
15
00
07
f4
00
f9
04
02
04
fc
06
f6
05
f8
ff
01
09
ff
08
11
f7
09
06
0f
06
10
01
04
05
03
f2
f4
fe
fc
f6
03
f4
01
01
f7
0c
07
09
01
09
01
ff
fe
02
0b
00
06
f8
00
0b
0f
18
f5
02
0c
03
01
02
f2
fb
f9
11
14
f1
fe
ff
fb
0a
06
08
fa
f9
00
04
f7
00
f9
fd
01
03
fb
08
11
13
0b
0d
05
ff
07
00
fa
fd
03
07
fe
02
fd
f8
05
0b
fd
03
07
05
05
18
0c
04
ff
00
00
05
08
fe
03
fd
08
07
0c
f7
ff
0c
02
fc
05
fc
03
fe
fd
08
1d
fe
01
ff
f9
f6
09
fb
ed
fd
06
f4
04
14
ff
02
fe
04
01
01
0b
ff
10
00
04
04
fb
03
00
f6
f3
ff
02
01
00
00
0b
fc
f8
00
00
0f
0b
f8
00
04
fa
04
02
0a
0c
01
12
fd
f1
0a
fc
f9
08
12
fd
f2
fb
fd
0b
ff
f3
04
01
11
f6
f9
fe
00
0a
fe
fe
0e
13
00
08
f7
f2
02
03
03
13
13
fd
fd
0c
fc
00
05
04
09
fb
04
f3
ff
f3
1a
10
03
03
ff
00
00
f5
f8
00
fd
07
07
00
fc
04
ee
fd
0c
fe
04
13
ff
00
f3
0a
01
fd
11
0a
04
0d
ff
02
fd
01
00
04
0d
08
f9
fd
00
08
00
03
fc
02
fc
01
01
01
21
f2
06
1a
fd
0a
05
fe
08
07
0a
03
fb
01
00
04
fd
04
00
0b
0a
05
f5
01
02
02
fc
fd
02
f8
03
02
fc
fb
12
f8
ff
ff
f6
09
03
05
f9
07
f3
fd
01
0a
0a
18
0f
09
00
f3
03
f5
09
f4
f5
0b
01
fd
fd
05
01
06
0f
06
fb
f6
03
0a
04
0a
08
fd
02
09
01
0c
f6
09
00
04
00
00
fb
0d
04
fb
0f
00
00
02
14
0b
fc
11
0e
06
10
03
fe
06
fb
fc
f9
00
f6
07
fd
ff
02
18
04
03
f9
f3
fa
02
0f
08
00
fb
01
fe
0a
fa
0a
fb
fe
0c
0e
fa
15
0e
03
fe
01
f6
00
f7
eb
07
08
01
01
01
13
fe
04
06
02
0d
ff
09
fa
02
03
17
03
02
03
fc
03
05
fe
02
04
f7
0a
05
fe
07
fc
01
08
fd
00
02
07
08
fe
fc
00
02
fa
07
00
ff
09
f4
ec
f0
10
ee
06
02
ff
04
06
f2
04
09
04
12
fd
05
07
00
06
ff
fd
06
0c
f7
fd
01
02
f5
06
01
f7
05
ff
f9
fd
f5
f3
00
19
02
01
11
ee
f5
f5
f8
ff
0d
0e
0a
01
fb
f7
fd
03
02
01
f7
fd
00
01
03
ff
04
ff
f8
f9
15
03
00
07
fc
04
03
04
fe
f3
ef
fc
01
06
0a
04
ff
01
fd
08
07
08
fc
07
ee
ff
10
03
09
02
f7
04
09
f3
0b
f5
fe
07
fd
00
08
09
f5
f9
06
01
fd
04
f6
f1
00
16
09
00
1e
03
0d
ff
fe
0c
07
05
ee
11
fa
f8
fb
04
00
05
fd
f7
fe
05
f8
02
0b
fc
fd
01
f6
fd
07
00
00
13
ff
ff
08
f9
06
14
06
fb
01
03
04
00
05
f9
06
f9
ff
07
19
05
01
03
fa
fe
09
03
f4
02
07
05
03
12
00
fd
fe
06
08
01
0d
00
11
fa
0a
05
f5
00
08
f5
f5
00
09
06
05
fc
09
04
fd
fc
00
17
09
f4
fd
04
fd
01
00
09
02
0c
14
00
f3
08
fb
01
02
10
f3
02
fb
fe
0c
00
01
0e
01
12
fc
f6
01
00
0a
fd
fe
10
18
00
0a
ff
fe
f7
fa
00
12
0b
01
ff
07
fb
00
07
f5
01
03
05
f6
00
f4
13
0b
06
fb
fe
03
06
f2
f9
09
0f
07
05
09
f5
f6
fc
07
0c
01
01
13
09
00
ef
0d
02
fd
0b
06
fa
09
0d
04
fd
02
01
08
0a
08
fb
fc
02
01
ff
fa
03
f5
f9
01
f9
03
1d
f5
05
17
00
0d
0a
00
05
04
fc
06
07
00
f4
09
01
08
04
fc
0d
05
fd
f8
01
03
03
00
05
f2
02
0b
fe
00
16
fc
f6
04
f6
06
04
02
f5
fa
04
fc
03
12
08
19
05
02
f8
f5
ff
f4
09
f3
01
06
f8
fd
f6
00
03
0f
0b
01
ff
f8
02
04
14
0c
f6
fd
03
07
fc
0b
fa
fe
f6
05
00
00
f8
04
0a
f6
fc
01
17
f1
09
16
ff
f9
fd
13
fb
07
f8
fc
06
fe
05
01
0b
04
15
f4
01
09
14
07
0c
fb
fe
02
00
fd
ff
13
01
fe
ff
fe
03
03
02
f4
0e
04
02
03
02
0c
12
03
f4
00
02
17
07
00
03
07
ff
09
f7
f6
f1
01
03
0b
0c
01
f9
05
fd
05
1e
f1
09
f5
12
08
0d
fc
05
ff
08
fd
fa
0a
ff
04
00
08
04
fc
f9
fe
00
f1
0e
02
f5
f7
ff
03
fe
03
04
f6
fe
00
fe
f9
f8
ff
f2
13
02
08
ff
04
02
fe
fd
05
0e
06
02
0b
0e
08
ff
ff
f7
f9
11
04
06
01
f2
fc
05
00
0c
f0
01
f4
fd
f6
f9
f7
0e
11
fb
09
00
fd
00
f9
06
07
09
fb
02
f7
0a
f8
fb
06
fa
ff
fc
fe
01
05
fe
0a
09
03
f8
04
fa
fd
1b
00
f9
f9
06
06
04
f1
f1
13
0e
f5
0a
fa
11
02
02
fa
03
00
00
11
f7
fd
03
04
fa
f2
02
1c
ef
fc
0f
07
fa
01
fc
f5
f8
f0
03
12
f7
fa
04
01
0a
fc
f8
09
01
fe
fe
02
00
f8
fc
03
0e
06
00
fb
f7
02
00
0e
f9
ff
01
05
06
08
00
00
06
19
05
00
04
08
fe
fc
0b
06
fe
06
08
07
06
0e
fc
f9
fb
f7
ff
00
ed
03
fb
0e
fe
11
09
10
fa
fe
fc
02
02
09
01
06
01
f5
06
fa
00
f4
00
06
0e
fa
10
09
01
04
05
04
f8
fb
e9
08
0c
01
fa
fb
08
fd
0e
06
02
02
03
18
f2
0d
0f
15
fd
f9
05
0c
04
05
fd
04
0e
09
0d
01
01
08
f6
02
02
fb
00
05
05
05
f1
06
00
0a
00
ff
fc
fc
f6
0a
f9
ed
04
e9
03
01
00
fe
02
f2
0f
08
03
12
fb
fa
fe
11
0f
01
fa
0b
08
f6
f5
06
0a
ed
fc
ff
01
00
09
0c
fe
04
f0
00
10
ff
00
0e
02
f0
f0
06
f3
09
08
10
02
09
08
fa
03
06
fb
fc
0a
fe
f8
fd
fc
ff
fa
0b
03
0f
0b
00
06
fa
09
01
02
1c
f1
ea
02
01
05
08
fe
f9
02
f4
ff
09
09
fc
01
ef
ff
1c
02
07
01
ec
02
09
fe
1d
f6
00
0d
f2
03
0b
05
f1
fb
08
08
06
0e
ff
f6
0a
0b
0e
fd
1e
f7
0b
fb
f8
02
0a
ff
ec
04
05
06
f3
03
09
0c
07
fd
ed
00
0b
00
08
00
ec
01
fc
fb
03
00
00
10
0e
f9
10
08
00
01
03
f9
00
04
00
f8
01
0c
0c
05
e3
0c
ee
05
00
04
0e
00
0c
09
09
05
12
08
0c
f8
01
f7
07
03
13
02
f3
fb
fb
f6
07
01
0d
f0
0a
fe
f0
fd
16
f9
fa
0f
03
0c
fe
fe
01
ee
ff
fd
02
0d
06
0f
fc
03
11
06
16
07
f4
fb
f2
ff
19
ff
0c
f8
f5
00
0b
07
12
0b
08
fb
ff
fe
fd
00
03
fc
0a
ea
0e
00
0f
04
fc
0a
0b
ec
15
07
09
f7
fc
ff
01
0e
0d
fd
09
0f
ed
ff
ec
ef
f8
04
03
09
01
fc
fc
05
03
fe
0d
08
fe
0f
14
05
0c
0c
05
06
fe
0b
00
ef
02
fd
05
18
fe
00
13
09
03
09
03
01
17
03
fc
01
18
e8
03
06
18
f9
0a
04
fa
07
00
0b
00
05
f3
00
ef
0e
00
02
02
09
00
0b
02
0e
02
03
ef
03
fe
07
f8
fd
0a
eb
07
01
06
fe
09
02
fe
01
0f
fe
00
fa
0d
f0
f3
03
f5
0d
06
05
f6
03
06
13
00
17
13
fd
ec
08
03
fa
00
04
07
0d
ff
f0
00
01
f7
08
f7
0e
e7
f6
0d
04
e7
0d
fd
02
fb
09
eb
0f
fd
fb
fe
00
00
ea
03
09
01
00
fd
fe
05
fd
0c
11
e5
fa
02
01
0b
03
05
10
00
fe
02
0f
06
03
e8
f0
06
13
08
00
fa
13
01
fa
01
ff
10
00
fe
f9
10
09
f9
ff
fe
0c
12
fa
03
06
0e
05
0a
fd
fe
0f
1d
1a
00
fc
f7
09
0f
f0
f7
f1
f1
06
08
f9
fe
fa
0f
07
11
16
e8
fd
fc
0c
09
0c
ed
0f
fa
0d
01
fc
08
ff
06
00
0a
03
04
fa
fc
00
e7
16
03
ff
fe
0c
f9
f1
0f
f8
0f
00
00
27
0a
10
ff
e7
13
ff
02
05
ec
ee
03
f3
06
0a
08
04
01
fb
09
f4
0d
fb
05
17
f8
04
fa
fd
f5
ff
00
0f
f5
03
f1
04
02
07
ef
02
0c
02
02
01
f6
f1
05
08
15
0e
fa
02
07
06
07
07
00
00
fc
f8
fa
f8
07
ff
f8
0a
02
00
09
00
11
fe
01
0a
14
04
02
03
0b
fe
fc
05
03
fe
1a
ff
fa
00
fd
04
09
03
07
fe
ff
14
11
04
07
01
fb
fc
09
09
01
f3
fc
f8
f0
fe
e7
0c
0c
fa
fa
ee
08
01
f2
08
0e
0e
09
ee
09
f2
08
f7
02
02
fb
12
fb
05
ff
ff
ff
01
fa
fc
07
0c
fd
00
00
07
fa
ff
0f
fa
0a
01
06
f5
f9
07
01
fb
f9
f6
f1
00
06
01
fc
0a
02
12
f9
02
fd
04
ef
ec
f1
08
14
01
ff
fe
fc
03
f8
00
11
fd
fd
ff
0f
02
f9
f2
06
f3
f5
ff
f2
ff
0a
01
1c
11
ee
ee
00
04
0e
f9
08
00
f7
00
03
fe
f7
0d
fd
fd
ed
01
04
fd
ff
fb
fc
07
fe
f4
0e
f0
ff
07
fc
0d
fd
fb
04
00
f7
ff
f8
0a
03
00
0b
04
07
04
06
02
01
12
19
00
10
fc
00
fd
fe
ff
18
07
fa
01
f7
03
09
07
fe
f9
03
06
f2
f6
17
10
ee
06
0c
fa
00
fa
09
fc
fd
0d
0a
14
00
f3
0d
01
f6
0a
15
05
11
11
f2
f9
f8
01
05
0e
07
fe
02
03
14
02
fe
0b
ff
ff
05
01
05
09
f3
05
01
fe
16
ee
02
0a
f7
0d
18
00
01
00
f9
02
0c
01
06
0a
f6
fb
fb
03
17
0b
f8
04
f5
06
0c
ff
ee
14
f6
08
fb
f6
0b
01
00
f8
09
08
01
02
07
02
14
0a
02
f5
fa
03
ed
0c
f3
0a
0f
01
f7
00
1a
00
fb
0d
0d
fd
fb
fc
03
01
04
00
08
02
f9
02
08
02
02
07
fb
00
00
04
04
06
0a
0c
0a
05
1a
f3
f5
0e
07
07
0a
05
06
f4
fe
01
0a
fe
00
03
03
00
ff
f6
f9
09
04
f5
00
08
01
08
09
01
f8
01
08
04
0f
13
fe
03
01
fa
ff
00
f4
05
00
08
0a
f7
0c
f0
fe
11
00
0b
06
f5
f3
fd
ff
fc
04
0a
06
03
1b
10
01
0e
fe
f1
ff
0b
02
ef
06
05
07
19
f2
fd
01
0d
f9
f5
01
00
07
00
07
0a
0e
00
02
f9
f2
fc
f9
1e
0c
fd
ef
fd
01
ff
00
11
fe
0f
f2
fd
00
01
fc
11
09
00
11
fd
01
09
0d
f6
05
03
05
09
fa
ff
04
fb
f9
09
06
0f
0d
fc
00
05
00
02
fd
06
02
f4
0b
00
02
06
ff
00
fe
18
05
03
fd
fb
01
05
04
00
02
f5
01
fc
04
16
f4
02
15
00
10
08
00
09
0d
f5
f9
09
01
04
16
fb
05
01
05
0c
0f
f2
f3
07
f9
00
00
02
03
05
fd
02
f8
0d
04
fa
07
ef
09
02
06
ff
f6
f4
fa
fd
03
0e
09
f9
02
04
fd
fa
fd
07
0f
fe
02
03
06
f1
f9
08
1b
06
06
f8
fd
09
06
fe
16
01
03
00
10
fa
12
01
0b
f5
00
00
00
f2
01
05
fb
0c
fc
ee
0a
13
05
ff
08
0c
f9
0b
f9
02
13
f7
fd
f8
ff
f4
03
02
fd
02
16
fc
f8
fa
f4
03
01
0b
07
01
f3
01
05
0a
ff
08
f2
fe
0d
01
fa
1a
10
04
f3
ff
fe
fd
fb
f1
02
06
01
fe
f8
0d
fe
01
0b
ff
06
03
ff
f1
f6
ff
1f
09
07
01
fc
f3
07
00
04
00
f0
00
02
02
05
fc
06
06
04
00
f9
05
08
00
f2
00
fc
fd
11
fe
02
15
ed
eb
f1
08
fb
0a
01
04
02
0d
f4
05
06
03
12
03
f9
fe
03
04
ff
01
11
09
f2
f5
f6
fb
06
07
fd
ff
fd
f5
ff
08
f8
ef
00
16
0b
04
0f
ee
01
f3
f4
f2
02
07
01
03
f7
fa
08
06
fa
11
f2
00
f9
03
01
ff
03
ff
fc
f2
17
02
02
07
05
f7
03
06
f8
ef
f7
f4
01
fd
10
06
08
fe
05
0a
fa
01
02
03
f9
fd
0e
00
0b
02
04
04
fd
ff
0e
f9
06
0d
0d
fd
ff
10
f6
f8
00
04
ef
00
f6
ef
02
0f
0c
01
1c
f6
11
01
fc
04
05
05
fb
05
fd
f1
0a
09
09
fd
f7
02
06
fe
f9
01
fc
fc
05
fe
f4
fe
01
00
00
f4
fe
fe
fb
f7
f8
19
fb
13
15
fc
0c
07
03
f7
0c
04
0b
07
07
04
01
00
fe
03
ff
19
09
01
09
07
fa
13
01
05
fc
05
0f
00
0b
07
0c
f7
0f
02
07
0d
07
01
08
02
11
08
ee
0b
f2
01
fd
f7
00
13
04
05
06
06
0c
0c
0b
03
ff
0d
ff
ed
fc
03
0d
13
fe
10
04
11
f9
01
f6
f9
17
08
fd
02
04
07
03
00
09
ff
fa
07
04
00
fe
00
17
07
07
00
03
f7
01
0a
fd
01
00
0a
f9
00
00
0b
fa
00
fd
0f
06
12
e7
01
07
06
f0
0d
08
0d
0b
f8
09
07
fa
fc
11
05
e6
00
fd
07
00
fb
0d
03
05
fc
f7
f7
f2
0e
10
f7
15
03
07
f1
03
ff
fd
0a
f3
f7
f6
12
f2
05
06
01
ed
02
0d
03
0d
08
fc
0a
00
01
01
f6
05
14
01
f4
06
0c
0a
03
fe
fa
05
11
00
fb
05
fe
fa
01
ff
fe
0d
01
24
fc
fb
ef
05
09
08
01
11
05
fc
09
03
04
1b
f2
fa
f2
02
0b
fa
07
01
07
f2
02
05
f5
fd
00
06
12
fd
f9
ff
11
fd
fb
00
13
07
f6
ec
07
06
00
0c
00
fe
fd
10
00
00
f6
ff
07
ea
f3
00
fb
ee
02
0f
08
fb
07
10
f4
0d
03
fd
06
00
ff
03
0a
f0
fe
f2
fa
f6
0e
0a
f6
03
02
01
05
fa
fe
02
00
03
fe
fd
0a
fb
03
f8
1c
fe
ff
ff
02
ff
14
fa
ff
02
04
21
0a
00
06
06
01
0d
f0
f7
f7
03
00
08
fe
00
f4
04
f8
0b
0f
f3
ff
f5
03
0b
0f
fb
03
ec
08
ff
fc
06
05
00
00
08
02
f6
ff
03
00
ef
08
03
ff
01
05
01
1a
01
10
00
ff
00
fe
03
f2
00
ee
0a
01
07
04
06
f8
fd
fa
02
06
fb
ff
09
f7
03
f9
ec
fb
06
fd
f8
06
ff
eb
f9
07
00
05
ec
ff
f1
0b
03
09
f5
01
0c
f8
07
ff
f3
ff
fd
03
05
0a
11
02
05
07
06
06
06
06
01
05
fa
fe
05
ff
ff
01
00
f6
0f
0f
04
11
00
06
00
02
08
02
fb
eb
12
04
fc
12
fd
02
fb
01
fc
00
f3
ff
fb
f2
fc
1a
f0
ff
f5
02
21
f8
1c
f6
0c
fa
03
f2
f8
0b
ec
07
0e
02
f6
07
fd
fe
fe
fb
0a
0c
02
ff
05
fc
fe
f7
09
19
06
f5
00
04
04
07
14
03
fc
fa
1a
11
09
00
00
09
0c
ff
0c
0a
03
ec
11
0f
fe
00
07
f8
ef
0d
f6
13
0f
ff
00
fb
02
f7
00
e7
0a
02
ff
ec
f5
f7
08
02
01
fb
05
03
ef
01
05
fc
ff
f8
f2
00
14
02
00
11
0f
03
f1
fc
fe
0c
05
fb
f4
ef
01
fe
fb
0e
06
0b
08
0e
02
fe
ff
f1
03
fe
04
08
0c
fc
0d
f1
15
fa
f5
f2
05
fc
01
05
0d
fe
fb
10
00
00
f3
08
08
01
ff
00
0c
f4
0c
0f
10
02
fd
01
ff
03
09
0a
01
ff
0f
07
fe
0d
fb
01
fb
02
fa
01
00
0c
fc
ed
fe
0f
f3
f0
f5
0b
02
15
11
e7
fa
fe
fa
14
06
fe
00
01
17
02
0b
08
16
07
04
f2
02
0b
08
03
03
fc
09
ff
00
05
04
fb
13
fe
0b
0f
01
0e
fd
fe
09
fc
fb
0b
05
f4
02
12
ed
0a
0b
e8
02
0e
09
07
04
ff
11
15
f1
fb
10
f0
02
e9
17
ff
06
04
00
02
03
0b
ff
f9
01
0e
04
00
fa
13
08
f9
05
0b
ed
10
0a
0c
11
0a
fc
0c
fe
fa
01
ec
04
0e
fa
0c
0d
05
fd
02
0d
01
fd
ed
00
f7
05
19
fa
06
f0
0c
04
0a
f6
10
ff
00
00
04
01
04
f2
ed
01
fa
ed
08
fd
04
fd
14
05
ea
0e
0e
fe
07
fa
01
02
00
ec
fb
0d
03
fa
0a
12
f6
13
04
02
10
fa
00
fb
01
f6
0b
0a
fa
f0
03
ff
0d
fc
fe
03
00
04
07
09
12
ff
03
19
0d
00
fc
fc
09
06
05
08
11
05
00
0b
f3
04
fd
f9
fd
09
06
0c
04
02
fa
08
11
03
00
02
ff
00
f9
06
0f
fd
00
04
06
f5
f1
07
00
06
03
00
0b
0f
ed
07
16
05
0d
09
04
01
f5
fd
f2
04
0a
0d
01
14
f5
f9
fe
fb
09
03
fc
f7
0d
f7
f0
09
fb
f1
05
04
08
fb
0b
05
f5
03
02
00
f8
05
ff
07
10
05
11
02
f3
06
ef
18
03
01
fd
fc
03
fe
fd
10
08
f6
f7
02
0f
00
07
09
05
0c
12
fb
05
fa
04
02
fb
12
0f
05
00
01
fd
fb
05
ff
02
00
f0
06
04
08
03
00
f7
fa
02
02
02
ee
02
18
f8
09
0f
ec
0e
f2
03
0e
00
0e
f6
06
0b
fb
f6
ff
0f
05
0a
0b
0e
fd
f8
f1
f8
01
f3
0a
13
05
04
0b
05
fd
04
11
10
08
fc
f2
f9
0c
05
07
08
ee
f9
16
10
0b
00
00
05
ff
07
fc
ee
09
f8
fd
02
fe
0a
fa
05
ff
ec
f4
ff
0f
fc
05
00
02
04
ec
03
f9
f4
ef
fb
f2
f4
0a
f8
01
08
fd
01
ed
00
0b
ff
fc
02
03
03
f0
ff
f8
f4
04
00
ef
06
0f
00
13
f9
0a
f6
00
ff
08
04
0a
f5
f6
f0
03
00
04
03
fc
fe
f7
06
08
f7
fa
fa
f1
ff
13
fe
0e
f3
ea
07
04
0e
00
04
07
00
f7
07
fa
0b
fe
00
f7
ff
fe
fc
f9
06
01
19
fe
0b
11
01
00
f1
f8
f8
f7
f8
0c
03
07
03
06
f7
07
fb
ff
06
f8
fc
05
ff
ef
02
fd
f2
ff
fc
fe
f8
0a
0a
0c
0e
00
02
05
02
e9
08
14
12
06
03
ff
fa
f8
ff
f8
14
07
01
f8
16
19
09
04
09
02
02
08
03
0d
06
fe
fc
02
01
22
f1
03
04
05
11
0d
fd
00
f6
f4
04
11
ff
08
fd
04
fe
fb
0a
04
06
fe
06
ef
0a
fb
00
ee
16
01
11
eb
fd
06
ff
10
ee
12
ed
12
fd
fa
ff
10
0a
f9
f7
18
fe
f5
04
fd
03
06
f3
ff
12
0d
fa
0a
0a
0f
f2
1a
04
04
f3
0a
fe
08
03
01
04
12
f2
0d
0e
fe
00
00
0b
11
00
01
07
00
f5
01
0f
0d
fe
00
ec
f5
0a
fb
11
ff
02
f1
ff
01
01
05
e3
0c
00
f8
ef
00
f8
0c
ee
01
f2
07
00
f6
01
f8
f5
ef
f8
f6
00
0c
0e
fe
0a
09
02
f9
03
fb
0a
f8
ff
f6
e9
00
f3
ff
14
08
0c
03
07
ff
f8
03
f9
0d
0a
02
fe
02
05
11
fa
15
00
f1
f5
0a
fc
fd
08
0e
fc
fd
0d
fb
00
fa
07
07
f1
0a
00
06
fa
09
0e
0b
f0
04
0c
00
03
01
05
ff
f9
15
fc
01
0b
fb
04
01
f0
01
02
02
11
fd
ee
f6
0f
fa
f7
fa
0f
ec
14
17
e4
00
00
02
04
ff
03
00
fe
fd
ff
00
0f
ff
12
11
fa
0d
0c
0d
02
06
04
fc
fd
04
fc
04
ff
17
f9
0b
0f
01
0c
ff
01
02
f9
ee
09
ef
fb
02
08
f6
11
f9
ee
02
10
f6
02
f9
ff
04
fa
f8
07
10
eb
fc
ea
17
00
05
01
eb
03
01
fb
02
fa
fa
0b
f3
03
03
0b
09
f8
0b
09
f5
12
02
14
0c
0e
ff
09
ff
fe
00
e8
06
0d
fd
0f
fb
04
f6
07
f7
ff
05
ed
09
ec
f1
12
fa
04
f4
0a
f0
11
f7
10
07
00
00
fc
01
04
fc
fc
04
15
f1
07
18
fa
09
0a
10
fa
08
fc
03
01
fd
07
00
06
02
08
ff
06
0a
0b
06
09
fc
f5
01
07
fd
00
12
01
fe
09
f9
04
0e
01
fa
10
fe
08
0b
ff
05
0f
fc
f8
fb
ff
0b
07
00
00
07
05
04
ff
01
00
0c
00
03
0b
fb
fe
0c
f7
01
17
02
03
fc
12
09
0c
fe
03
0b
06
00
fa
0c
02
00
01
02
03
fb
f8
01
00
01
09
03
fc
fc
fd
02
fb
ff
13
f0
02
01
fe
f7
f0
00
01
11
03
06
fb
07
08
fd
ff
04
05
fe
06
09
0c
09
00
fd
f9
f3
09
0c
04
ff
f0
f9
06
00
0f
f8
00
02
fa
f2
f4
fa
12
05
fa
0c
01
04
08
f8
03
00
ff
06
00
f3
0c
f8
f9
06
f9
ff
ff
0a
05
00
06
05
06
01
f6
00
f4
f7
17
01
f6
fb
08
03
03
ee
f0
10
16
fc
0b
f8
15
04
06
fc
ff
fb
00
0f
f7
04
fd
fd
0f
f2
01
16
f9
f5
0c
0a
fe
0c
f9
f8
f5
fc
02
12
00
05
07
03
0f
fe
f7
05
04
f9
06
ff
fd
f3
07
0c
15
03
f5
fd
f2
03
01
0d
fb
fc
fe
01
ff
0a
00
00
0a
12
07
09
07
10
00
08
01
0b
08
f1
f6
09
04
0a
f6
fb
07
fb
00
01
01
08
02
00
ee
05
0d
0b
fe
03
ff
02
f9
06
ff
08
01
f5
fd
fc
04
f7
01
fa
0a
02
05
09
03
06
08
08
f7
07
f8
10
17
00
f9
fd
fd
02
fe
f9
f3
fa
08
15
f6
13
12
05
00
f9
06
01
08
fa
03
04
0a
0a
1d
f4
0a
05
fc
05
ff
fe
00
03
04
07
f4
09
00
fe
0a
f9
f5
f4
02
14
05
fc
fc
f5
01
00
02
ff
06
fa
fd
05
02
09
f8
fa
f3
14
05
02
08
0e
f9
fa
f8
08
0c
f5
fe
03
02
f4
0b
fb
0b
05
fa
00
0b
f4
01
f9
09
f9
fd
0f
fb
0f
0b
02
00
05
0e
fa
08
05
fb
fe
0d
04
fa
06
f9
00
fc
0f
08
fd
00
f9
00
ff
0a
02
08
16
ff
f7
0c
00
04
07
ff
fc
01
f9
fe
06
05
f8
fd
f7
05
0e
01
00
04
f8
01
02
02
ff
04
05
00
f6
02
08
fe
fb
fd
0b
fb
ff
10
03
09
01
04
0d
f7
04
f9
10
ff
f3
04
0b
01
f5
f5
14
09
f8
f2
0e
06
06
fe
f5
05
05
fc
07
00
f3
fe
05
01
ff
00
00
f7
ff
05
f2
09
fd
f0
fe
ff
fa
05
04
0c
fd
09
fc
0e
fe
01
f8
fb
01
03
fd
00
fa
02
14
03
fe
f6
05
fa
01
0e
05
fe
f5
01
fa
09
f7
08
f3
fe
14
02
fe
13
02
04
f8
fa
ff
14
fd
00
03
0a
01
f6
fa
10
01
02
0c
08
04
ff
ff
f3
fb
05
0c
fe
04
f9
00
f8
1c
f9
06
07
f8
05
03
f5
02
f6
03
0f
ff
00
fd
07
06
f7
f8
00
02
03
00
12
11
07
f4
fc
02
00
03
0a
02
ff
12
03
fe
02
04
01
0d
f7
f9
02
fe
01
ff
fb
10
0c
f9
f5
fd
fd
f3
1c
11
04
fd
fc
03
fb
f4
fd
00
0c
00
00
0a
03
04
09
f6
f3
fd
04
03
03
f9
f9
fe
05
03
ff
06
01
12
fb
0c
12
ff
0d
fe
f1
04
08
f9
03
f7
fc
02
ff
ff
09
ff
f8
02
13
fd
ff
f9
00
0b
fe
05
fb
16
06
01
00
04
fe
1f
01
f4
05
07
f4
08
0c
00
00
f9
fe
f8
18
0b
f8
fc
02
f2
fe
f5
01
09
09
04
0c
12
fa
0c
ff
ff
09
08
09
01
05
ff
f7
04
07
05
01
fc
f4
fb
10
00
02
02
0b
f7
0d
0e
09
01
00
00
f7
fd
fb
04
fd
fa
15
fe
0a
0d
02
10
08
08
fa
0a
00
08
08
14
03
00
01
03
03
06
0b
05
03
07
08
fb
0f
00
07
fd
06
12
01
0b
0b
11
fd
0f
03
07
07
07
08
04
02
0e
09
ef
ff
fe
02
fa
fc
00
1c
06
ff
01
07
0a
07
0d
06
f8
14
01
f2
fa
04
07
09
02
10
01
09
f5
fe
f6
fd
15
07
fe
0d
ff
00
04
00
0a
fb
fb
08
fc
00
ff
fd
0a
05
05
05
03
fa
fb
0a
01
01
00
0e
f6
02
02
05
f9
00
f8
17
07
14
eb
00
05
0c
f6
0b
09
11
09
fa
05
04
f2
fd
17
06
ec
fe
04
02
00
f7
07
02
0c
fa
fc
f6
f6
10
08
fd
12
03
06
f8
02
fa
00
05
f5
f5
f4
11
f3
fd
05
fc
f0
09
0d
03
11
06
fd
09
00
00
fb
f3
03
0e
00
f5
08
08
0f
02
fa
04
04
0d
01
01
00
03
fc
02
fd
fe
08
02
19
fc
fd
f1
0e
06
01
01
0b
00
f5
09
fb
03
1e
f1
ff
f4
07
08
f8
00
01
0a
f8
07
0b
fa
00
f8
02
15
fe
f7
01
10
f9
05
01
14
0d
f5
ef
06
05
ff
0a
ff
ff
f6
0f
00
00
f1
fd
05
ec
f7
fc
00
f6
06
04
04
10
1e
09
f7
0a
06
12
fc
09
fa
00
f9
ee
f8
01
00
04
0a
0a
f3
f7
09
02
1c
fc
02
fe
02
09
0d
0b
09
fe
01
00
14
f6
10
0b
03
fc
0d
f9
ff
f9
ec
19
09
00
09
01
03
fe
01
07
07
0c
03
01
f9
fa
f7
0f
03
0a
02
01
12
06
f9
08
0b
f4
04
ff
02
ff
03
01
07
00
00
09
03
f8
0b
ff
00
ff
fb
09
05
02
08
ff
fa
eb
16
fd
07
02
fe
f6
fe
ed
03
13
02
0b
10
07
06
fc
ff
04
04
fd
0f
fc
ff
07
f6
fb
01
f5
00
fd
06
f8
f4
f7
f9
00
04
02
01
0a
f7
fa
fa
f3
01
07
f8
13
03
f3
fc
fe
02
f3
08
05
fe
f5
06
f5
06
07
ff
ff
fe
17
06
09
05
07
0b
01
fd
09
f7
f2
02
00
f7
03
07
0e
00
f6
f4
09
04
ff
02
f3
fa
fa
05
05
03
fa
01
10
f7
03
00
ef
0d
01
00
18
06
f9
f1
06
ff
03
f4
f7
f5
ff
0a
09
01
02
03
03
fd
fe
f7
09
06
f5
11
01
f6
ff
ff
07
17
ff
f7
0e
f5
00
03
0a
fe
08
ef
07
02
11
00
00
0c
0e
ff
0e
f7
07
04
01
05
17
04
e8
e9
f8
f7
06
f8
0f
09
f5
05
01
fb
00
fd
06
f2
f7
fd
09
0a
02
0d
02
e7
ff
04
0f
02
fe
ec
10
ea
02
02
ea
07
07
f9
01
01
14
07
01
f3
05
05
06
f8
00
02
fc
03
0d
03
f5
fd
f7
02
0c
01
0c
ff
ff
09
0a
17
01
f6
ec
0f
f5
fc
0b
fc
02
28
03
0a
02
00
04
00
0d
04
f9
00
10
00
04
04
09
f5
f3
ee
11
f9
07
fb
05
fc
ff
0a
f0
fe
09
ff
03
00
02
fe
f3
f5
fa
00
03
02
ef
fd
03
01
08
05
16
ec
ef
04
fe
0c
00
04
15
ff
00
fe
0d
04
f1
08
00
fa
0c
ff
09
fb
fa
01
0b
03
07
00
01
17
fd
00
f0
00
f2
f7
00
f8
06
12
fb
fb
02
03
07
08
01
11
07
fb
08
00
00
ef
ff
06
0d
03
f8
07
f5
10
f2
e8
09
f8
0c
fe
ea
fe
14
01
0d
12
03
f5
07
fd
06
03
00
ea
f3
06
07
04
04
04
18
02
06
01
00
fb
fb
f0
ef
00
f6
f7
fe
06
0d
f0
0d
0a
04
f8
01
f5
07
14
01
ef
ff
ff
fb
f8
fe
fe
f0
fe
00
00
00
0a
04
00
07
0a
00
ed
0b
0d
01
00
04
f5
f1
0b
f4
13
0e
fd
fc
fd
01
f7
00
e5
07
fc
fd
e6
f7
f5
05
01
00
f6
05
03
ee
00
05
f8
fc
f4
ed
00
15
03
01
0b
0d
04
ef
fa
f9
09
00
fb
f2
ee
00
04
fa
0f
06
08
08
09
03
00
00
f0
ff
02
ff
08
0e
ff
08
f3
15
f8
f8
f4
02
f9
00
05
0b
02
fe
10
02
00
f8
06
09
04
f9
00
0c
f6
0f
0a
0d
03
fa
03
fa
03
0e
07
00
01
0f
07
fe
0b
fe
02
ff
fb
fa
fe
01
0b
fe
eb
f6
11
f4
f3
f4
08
01
14
0f
e5
fa
f9
f8
11
05
fb
00
01
16
03
06
04
11
0a
07
f1
04
09
09
03
ff
fe
09
00
01
08
fb
fa
12
ff
08
10
01
0c
fa
fe
0f
fc
f7
0a
00
f3
02
13
ee
09
05
e6
02
0f
fc
07
08
ff
12
14
ef
ff
0d
ef
02
eb
11
ff
04
04
fd
03
03
06
07
fb
03
0c
0a
00
f7
0e
06
f4
06
0c
eb
0b
0a
08
09
11
01
0d
ff
fb
01
e5
04
08
fa
0f
06
03
fa
ff
0e
00
06
e8
01
fb
06
18
fb
06
ef
09
04
0a
f7
0f
00
00
00
0f
1b
05
0d
0b
0c
07
11
07
0d
01
04
f7
ff
09
05
f2
03
fd
10
ff
01
fa
04
ef
05
f5
fa
f4
04
f9
f9
0a
02
f9
03
04
fd
01
09
f3
06
02
ff
03
01
08
fa
fe
0a
04
fd
08
fa
ee
fc
f2
fb
f2
00
0e
08
00
01
03
f6
fa
01
01
11
08
17
fe
0a
13
07
fe
00
0e
00
fc
f7
f6
0a
06
f1
1a
08
15
fa
00
ff
00
04
05
0d
0f
0f
00
07
f1
05
f2
ef
0a
0a
02
f2
06
fa
fc
ff
03
04
10
f1
ff
fa
01
fa
12
0d
fe
06
05
ff
f9
00
fe
00
ff
01
0d
01
f9
02
e8
fa
07
fd
1a
12
f9
00
02
06
03
f7
ff
fe
ee
11
0a
0f
0c
05
fe
03
0d
06
fc
fe
08
02
fb
fc
00
fd
f5
03
f6
ff
18
fd
fc
0c
04
08
01
01
18
fb
f3
fa
01
00
02
0d
06
0b
02
00
09
03
04
ef
fb
fa
f1
16
03
f7
06
00
00
fa
0d
fe
ea
01
04
04
02
10
fb
ef
f4
0e
03
05
1d
14
fc
02
10
01
f3
fc
0c
01
f3
05
09
fc
00
fb
04
08
0f
02
f4
f7
fb
09
01
12
fe
f9
02
00
f8
0f
fe
f4
01
04
00
00
05
11
0b
0c
09
11
f1
14
ff
05
09
ed
ff
01
03
03
f6
0a
02
04
fb
00
ef
02
f4
ff
ee
01
07
02
f9
fa
0a
02
f6
06
00
fc
01
ff
ff
0a
04
eb
ff
f9
07
03
01
0d
07
06
05
0f
f2
08
f3
0a
12
00
fd
f7
fe
fe
fa
f7
f3
f6
09
12
ee
15
0a
07
12
09
fc
f8
fe
f7
fe
08
06
04
1c
f0
14
05
04
00
03
06
00
07
06
07
04
0b
00
f8
00
ff
f1
f4
0f
07
f1
f2
f7
02
01
00
0a
02
12
f2
fc
0d
01
0b
02
f3
ef
19
00
03
04
11
fe
ee
ed
04
09
05
fb
f9
02
ef
04
14
17
0a
f5
00
0d
01
04
f6
ff
0a
f3
03
ed
09
09
02
fe
f7
0b
06
08
fd
0e
fd
0b
03
fb
04
f9
ff
fa
0e
06
00
00
04
06
07
02
03
12
16
f8
fe
fd
ff
fe
13
fe
07
00
09
15
03
ff
ef
ff
fe
00
0d
ff
fb
05
02
02
fb
0f
0a
fd
05
ff
0c
00
00
fd
f2
f6
05
fc
fb
0e
0c
fb
f6
08
12
f9
08
f3
0f
f9
f2
06
0c
01
fc
f6
1f
06
0a
f1
08
05
03
07
03
00
0f
f9
01
f9
03
fb
fe
00
00
00
00
07
07
01
04
f8
09
19
00
f3
00
06
03
04
10
f7
08
f8
f3
05
08
0c
01
06
ff
15
0c
0a
fe
11
07
0e
08
ff
00
04
00
05
11
01
03
08
02
fb
0f
03
f3
fc
02
f7
f1
fe
10
06
09
fb
0a
09
01
07
00
03
09
f0
fc
05
00
07
01
08
04
0f
11
03
f4
01
f4
00
06
0c
f5
04
04
06
0d
0d
08
05
fc
08
02
f7
02
01
07
fc
fa
02
14
00
0a
0a
fb
fa
f9
fc
18
0a
05
fd
fb
fc
00
01
f4
00
06
06
ff
00
fb
01
05
08
05
03
04
10
ff
f7
0d
10
07
02
08
f7
f6
0b
0c
0d
04
06
0c
09
00
f6
fc
ff
ff
05
fc
f9
0e
0e
fd
fa
01
00
0a
0d
ff
03
01
f3
09
08
f5
08
f8
f5
01
f9
08
12
f6
0e
03
fd
0b
08
fd
ff
0f
fb
00
1f
ff
f1
f9
fd
fb
03
f4
f7
09
02
fa
05
02
0c
f8
07
fc
02
09
ff
09
0f
01
fe
03
f1
fd
04
fd
f5
f7
0c
fa
00
17
05
0b
04
04
f2
f9
fc
fa
06
ff
13
04
f8
00
f1
fe
03
0e
0e
f8
02
fb
0d
05
0b
fe
f3
0d
03
10
fb
02
fa
0a
f4
01
00
00
0a
ff
05
f9
f1
05
ed
fc
15
fb
fc
f7
0b
fd
ee
f7
02
0c
f6
f5
00
00
f5
f0
07
0d
fe
02
03
f8
fa
0a
fd
01
09
01
00
f5
01
f7
0b
fc
f8
f2
00
f8
04
f6
04
0b
fd
f3
03
07
03
02
f7
09
01
00
f2
f8
06
03
0c
06
01
04
fe
02
f5
f9
fb
ff
02
05
00
0f
f0
fb
04
06
06
0a
fa
08
04
06
fe
0b
0b
01
00
f6
03
f9
fd
03
00
0c
03
09
fd
00
fc
02
03
f8
0b
f9
02
01
ee
f0
f5
f7
0e
0e
03
1f
f1
f6
fd
08
0b
01
f8
fb
0b
f6
f6
f5
07
fe
fe
f2
03
fc
fa
09
fc
04
f7
00
01
0f
00
06
fb
05
ff
03
f3
fd
f9
03
02
04
06
00
06
f2
09
11
0e
f3
05
f7
03
01
fd
17
fd
11
0f
f3
07
10
f8
ff
ff
04
fd
f9
f6
00
f0
f4
02
01
ff
f3
f7
fd
06
03
09
f8
fc
05
03
f9
06
ff
00
09
06
16
05
ef
10
04
00
fe
fa
fd
fb
0c
0d
eb
00
03
06
0a
fc
0e
04
03
f4
f6
04
f5
f2
04
08
f9
00
06
08
ff
03
1a
ff
01
f6
fa
f1
10
00
fd
00
fb
ef
02
06
01
00
00
f8
04
07
f9
f5
01
14
f1
ff
16
ff
ff
03
16
f6
0a
fa
fa
02
04
06
01
09
02
0d
f1
fd
04
10
05
0a
f8
01
02
fe
fe
ff
12
00
00
fe
ff
09
10
03
f6
0a
05
03
00
01
0b
15
f9
f4
ff
ff
18
08
00
05
09
fd
0b
f3
f8
f2
05
01
0b
0d
ff
fb
04
fb
01
19
f5
0b
ef
12
0b
0a
fe
05
01
03
ff
ff
0b
fd
03
00
05
03
fb
fd
00
00
f3
08
0b
f4
f7
00
06
fd
04
01
f9
fc
00
00
f6
f6
01
f4
0b
02
f5
02
08
00
05
01
04
12
00
fe
0c
10
05
ff
fd
ef
f7
0b
02
05
01
f2
ff
09
00
10
f0
00
f7
fb
f6
f9
f9
13
0f
fa
08
01
00
07
fa
04
00
09
07
02
f5
0c
f7
fb
06
fb
fc
f9
02
fe
00
fe
08
06
02
fa
07
fa
fe
1a
00
f5
fc
06
0d
02
ee
f2
0f
0d
f3
0d
fb
13
01
04
f6
03
04
00
0c
f5
f8
00
ff
05
f6
01
18
ed
fd
08
0d
f7
17
f9
fa
f5
f2
03
12
f7
fc
08
ff
10
00
f8
09
03
fb
fd
02
fc
f7
fd
03
12
05
00
f9
f5
05
01
11
fb
fe
fb
07
04
0b
00
00
09
01
fe
06
f4
00
02
f6
fd
01
07
f7
fa
05
f7
0d
0d
eb
0d
fa
08
01
01
fd
08
12
0c
ff
0f
0e
05
12
fe
01
f8
fd
02
16
01
f0
0a
01
f2
fb
02
02
fa
07
fe
ef
fe
16
fe
0a
1a
06
0e
04
0e
00
f0
fc
fa
01
08
0a
16
fe
06
04
fd
0c
07
ed
fd
f9
05
11
00
02
02
05
0c
0a
06
12
0a
01
f6
08
04
fe
00
09
fd
fb
e9
12
00
17
08
fd
08
0f
e7
14
12
10
f6
00
fc
00
ff
fc
f2
11
13
fc
ff
fe
ef
f1
06
fd
06
03
fe
fc
08
01
fb
0c
03
01
04
00
1b
0a
0e
07
fb
00
08
00
ec
0a
fd
0a
14
09
06
10
03
00
f4
05
01
15
00
fc
02
07
e8
13
09
02
05
07
05
fb
08
10
04
00
17
fa
fd
f6
0e
fe
fa
14
0c
0a
0d
01
04
f7
ff
f1
04
f6
f8
02
05
0b
00
02
02
f4
02
04
00
fe
ff
16
00
ff
0d
fe
f9
f0
04
f4
01
05
0c
f4
09
ff
ff
05
13
12
f7
f5
0e
ff
f1
f6
0e
04
fc
06
fd
05
ff
0b
04
f5
13
f5
04
07
05
e9
ff
15
05
ff
09
ef
04
0a
01
01
00
00
f0
00
04
f2
08
03
0a
fd
fc
05
06
0d
0a
12
0c
0a
0b
f2
07
ff
02
01
11
10
13
fe
18
1a
11
0f
07
fd
f0
01
14
07
ff
0f
00
fe
10
f9
15
0a
01
0d
ff
07
05
f9
02
08
02
01
12
fa
06
0e
10
01
02
08
fe
00
fd
0b
06
08
05
00
07
00
fc
0b
f9
fa
07
f4
0a
11
04
09
08
ed
0a
0f
fb
fd
fb
08
01
ff
00
06
02
0b
f8
02
00
fa
0c
fb
10
10
0f
f5
fb
02
01
f5
05
02
09
14
00
06
ff
00
02
fb
fd
07
0b
fe
fd
04
08
08
04
0a
07
08
fe
fb
11
0f
08
0e
06
04
f2
f0
09
00
02
f7
fe
0b
fa
f7
08
ee
0b
03
04
06
01
01
f7
f8
07
12
f1
fe
03
07
09
0e
09
01
06
fc
f9
00
08
04
01
fc
0a
00
f8
05
05
00
16
02
0d
0e
02
f4
03
ff
fe
11
01
0f
05
fc
11
f8
fd
1a
00
fc
05
11
ed
fc
07
0a
fc
ef
01
04
1e
0b
0b
f9
ff
fe
00
f1
ff
04
03
fc
0c
06
08
0e
13
06
07
0d
fd
f9
0f
ff
f0
f9
0e
fc
0b
03
01
fa
06
fd
03
12
07
fc
16
0c
01
07
00
00
eb
fa
06
f8
fa
00
11
f9
fb
10
03
ff
01
10
f7
0a
f9
09
07
10
02
01
08
01
0f
f4
fc
07
10
03
09
f2
0e
00
03
fa
02
0b
00
09
05
09
09
0c
01
fb
0c
04
ff
04
00
0e
10
fe
f4
02
fe
15
06
00
13
06
01
07
f2
f9
f4
02
07
03
0e
f8
fc
05
07
0f
14
ec
0c
f2
12
07
0d
f4
07
01
08
fc
01
06
ff
08
00
0b
05
fb
02
fe
00
ed
0d
03
f2
f3
10
fc
f3
02
09
03
ff
00
0a
f6
03
04
ee
11
01
02
14
04
00
fb
f9
06
1b
03
01
0c
0c
05
f8
01
f1
f4
0c
01
02
fd
fa
02
00
00
09
f9
04
f6
f9
fd
f6
f2
0e
10
fa
06
02
f9
fb
01
05
00
0f
01
00
f6
13
f5
f8
08
f7
fc
04
0f
f8
15
fe
03
07
02
fe
05
f5
09
18
00
f5
06
06
11
03
ff
fb
11
0c
f4
0e
03
0e
fd
02
fa
03
0a
ff
06
04
ff
02
06
fe
fe
00
15
f2
f9
08
05
f9
17
f3
f7
f4
ef
09
0b
f5
01
06
03
05
00
f7
07
02
04
01
07
f6
07
fb
ff
11
ff
17
0a
f6
04
01
0f
f7
0d
fd
08
00
0a
00
00
08
08
00
08
0a
09
0a
01
01
fa
01
0f
0a
09
0a
f6
fa
f2
fc
fc
09
00
03
10
12
11
0f
12
fb
f6
0d
09
ea
01
0e
0a
01
06
01
02
18
ea
09
0d
01
04
f4
fd
0c
f9
ff
f9
00
03
fd
03
fe
f6
02
00
fe
0a
fb
f9
0f
0a
04
07
ff
04
0d
04
11
02
fc
f4
f7
0f
ff
04
02
05
f9
0a
06
14
00
05
01
05
ff
fd
00
f3
ff
07
ff
fe
00
13
02
07
fc
08
04
05
f8
fc
09
eb
00
00
fc
fb
fe
01
17
f6
02
09
fa
06
10
15
09
02
06
0f
fa
10
11
f4
0f
02
fe
fc
05
18
fd
07
04
02
fc
00
ff
04
ff
0f
fb
f4
ee
13
12
f5
08
00
ff
10
15
fa
06
03
f3
03
0c
f8
07
fd
f7
03
fe
08
f9
f6
0f
f9
ff
07
f4
00
01
03
f0
f8
0e
01
fd
f5
fd
fc
01
ec
03
05
fe
00
08
f5
1a
0d
04
09
04
04
01
02
03
0f
f5
06
03
f6
02
fc
08
eb
10
fa
06
0c
0c
05
f9
0b
fc
f8
ff
11
0b
0f
15
0b
01
02
f1
f9
0c
fe
08
fa
0a
f9
02
03
f6
fd
f7
0d
02
01
ff
f9
08
f8
f4
01
00
00
09
fb
05
02
fa
0c
fb
10
f8
f3
0a
02
06
02
f7
fc
f8
0a
fa
0b
00
00
ff
f3
07
04
fa
f3
07
f9
f8
04
04
00
09
fe
02
f6
00
0a
09
08
09
01
03
f6
f6
f9
f6
f8
ff
f8
06
18
f9
16
fb
03
ff
ff
0b
06
f4
f9
fe
fd
ff
fe
0a
ff
03
00
05
f9
08
fe
f0
ff
01
f2
f8
0d
04
0b
08
f2
05
ff
0f
04
f7
04
00
ff
ff
fd
11
0a
00
01
02
f8
f9
fc
16
07
0a
fc
02
0d
fd
00
f5
f5
00
f9
02
05
02
07
0c
0c
04
07
fd
02
08
00
f9
07
02
fc
00
03
f5
f4
00
ff
00
00
09
0f
fc
00
fe
0e
00
fb
02
0b
fa
07
05
f7
fa
fa
00
ff
19
08
02
f6
08
0d
07
f2
05
f7
f8
02
f9
0f
15
f7
08
13
00
1f
fc
02
07
07
fd
04
03
00
f3
f9
fe
0a
01
00
0e
0c
f2
fa
09
fe
03
f7
05
fa
04
0a
00
f0
1b
0a
02
f9
fa
09
01
fe
f2
f9
f7
ff
fe
04
00
15
04
fd
f6
04
fd
ff
fe
02
02
02
f8
03
f7
01
02
1a
0d
07
f9
04
09
04
05
0d
f8
0a
01
08
fd
0b
f0
0c
fa
ff
00
00
07
0c
01
09
0c
02
e6
0b
0f
02
fe
05
f7
ef
09
f2
10
11
00
fd
fc
01
f5
fc
e8
06
fd
03
ea
f1
f4
06
00
00
fa
06
02
ed
01
04
f7
fd
f6
ee
ff
12
02
02
0e
12
04
ee
f9
fa
0a
00
fd
f1
f0
00
00
fc
14
09
08
05
08
01
ff
02
ed
ff
07
02
08
10
fc
06
f0
12
fa
f9
ef
03
fb
fd
04
0c
00
fc
0e
01
00
f6
09
09
05
fd
00
06
f4
0e
0e
0c
ff
f6
03
01
07
0b
08
00
01
10
0c
fb
09
fc
00
00
fe
fa
ff
ff
09
fe
ee
fe
0f
f4
f0
f1
0b
08
13
10
e3
f8
f7
fc
11
04
fc
00
04
0f
02
04
02
13
0a
04
f2
06
0c
05
02
01
fd
07
01
04
0d
fe
fb
13
02
0c
13
02
0f
f6
fc
10
f8
00
0c
fe
f1
04
11
ea
0a
02
e7
01
11
fc
0a
05
fe
10
0f
ef
02
0d
f2
01
eb
17
00
03
04
ff
02
01
09
05
fd
00
0e
0b
ff
f8
0d
08
f6
08
08
e9
0a
0a
09
06
0e
fd
09
fd
fa
02
eb
05
0e
fb
0c
0b
03
fc
01
11
01
03
ea
00
f4
07
17
fa
05
f3
0a
05
0a
f4
10
00
00
00
ec
00
08
f9
06
ff
f5
08
ff
06
06
fd
05
06
04
08
fb
11
fe
04
f9
00
f4
03
fe
ef
f5
0a
0d
04
f9
ec
10
00
02
04
00
fc
00
08
02
0e
0c
f2
ff
03
08
02
0a
06
05
04
06
fe
f3
ff
f6
17
16
00
05
f9
06
fc
f6
fd
f9
fe
05
06
ef
fe
f6
18
10
0f
04
ef
fd
02
04
0b
0c
ed
13
f7
01
02
fe
01
01
05
00
0a
05
06
01
fd
00
ec
05
03
f8
f7
18
f6
ec
f3
02
04
06
01
0b
06
0c
f5
f0
10
02
05
05
f7
f5
02
f9
03
09
11
02
f4
ef
07
00
00
00
00
04
f5
00
05
01
fe
ef
00
1b
fd
04
02
f3
fc
f0
ef
f1
0f
08
01
00
f1
f6
04
07
01
0f
fa
fc
fd
02
fe
f4
00
fc
fd
fb
0d
fe
0b
00
06
06
02
08
05
ef
fd
01
ff
06
1e
05
07
ff
04
06
09
02
ef
02
02
00
fc
fd
08
00
00
02
01
fe
07
01
11
0e
09
ff
08
04
f1
fa
ff
fa
fb
fe
f7
ec
f5
12
16
f8
0c
f5
16
fd
f4
05
0c
fc
06
f9
0a
f7
0b
fe
06
04
fa
07
07
02
fb
fb
05
fa
03
fb
01
00
01
00
00
ef
01
00
fa
04
f6
10
00
13
14
fb
17
0b
07
04
08
00
0e
ff
16
ff
01
fc
03
fb
ff
0b
0a
fe
04
03
f4
0b
01
06
ff
04
08
00
0b
05
08
fe
0f
02
06
0b
06
0a
0c
02
05
0e
ec
fd
f5
fb
01
fc
01
1b
08
08
00
02
0a
02
0e
04
fe
0b
f7
f0
05
08
0e
0b
00
0e
04
0a
f6
fa
f6
fb
0c
0a
02
03
02
07
01
00
08
02
fd
0a
fb
00
fd
f7
10
ff
fe
0c
fa
f5
f9
10
fa
03
00
06
ff
0a
fd
01
fe
01
ff
18
0c
12
ee
02
03
05
f6
12
07
0b
07
fb
03
02
f6
f3
0f
04
e9
fe
ff
f8
00
fc
0b
05
10
f4
f6
ef
f3
0c
0c
00
0b
04
ff
f2
01
fd
f9
0d
f3
f4
f7
13
f9
fd
07
fd
e8
04
12
fb
16
09
01
07
03
02
fc
ef
fc
07
01
fe
0a
09
0f
03
fd
05
0a
0c
03
fe
01
fa
0b
02
03
00
04
02
10
00
fe
ea
0a
0b
fd
00
11
03
f1
04
00
ff
10
f9
fa
ec
06
10
fe
ff
02
08
fa
ff
06
ff
fb
03
fd
15
ff
f8
06
07
f4
00
02
0f
10
fc
ee
06
08
fe
12
fc
f5
ff
13
00
00
07
fd
04
11
09
08
fb
17
00
ef
08
16
0d
01
07
f6
ff
04
f8
09
fd
ff
f6
fd
00
0b
03
09
fd
f5
f6
fa
fc
00
0c
09
03
f2
01
0f
15
02
08
fd
01
0d
eb
fa
04
f7
01
f7
fe
0c
fd
0a
ea
f6
02
00
09
07
f5
f6
0d
0c
0a
0d
04
fb
fe
09
08
05
09
fd
e5
02
02
0c
ed
09
fe
04
0d
ff
f7
00
0f
fe
ff
04
00
f9
00
0a
08
01
00
11
f2
00
05
01
1a
fb
f7
ed
09
fb
03
02
00
fc
0d
ea
0c
f9
02
00
07
04
06
10
06
00
02
0f
00
01
00
fa
08
04
03
fe
f6
05
fa
08
1a
03
f6
00
00
0e
01
12
f6
05
f0
08
02
f5
08
04
03
01
19
06
04
ff
fa
08
05
fa
04
ff
ff
01
00
07
09
00
0e
02
02
18
f9
01
04
fd
ec
fb
ff
01
02
09
fd
06
00
04
19
07
f0
ff
11
f7
07
09
02
05
05
03
01
f9
0d
0a
f6
05
fc
12
00
fb
0a
f1
f4
f5
05
03
09
0e
f7
0b
fc
f9
04
0c
05
10
02
0c
05
ff
ee
fb
0e
0c
05
0d
05
fa
01
00
fd
17
04
03
02
09
ff
12
fc
fe
f5
fd
00
00
f8
04
00
f5
ee
f9
0e
ec
0a
1f
fd
07
ff
08
f1
0b
0f
03
07
02
05
03
01
fc
ff
ff
10
00
02
0f
06
07
fc
02
ff
f9
01
13
01
fd
00
f4
fa
0b
04
fc
18
04
04
09
04
0c
10
ef
08
ed
09
0b
fa
00
0a
08
0c
0d
fe
07
01
08
fd
02
0f
00
f0
fe
f9
0c
1e
ff
10
02
0e
f9
00
fb
fa
08
0c
01
fb
03
08
fc
00
08
03
f7
ff
07
00
fe
08
10
03
08
f2
05
0f
0a
0e
fc
00
00
fc
02
ef
07
ff
00
01
02
ff
0a
0b
ec
03
02
01
ec
0a
0b
0d
06
ff
f6
01
05
ff
0c
05
ed
f0
fb
12
00
fc
f9
ff
ff
06
fa
0d
f8
10
10
f6
18
01
01
f8
fc
ff
03
03
03
f6
fe
05
01
0f
06
07
f4
fe
0b
03
fc
06
f3
04
01
f6
ff
07
07
14
01
00
f7
06
04
02
fa
e8
0c
12
03
01
fd
03
01
01
f7
fd
f4
01
1a
f4
f7
04
fa
07
ee
04
1b
fd
0e
06
0e
02
0f
f5
f9
06
fc
07
fd
06
f1
0a
f0
05
0c
f7
ff
11
03
0c
f5
fe
f7
08
00
02
06
f9
f7
04
f4
0a
08
06
f9
01
06
07
14
00
00
08
06
08
0a
f0
0a
f7
fe
08
03
06
e4
fc
01
f1
04
f4
0e
02
ff
04
01
fc
f8
07
00
f2
f8
0d
05
0a
04
0e
01
f3
fb
01
0a
01
fc
fa
0c
f6
fd
00
ed
04
06
f3
fe
01
09
09
18
f4
0e
05
11
02
00
fb
f5
00
0a
fa
f5
f6
f3
08
08
fa
03
02
02
03
05
0c
fc
f7
e6
14
07
0b
09
00
fb
1d
ff
02
0c
fd
08
00
05
07
f4
fc
0c
00
01
11
0d
f4
f0
f7
0f
f7
0c
fb
08
ff
ff
01
ea
fc
0d
fb
12
01
0c
f8
ea
f1
04
01
04
06
fe
fe
ff
f8
07
fd
14
eb
ee
13
fa
0a
07
05
15
02
00
fc
04
03
f3
04
04
f7
05
f9
07
fb
fb
ff
08
03
08
04
fe
18
06
0d
ec
06
f1
f9
02
f9
16
06
fb
01
03
fd
0f
05
03
06
13
fb
08
03
fe
ea
03
06
08
02
fd
fc
f9
ff
f0
fb
0e
0a
01
02
f1
02
16
01
ff
1a
04
07
fd
04
0a
01
f8
e7
f8
0d
08
00
fc
ff
10
02
fe
ff
0e
f8
f7
e9
fb
fc
ec
ef
05
01
0b
ed
1a
06
04
f7
12
fe
02
0f
fc
ef
0c
ff
f8
f7
f8
f9
fe
00
f8
00
00
f5
0e
01
05
0b
fe
0e
0a
01
18
02
07
f5
07
09
04
f2
0a
02
0b
01
01
08
12
02
f3
ff
0a
f8
02
06
f6
07
00
f9
03
03
08
00
0e
f7
02
07
14
02
04
04
0a
05
07
04
06
10
f0
ee
f3
00
fb
01
00
12
08
05
08
f4
f7
f2
04
05
0b
15
03
fb
01
09
0c
0a
f2
0a
fe
10
fd
f8
f7
05
01
07
03
07
01
00
06
00
02
04
0a
07
f5
00
f1
ff
09
f6
f3
13
f9
f8
fb
0a
fd
fd
00
10
04
11
01
ef
00
02
f6
0f
0d
04
02
fa
02
04
02
fa
0d
12
02
01
04
f7
fe
f8
06
00
f5
07
fc
fd
00
0d
fd
03
f7
f6
fc
f1
f6
12
17
0d
fd
00
06
fb
02
01
09
13
f7
f7
03
0d
ff
f5
09
fb
ed
fd
01
f0
0e
03
fe
02
04
0c
f3
f0
09
06
01
fb
0d
04
0c
02
06
09
05
0c
eb
fd
08
01
09
02
fa
00
06
02
02
fc
ff
ef
1b
ff
00
01
11
ff
f4
05
0b
f6
10
00
fa
f1
ef
10
06
f1
fa
0e
06
02
03
08
00
fc
05
fe
f9
f7
04
f6
fb
ff
03
0c
0f
ff
ef
02
01
fa
0e
04
f7
03
0a
00
00
f1
02
06
ff
04
f5
fa
08
06
12
fa
fa
f5
f6
0a
f5
0b
0f
07
00
02
02
0d
0f
fc
ee
f9
ff
ec
f4
06
fa
04
00
f6
00
02
f7
01
0a
f2
f8
fe
08
00
08
08
0d
04
00
06
fa
05
f3
f7
f8
10
fb
f9
00
08
01
01
10
f1
f7
f3
fe
fc
01
07
f4
f9
0a
0b
18
15
f0
f7
01
11
fb
f3
ef
ff
fc
0f
02
00
fb
02
05
00
f7
08
04
04
f1
00
ea
0a
11
fe
fc
05
ec
fb
0d
03
0a
02
00
0d
0c
0d
0e
ef
08
03
f8
06
01
fe
f9
f9
00
f9
02
03
03
01
f6
fa
0e
ff
0a
fa
fe
f5
ef
04
f7
03
00
0d
f7
04
f4
ff
06
07
f0
03
0d
06
fe
01
fd
f4
05
04
0f
15
f3
f6
0b
0b
02
03
05
05
ea
ed
03
ed
fd
04
fc
f3
03
05
ea
00
12
fb
01
05
03
07
0c
02
11
08
f2
0d
ff
f3
13
fc
05
fd
fc
00
04
03
fd
ff
f7
fe
16
04
04
ff
02
fc
0a
08
03
f9
ff
07
f8
fa
ed
0d
09
fd
f9
04
07
fc
02
07
fd
0f
15
f7
f8
f4
0e
fa
ff
ef
f8
02
05
0b
e9
06
f1
02
06
12
fc
0e
03
00
00
12
ff
fd
17
08
07
fb
15
fa
f3
02
0b
fe
f2
04
f2
05
f6
03
02
04
02
07
08
fe
0d
11
02
f4
f6
05
0d
04
00
fb
06
04
ff
01
02
06
01
f8
02
01
0c
e8
0b
02
fa
00
f9
f6
07
13
0c
0e
ea
f7
01
01
fc
fe
ff
07
0c
0d
fb
fd
fb
ff
0a
0c
f8
03
fd
f4
0e
f1
0a
01
f6
f5
08
fb
0b
02
01
05
fd
00
02
00
f5
fd
06
ff
00
00
12
00
00
0d
0d
fb
05
09
11
f0
15
02
01
08
09
08
12
0d
ef
01
f2
01
fa
04
00
05
01
f9
fe
0a
00
04
f7
0a
0a
0b
0e
01
0a
f9
04
14
0b
0d
00
ef
13
01
0a
0f
14
07
0b
01
f6
07
04
01
12
07
08
01
0a
01
04
fb
15
fc
06
08
fc
0b
02
07
01
0b
03
00
01
f2
01
06
f7
0d
0c
f8
03
0c
fd
04
fa
01
13
13
ef
f8
0c
f4
0f
f9
01
01
0a
00
0d
ff
01
0a
ff
03
09
fa
0a
00
e8
09
02
0a
f7
0a
fb
0e
10
10
10
fb
ed
0f
05
fb
00
ff
07
0e
fb
f6
0f
ff
01
07
0d
0d
e8
ee
00
05
03
11
02
08
f5
0a
fc
11
fb
ff
f7
00
00
fc
fe
02
f8
fb
fa
08
f2
11
12
fc
0e
02
ff
fc
fd
15
00
05
fd
06
02
04
03
04
01
1b
04
f6
fc
08
08
ee
01
0b
fd
02
02
02
00
02
f2
00
09
03
09
06
06
05
08
02
00
09
f1
12
f0
06
fe
f4
00
02
0b
09
10
04
08
04
0f
f8
00
0d
f8
f0
03
f8
0c
14
02
05
0b
0e
fa
f9
fc
f1
10
08
02
fe
05
0d
fe
00
f8
00
fc
fe
f9
00
05
05
13
0c
12
fa
fa
05
04
11
fb
05
01
fd
05
f1
0c
06
fe
00
fd
00
0b
11
f1
03
01
00
f3
11
0c
11
f9
ff
fd
07
00
fb
10
fb
ed
f3
fb
0e
00
03
fc
ff
01
07
fd
07
fd
13
05
fd
0d
04
08
fe
fc
00
03
04
03
f5
fe
0d
00
10
08
03
f1
fb
07
01
f9
08
00
fa
00
f8
ef
0a
06
09
03
04
ef
0e
01
02
f9
ee
04
11
09
02
01
05
06
00
05
fe
fb
02
1c
f6
f9
fd
f9
0c
f4
01
13
00
0b
06
09
04
0a
f8
fb
ff
04
07
fb
08
f5
0c
f4
0e
11
01
f9
11
05
0d
f0
fc
f9
12
01
fa
01
fc
01
01
f4
07
04
05
03
0c
01
0d
0e
00
00
f1
fb
02
fe
f1
fb
fb
f0
fd
11
03
ef
f1
ff
f2
0a
0b
13
0e
ff
02
02
03
f9
f8
f2
ff
fb
03
04
07
01
10
01
ed
f9
01
0e
01
00
f4
0f
f1
fc
01
fa
09
0a
fd
02
03
12
06
f7
00
fa
0e
0c
ff
00
0c
fb
03
0f
fb
f8
fd
f9
03
03
fe
f3
e8
03
05
1b
1d
f8
00
ff
0b
f9
00
f6
f4
01
15
fd
ff
07
ff
05
00
0a
02
f6
fc
fb
00
eb
07
11
fe
07
f8
f8
fa
13
fe
16
ff
ff
13
fc
01
07
f1
06
00
03
02
f0
fd
ef
fa
04
fe
ee
09
03
fa
0d
f8
0b
fb
01
05
f8
04
f0
f9
03
ff
00
01
f9
04
f2
07
07
0b
f2
02
0e
f3
04
01
fd
ee
06
02
04
12
fa
f6
fa
09
ff
07
01
06
f4
fa
01
f6
06
01
fc
09
03
02
fc
05
0e
fe
00
02
05
09
06
04
fe
f5
fb
0a
03
ef
1b
fa
fb
fe
f6
ff
10
01
0f
05
ff
09
ff
fc
03
01
01
fb
0e
0c
08
fc
03
ed
f9
07
f0
0d
08
ff
f0
f6
f3
fa
f9
f7
fd
0e
15
fb
04
f4
09
01
05
f6
fc
0f
fb
01
f1
05
fc
04
04
04
05
06
05
00
00
fd
f5
05
03
f8
03
03
fd
f7
fb
0b
fb
01
ff
f6
f2
00
08
08
02
05
02
12
fe
11
f7
fd
f6
fc
f4
05
0d
ff
00
00
fc
00
fc
ff
0b
03
00
0b
12
02
f6
f4
09
f8
f9
ff
f7
04
0a
0a
18
10
ff
fe
00
06
09
f7
07
f7
f6
ff
02
05
f9
09
f0
fc
ff
fe
0a
ff
f9
ff
fd
00
0b
00
fd
fa
fe
fe
fd
06
03
fe
08
00
f8
00
fa
0d
f7
00
f4
10
03
fe
00
0b
f5
05
11
00
15
fc
00
04
04
ff
13
f5
07
02
01
07
09
01
fe
f8
02
0e
fe
fc
16
0c
f5
f9
0f
fb
00
10
ff
f9
ff
02
01
11
00
ff
02
01
f1
04
0c
07
fd
0c
f5
f8
f6
00
fd
0c
08
06
05
06
14
06
ff
11
05
03
05
fe
06
fc
f4
02
ff
fd
0f
f2
02
02
f8
00
1d
03
00
04
fc
02
09
02
0a
05
03
fd
fb
0d
16
15
f2
03
fd
04
11
01
f1
09
fc
16
04
f6
0b
ff
ff
fe
01
06
00
f8
02
f5
00
05
f5
f6
07
00
f9
08
02
11
08
02
04
03
1b
fa
01
01
0d
f6
04
02
01
06
09
fe
06
06
fd
01
08
06
10
05
fa
00
00
f3
ff
05
02
05
00
06
02
ef
03
0f
f2
02
04
02
0b
02
fb
14
00
fe
01
09
09
09
f5
ff
06
13
0c
04
fa
11
00
fd
04
00
11
00
fc
04
0e
0b
fb
ff
0a
fd
12
00
ef
03
12
00
04
02
09
08
0d
18
01
01
f5
f7
03
f6
fc
ff
f4
08
04
fb
08
06
01
04
03
07
f3
ff
04
01
ff
0d
f6
18
fe
01
fd
f5
01
fd
06
00
0a
00
07
fa
01
00
f5
12
f9
05
0a
06
fd
f7
0d
eb
11
ff
01
23
0f
0d
0c
f4
01
01
fb
01
f2
f9
06
f6
06
0b
0a
fb
fe
fc
0c
f7
0c
05
0c
16
fd
07
05
03
fd
fd
00
01
f7
03
fd
0d
07
0a
f5
f6
04
00
f9
00
fd
f7
03
09
13
fd
03
01
0c
fd
0a
fc
fd
05
03
01
f6
01
08
fb
f9
10
02
ff
08
05
09
0a
01
0b
17
ff
fd
03
18
00
05
fb
08
fd
16
04
f3
fa
0c
fe
09
02
03
ff
fa
12
11
ed
05
ff
f7
08
09
07
f6
f5
fe
fd
f9
05
f7
06
fd
03
01
f1
06
05
f7
09
0c
fc
0b
f7
09
f5
0b
00
fa
0b
fe
10
fa
0c
fc
ff
02
06
fa
0f
11
03
f8
00
00
09
f6
01
07
f0
03
08
f2
fb
f9
02
0a
09
08
f0
f9
05
f0
09
fa
0a
02
08
f9
00
0e
14
fc
00
fc
08
13
eb
01
06
fb
02
03
02
00
0f
ec
06
13
03
ff
f1
02
f7
f3
fe
ff
03
0a
12
10
10
01
fe
00
f7
0f
f6
fe
03
0a
0c
0e
01
fb
12
fa
fd
f5
f8
fa
f7
0f
05
01
06
09
05
0b
fc
12
fe
fa
ff
05
ff
ff
00
fa
fe
f5
fc
05
00
0f
08
00
0c
07
fd
06
0f
0f
0d
08
ff
01
f7
fc
e9
0a
09
00
03
00
f3
07
15
05
fa
05
0d
fe
05
0d
16
fa
02
fb
fa
fd
0b
13
01
0b
f7
02
15
00
f4
01
fe
03
10
03
04
0c
0c
f0
f2
04
02
0a
12
fc
01
06
ef
17
07
02
04
06
08
03
05
0e
ff
fd
16
fb
fb
0a
f9
ff
f7
02
0a
0f
11
01
00
eb
00
f7
02
f7
f0
04
f8
04
09
05
19
ee
06
06
02
fe
01
ff
05
03
0f
f5
fb
f3
01
00
00
0a
0d
f6
06
fd
f7
08
0b
04
ef
fc
08
fd
0a
fc
19
11
f3
00
fd
08
08
01
09
fa
16
fb
0d
02
f8
fd
fd
0e
03
06
0a
fd
05
14
ff
01
00
00
f1
fd
02
fd
0c
ff
0c
fe
f4
fd
0e
10
03
11
0c
0c
ff
ec
0c
08
02
01
1a
0a
06
ff
0f
07
10
0e
05
00
ff
ff
0a
08
ff
12
00
02
11
ff
12
0c
02
06
fe
0b
04
f0
01
0f
02
04
07
03
09
01
0f
01
03
09
f9
fc
fd
06
0b
09
05
02
0c
05
06
ff
fc
f7
f9
f9
0d
13
ff
03
0a
f6
0b
06
f4
fe
fe
fe
fc
00
00
07
00
08
01
01
00
f6
0a
f7
09
07
0d
02
05
0a
ff
00
03
01
0f
0e
05
09
fa
fb
00
fb
03
06
0d
02
fc
03
10
0a
01
0d
08
05
ff
f8
0c
10
07
09
08
f9
f8
f4
0e
00
f8
f6
ff
05
06
fe
03
f7
08
07
01
07
01
00
08
fd
07
0f
ef
00
05
10
fb
0c
07
01
09
fb
05
fc
03
03
fa
f8
0c
00
ff
fe
0b
ff
18
02
17
0e
fc
f5
03
11
00
13
fb
0d
0e
03
12
f3
fe
0f
00
fc
03
08
f0
00
0e
0e
f0
f3
00
00
13
0a
03
f3
ff
09
fd
f3
02
00
01
fe
0a
fb
09
09
0b
0c
0e
09
fe
fd
06
05
fb
ff
09
f2
14
01
fd
02
10
f8
04
17
05
02
01
17
00
02
00
00
04
06
03
ff
f7
03
f7
ff
17
0a
fc
08
02
fb
f6
06
08
16
03
0f
00
00
ea
f0
eb
0e
01
f8
ff
0b
fa
00
13
00
fd
fe
06
fe
01
03
00
13
ed
ee
00
00
0c
04
05
07
01
06
01
01
01
01
f2
fd
fc
00
0a
fa
02
fc
0b
06
06
fe
05
07
ef
08
f5
fd
0a
0a
fe
05
06
fe
01
f9
fe
05
fa
09
12
05
03
ff
08
02
00
0c
00
fb
06
0e
00
0e
f5
0f
00
08
f9
0a
f7
f0
05
01
02
ff
03
ef
04
f3
0e
03
01
0b
05
f8
ff
f6
09
02
f7
e9
0e
f0
f1
08
07
02
03
ea
f0
01
0a
f3
07
17
f4
00
fe
1c
03
0d
00
04
fa
01
f0
0d
f5
16
03
05
f7
08
fc
f3
12
f7
ff
f0
03
ed
02
fe
fa
00
10
13
08
0a
0d
01
07
00
08
0b
f5
fb
f6
01
ee
06
09
0a
01
fd
01
01
04
02
f0
00
ec
0d
00
f6
02
01
ff
15
0e
07
ef
fc
0f
0c
01
00
fb
f6
f6
01
10
00
fd
0f
fd
09
09
fb
04
02
f5
f1
ef
f8
f5
fe
03
fc
03
07
07
03
03
ff
fb
03
09
06
ef
02
04
ff
ff
fc
ee
f3
00
08
00
00
03
00
01
13
07
0a
00
12
fa
f7
fe
13
0d
01
0a
f0
fd
00
f7
02
05
00
00
0b
14
09
0c
0b
f8
f4
07
fc
fc
01
0c
0b
04
f8
01
0f
16
f9
0e
09
01
0a
ed
fe
14
fc
00
f0
fb
12
f7
0d
f9
f3
08
00
fe
09
f8
f5
0d
08
04
08
05
fd
08
05
0d
0a
04
f8
f2
06
fc
07
01
0a
fb
08
05
10
ff
01
0c
01
fe
03
00
ef
fb
0a
09
f6
00
10
03
08
fd
fc
18
f7
f7
fd
06
fc
02
01
03
fd
0a
fc
08
fb
03
05
03
0b
0f
0f
06
02
06
15
02
06
0c
ed
08
0b
00
fb
08
0f
f6
0d
10
07
fd
00
06
11
02
0f
f1
fb
ec
09
0c
f3
09
00
01
09
18
06
06
07
f9
03
08
f8
0f
ff
fb
02
f8
0b
00
04
0e
f7
02
1a
ef
02
04
fe
ee
fa
05
01
f9
fe
fe
07
03
fb
13
04
f8
f9
10
fc
0e
05
03
06
04
0b
02
f6
0d
10
f7
0b
fc
09
00
f7
05
ee
06
f6
03
fc
0d
08
f3
0c
f7
fe
06
13
01
01
14
09
03
04
ef
00
0b
09
09
07
05
fc
02
ff
07
0c
f5
0c
03
fd
fe
0a
01
fb
f7
f9
00
00
fe
01
04
04
0f
04
09
0e
f8
ff
04
0f
03
0c
0c
f4
f7
f6
ff
fc
04
00
16
15
1d
fb
0e
0b
f9
f7
0b
ff
ed
02
0e
08
fd
07
01
06
11
ef
18
0e
02
05
f1
03
06
fb
02
fa
00
01
fb
0c
00
fb
06
00
fe
0d
f9
fb
00
06
ff
08
ff
02
0e
01
13
0a
fd
f5
fb
00
01
04
03
08
fe
ff
0c
0f
fb
ff
00
05
fc
01
00
f7
01
0a
04
f7
00
fe
07
00
fe
fc
13
f5
fc
00
02
f3
01
01
fe
05
01
03
fc
00
02
fe
fc
09
0e
fc
fd
01
06
15
f7
10
10
f4
04
00
02
02
04
0e
f7
02
04
f7
0a
00
08
fa
ff
02
f8
f5
f8
02
11
fd
09
fc
ff
07
0e
fc
08
09
f3
01
04
01
05
06
fc
01
fd
00
f7
fc
07
fe
fc
04
f7
01
ff
f7
f7
ff
08
02
04
fc
fe
fd
00
fa
08
05
fc
f9
09
fe
1b
fe
01
0a
04
ff
03
fb
f7
05
00
08
f8
f8
00
fb
05
f8
09
fa
fc
02
08
fc
f7
ff
ff
ff
ff
09
0d
15
18
0b
08
05
f3
fe
0d
fa
fe
f9
07
fd
05
fe
fe
03
fa
fe
02
05
fc
01
0d
03
f7
ff
00
00
03
04
05
0c
0b
0d
07
18
f2
f9
14
ff
ff
08
04
04
f4
ff
03
14
fd
00
05
04
00
00
f5
fa
09
03
fb
fb
0d
01
03
0a
04
fd
00
0b
07
0d
0d
ff
03
ff
fb
06
01
f3
03
01
06
0b
f4
0f
f4
04
0d
00
0d
07
f2
f6
ff
fc
fa
04
10
07
ff
19
0d
fd
0d
fc
f3
fe
0e
fa
f4
08
03
07
1d
f4
00
03
0d
fe
f6
01
00
07
fe
0d
0b
0c
00
fd
01
f1
f5
f7
1b
0e
05
fa
f8
06
fc
00
0b
0a
14
f4
f9
fa
00
fd
16
07
fd
09
fa
03
0c
0a
f1
ff
03
04
09
00
ff
03
fe
fd
08
0d
14
0c
f9
00
01
01
02
fb
05
02
f7
0c
ff
ff
08
fa
ff
fe
18
05
05
04
ff
03
06
04
fe
00
f4
01
fa
07
12
f1
03
12
00
12
04
01
0b
0b
f8
01
06
00
fe
12
f9
01
03
0a
10
11
f1
f5
0c
f9
01
fb
ff
05
07
03
01
f7
11
03
01
0b
ed
0b
02
fd
03
f9
f9
f7
fa
04
0d
0b
ff
fd
fe
fc
fa
01
04
10
02
ff
05
06
f0
fe
fd
19
0a
03
f6
f8
0d
07
06
0b
04
05
fe
10
fa
0c
f4
09
f4
ff
00
00
f4
03
00
ff
fc
f8
10
f4
0e
19
fb
04
fd
04
fb
10
0f
04
06
ff
04
01
fd
04
fd
06
0e
11
05
0e
0c
fe
00
02
01
fe
01
18
01
f9
07
06
f6
06
01
04
0e
02
0a
0e
01
11
0a
f2
06
ef
00
0d
00
00
ff
00
06
08
06
07
08
06
ff
04
00
00
f3
fe
fd
05
1e
00
05
01
12
f6
ff
f8
ff
1a
0a
01
f8
04
08
00
00
06
fe
fc
f3
02
00
fe
03
16
05
04
ef
04
f8
00
08
f4
00
01
0a
f8
fb
02
06
04
00
04
fc
fd
0e
ef
04
04
fd
f3
0f
03
05
0a
fd
06
05
fd
01
0a
09
ef
f2
fc
fe
00
fd
03
01
0a
f8
f2
f9
f9
0a
0d
fa
11
03
05
f4
fa
fd
04
05
ef
f7
f8
07
f6
03
01
ff
f0
fe
0a
03
04
05
f3
06
02
f9
fc
f3
f9
08
02
f9
fd
0a
05
03
f4
f4
03
14
00
f4
fa
fa
03
fe
fe
fd
ff
01
25
f4
01
f2
04
0f
f4
02
08
01
f8
0d
01
03
09
f6
fa
f7
01
0d
f9
03
03
fc
f9
06
fe
fc
02
02
ff
08
f9
f7
f4
15
fc
ff
01
09
f2
fa
f3
03
03
00
f3
02
f9
01
0c
00
00
f7
00
09
f8
07
fc
ec
ff
0f
06
05
01
09
fd
0b
f8
10
06
fe
f4
fc
00
06
fc
ff
f5
00
0d
03
fa
f6
00
f5
01
0e
03
fd
f4
00
f8
05
f4
0e
ef
ff
0f
06
fb
10
12
03
f2
ff
fb
0b
fb
ff
07
0a
01
f2
f8
16
06
fe
06
03
04
fc
05
f2
fe
02
1b
fe
0a
fe
fa
f4
15
fc
07
05
f4
05
fb
fc
06
f7
0a
14
00
00
fa
0a
06
f7
ef
00
f9
06
04
09
08
09
f1
00
02
07
05
0b
01
01
10
04
fe
f8
0d
03
07
f7
f8
fb
06
00
fe
fc
0d
0f
f5
f1
f9
f9
f4
17
12
02
f7
f7
07
fc
f2
fc
00
19
fa
01
03
01
07
0b
f2
f3
06
06
03
02
f8
f5
fe
08
05
07
02
02
10
f9
0e
10
03
09
fc
ed
10
fd
f3
02
fb
fb
02
ff
02
0c
03
f2
01
16
ff
03
fd
ff
08
fd
01
04
0e
08
fe
00
09
fe
1b
03
f6
05
01
f3
0d
0d
fc
0e
fd
fd
02
12
0d
f8
04
fe
ed
f9
f3
01
fc
14
0f
06
10
f8
0d
fd
ff
06
07
15
00
fe
fb
f7
01
05
0d
06
fb
f2
f6
0b
fd
ff
fd
07
f8
0c
08
13
02
00
00
f4
ff
03
f9
fc
fb
10
f1
0c
12
fd
0f
14
10
fa
08
06
04
03
02
08
00
05
01
10
01
0e
10
0d
08
08
fc
f9
01
17
fe
ff
0f
01
fe
11
01
03
11
01
ff
0a
fe
05
06
00
0a
0f
fb
00
f7
fc
0d
08
00
04
06
06
02
06
0b
04
11
00
00
0a
f9
f8
0a
fb
06
10
07
05
ff
10
08
0a
f6
fb
13
04
ff
fd
0b
05
01
00
05
01
f8
fd
02
00
ff
0b
0e
01
05
fd
fe
fb
f9
15
ef
04
02
fe
f9
f7
fe
03
0c
03
0d
fd
08
11
fa
00
06
0d
02
0a
0b
0f
06
fb
fe
00
f6
0e
10
05
fe
ef
f9
08
00
02
fb
00
0a
f5
ef
fb
f7
11
04
f9
10
02
04
fd
f9
00
00
fd
ff
01
f6
11
f5
06
07
fc
fd
02
11
08
04
05
01
05
02
f4
02
f7
fa
10
01
f7
fb
08
01
03
ed
ed
0f
0e
06
0d
f9
13
02
05
06
ff
ff
03
20
f6
04
fe
fc
0d
f3
02
15
fc
fb
0c
02
02
0d
f5
f7
f1
ff
08
08
03
05
06
01
15
02
f8
09
00
f8
12
fe
fc
f5
14
04
0f
01
01
fa
f6
ff
03
0d
ff
fe
01
05
fc
11
00
00
09
01
ff
18
09
07
fc
1a
f0
fd
0b
f5
f4
f5
08
fb
fe
fe
0d
01
03
01
09
0d
fb
08
fd
ff
f8
fa
06
06
05
00
f2
03
03
07
00
fe
f7
05
01
01
01
04
f3
11
fe
f4
00
03
f6
03
00
0d
0c
f4
fb
00
00
fd
f9
06
04
fa
fe
f1
02
00
fb
0c
0a
fa
04
00
fe
01
f3
fe
09
f9
f4
08
01
05
09
03
03
fa
fe
02
00
ff
01
06
04
05
00
08
05
fe
01
05
05
06
fe
15
ee
12
ff
00
17
0a
0c
10
05
f4
ff
ec
fc
f1
fd
01
02
03
00
00
f6
00
00
fe
05
0c
fe
0f
06
fe
01
00
14
09
08
00
ff
0e
03
fb
15
0f
ff
0c
03
fc
08
f7
01
10
01
0a
01
12
ff
fe
00
14
fd
0c
fa
fc
04
fd
06
f3
fd
07
01
02
fd
ff
11
fd
04
17
fa
02
09
0a
01
fa
01
18
13
f0
fb
01
f1
1b
00
01
00
fe
01
0d
00
f5
0b
f9
03
10
f0
06
01
ec
07
05
08
fa
fd
01
0a
0b
0b
00
ff
f3
02
fd
f5
01
f8
00
08
fb
fb
15
f6
03
07
0c
fe
f2
ee
04
07
00
10
01
01
f2
03
01
06
fc
03
f8
00
00
f8
f7
01
fe
f2
f9
03
fb
0f
06
fb
0c
05
00
ef
f6
13
12
04
04
03
01
03
f7
ff
00
16
fd
f5
f5
05
06
00
00
03
f8
02
fc
01
0e
02
00
fc
0d
02
06
04
05
02
0b
03
fa
07
f3
0b
fc
0f
f7
ef
00
0c
08
0a
0f
00
07
0c
0c
fa
f5
10
f1
e9
fa
04
10
06
07
fb
05
10
fa
f7
fc
ec
10
0a
00
09
00
0c
06
00
fb
02
f5
0d
f7
00
03
02
1c
07
0b
fe
f2
08
0d
12
0c
04
01
fc
02
fb
0c
fd
00
ff
04
0a
0d
0f
e9
02
02
02
ed
0b
0e
0e
f7
ff
0a
03
ff
f7
10
f6
ee
fd
fe
11
00
fa
12
02
02
fe
06
0a
f9
0b
ff
f2
0b
02
02
fd
07
ff
03
0c
03
f6
ff
14
fb
0a
09
07
f4
fe
08
fe
06
0a
06
f7
01
01
ee
05
14
fd
01
f7
f7
0c
13
02
08
f9
f9
0b
06
00
13
02
fd
00
f4
02
08
01
0b
01
00
fd
fc
0e
ff
00
0a
fd
04
06
05
06
05
f0
04
01
ff
01
ff
08
f1
0a
ee
04
10
f8
fa
0c
12
10
f7
ff
09
0a
06
fa
ff
02
0d
fd
f3
0c
fd
08
10
00
02
08
08
00
00
06
00
07
fb
eb
07
f8
fa
04
fc
0d
e3
fd
03
ec
02
01
06
0a
05
01
01
0a
e9
fb
fa
ed
ec
0e
09
f9
0b
0f
01
f8
fc
00
fb
00
fa
f3
0b
f8
ed
01
f3
0b
05
f8
00
02
04
06
19
05
18
0a
18
08
00
ff
f8
03
0a
fc
f2
ef
f6
07
0c
f0
06
06
fd
03
0c
05
fd
f9
ee
ff
08
0f
07
fe
eb
0b
02
02
04
00
04
00
09
03
f2
00
13
00
f9
09
ff
ff
04
f9
0f
10
12
00
15
ff
00
fd
ff
fa
06
fa
11
00
0d
f8
f2
ea
ff
ff
02
06
f8
f9
f9
f1
08
fb
ff
f6
ff
0b
ee
07
0c
fd
10
04
00
ff
fe
02
ed
10
14
0b
01
ed
08
f3
f8
02
f9
fc
0a
04
01
15
0c
0a
00
05
02
03
02
03
13
08
fa
01
05
01
0b
08
01
03
12
13
10
fd
ff
f7
02
06
05
02
06
ff
01
05
f8
03
11
fd
f9
04
f8
04
03
01
fe
0f
01
1f
ec
07
07
01
fc
f0
0e
fa
10
fa
fb
fb
0a
11
f5
00
10
fe
f8
f1
f6
fd
f5
f7
02
09
10
eb
1f
08
08
ef
0e
02
03
06
fa
fa
10
00
ff
01
f8
f8
10
13
f9
00
00
f3
f6
06
ed
f8
fc
ff
f2
0e
02
03
0e
1e
09
fa
fd
18
06
00
07
fa
01
fc
ef
06
f7
0a
06
ff
fb
f8
ff
f9
01
19
fa
fe
f4
00
05
06
f7
0d
f9
00
03
0d
f2
00
0f
00
f4
0c
06
15
fd
fe
09
03
00
ff
05
0a
06
03
09
08
10
fe
ff
fd
ee
f6
09
fc
11
00
f9
ff
03
fb
0c
07
f8
00
f9
f8
01
ff
04
0e
01
00
fa
06
f7
07
f4
00
fd
07
08
0e
09
05
f2
02
ff
15
06
09
01
f2
04
f2
fc
fa
14
03
0c
02
09
03
fc
fc
00
04
04
15
02
fe
fc
fa
f4
06
05
fa
fb
fa
fe
f2
f3
05
00
0a
fb
00
06
fe
05
0e
f0
fc
01
f6
0e
02
f5
01
fe
03
f8
09
09
01
fb
0d
ff
12
05
0a
01
f3
15
06
05
06
0b
fb
02
f5
fb
08
fe
fd
ff
03
f4
06
09
ff
fe
f1
04
02
09
07
ff
03
f6
02
05
06
f4
01
08
f5
06
0c
ee
0b
fa
fe
11
07
10
f0
08
00
f9
ed
f5
00
fd
09
0d
08
08
ff
00
fd
03
f7
05
0d
01
0e
fd
f5
01
05
0a
10
fc
f0
09
00
03
04
06
06
09
f8
11
0e
0a
00
00
0b
fd
fd
0b
ee
00
f6
01
13
01
fa
fc
fb
ef
eb
f7
10
0e
04
fe
05
01
fc
f7
f9
0c
0b
f4
f0
f6
0a
14
03
00
f3
f9
04
00
01
ff
03
ff
e8
01
00
00
04
05
fa
06
fe
ff
fc
07
0d
0b
0b
f4
eb
00
fe
fb
05
0a
0b
09
0f
fc
fc
f9
ff
fa
f4
f5
05
0b
08
14
eb
f9
0f
fa
f7
0c
eb
14
15
01
00
04
09
04
00
f5
00
f7
02
03
00
0d
05
1d
05
07
f3
ff
0b
0e
fe
14
00
00
01
fc
f9
15
0f
04
00
06
fc
f1
ff
f5
0a
02
fc
ea
09
fe
04
fa
03
18
fc
f9
fd
08
fe
01
0b
0e
0c
00
f7
1e
03
02
06
14
0e
09
fc
fb
f8
fe
02
09
fb
0a
fe
fe
0e
04
02
fb
0d
fa
0b
01
05
03
09
07
06
f9
05
03
f7
02
05
fb
08
11
f7
01
f6
ff
0c
08
01
01
fb
e6
0c
0d
ef
17
f9
05
04
f9
fe
12
01
0d
11
02
02
fd
09
08
00
f6
03
0a
07
07
11
fb
03
12
07
0c
fa
fe
09
fd
f4
ea
fc
02
f5
f8
0d
17
f9
fc
06
0a
09
09
e6
01
0a
fe
fa
04
07
eb
09
fc
fb
fb
08
ff
00
00
02
f3
01
08
ee
05
02
02
f8
ee
fe
04
09
00
ec
f3
04
06
03
07
09
01
01
f1
0e
0c
11
fb
f6
f6
07
14
05
ff
10
fd
04
f9
01
0f
0e
03
01
10
02
03
e8
04
f8
f5
ff
f5
00
13
13
17
10
f1
fb
00
03
08
f8
00
03
0a
0d
08
01
f0
05
fa
fa
ec
03
06
f2
14
f9
04
00
03
fe
07
f2
0d
01
f8
0c
01
fd
05
00
f2
fe
f6
0a
fe
00
12
07
0a
08
0e
03
f8
0b
0f
02
1a
02
01
fa
fe
f8
0f
05
f7
02
fb
05
09
0b
fd
01
00
06
fa
ff
0d
09
f0
ff
0e
ff
f9
07
13
fb
01
04
02
17
00
ed
1a
ff
0b
05
0f
09
02
08
f3
f2
05
02
07
0d
0a
fe
ff
03
14
07
fc
0b
ff
06
ff
04
0e
02
fe
13
00
00
16
f1
01
fd
fd
fe
1a
fa
01
ff
f7
02
00
01
03
ff
f6
f5
04
0c
16
0d
f4
05
01
03
0a
00
00
11
03
09
f7
f7
07
01
f8
02
05
07
f8
08
fe
f7
0d
06
0c
ef
f6
0c
fb
0a
f6
12
17
f7
ff
f4
14
0c
03
03
0e
0b
f5
fa
ff
0b
09
01
09
0a
fa
06
04
f9
0b
fa
fe
00
00
0d
0f
fe
00
0b
ff
f7
01
0f
06
fd
09
fc
f7
0f
f8
0e
f8
ff
f1
fe
02
00
01
f2
0b
02
08
f3
fc
f8
0e
eb
01
ff
08
ff
f5
01
f7
fb
e8
fc
fa
01
0c
07
f7
12
0c
02
f4
02
fd
0c
fa
00
f7
f8
01
f2
00
17
08
0d
06
07
05
fd
07
f8
02
0e
05
fd
01
04
10
fa
16
fc
fb
f5
05
fe
fe
04
0d
fc
03
11
fc
00
f9
08
09
f3
02
00
08
fa
06
0e
0e
f6
02
0e
ff
09
fd
08
02
f5
0f
02
fb
0c
fc
03
07
f3
02
02
00
12
fc
f1
fc
0e
fc
fa
fa
0b
eb
14
14
f6
04
fd
05
05
09
03
00
09
ff
fe
05
0b
01
0b
0d
fd
02
0c
06
03
0c
02
ff
fe
03
fa
05
00
0f
fd
0f
0f
01
0a
04
fe
09
02
ef
09
fa
f9
00
07
fc
0c
ff
ef
02
11
f3
03
fe
00
01
01
fd
03
11
f7
fb
f6
21
02
0c
04
ef
03
fe
fe
0c
03
fd
0b
f9
01
05
12
09
f9
10
07
f6
0b
fe
0e
10
0e
fe
08
0a
02
03
f8
09
0b
fb
14
fc
05
fa
09
f8
01
00
f5
07
e9
f7
0b
ff
05
f8
08
f4
0a
fa
11
05
00
00
ff
f9
fe
01
f9
fc
19
fc
f3
04
06
01
f8
09
fd
08
00
ff
17
16
05
01
13
fc
04
fe
ff
f5
02
07
06
05
10
ff
fc
fb
03
0c
00
0a
fc
0f
02
10
04
02
05
0c
f4
f5
03
0f
06
fc
00
07
18
ff
fe
00
19
08
f6
07
fc
f9
00
04
07
fa
10
04
f5
f0
03
05
06
fb
0f
01
02
f9
fe
00
fe
00
03
fb
06
fa
fd
02
00
0c
fd
fc
07
05
00
ff
04
fc
00
08
fd
05
09
13
fa
11
fc
ff
12
04
ff
11
fa
f8
fe
ef
12
0b
08
f0
fc
04
0a
f3
f9
10
0d
07
fa
ff
05
05
fe
07
08
f4
00
08
0c
00
f2
fd
01
f9
10
04
03
fc
0f
06
f8
03
00
03
ff
04
fc
0b
01
0a
fa
05
05
07
fe
02
02
f6
09
f3
fc
0e
fc
ff
0d
00
00
fe
03
0c
0b
00
fe
05
01
04
04
00
fd
0a
fe
09
00
1d
00
f3
01
fa
00
04
fe
04
fe
ee
08
06
f2
fe
02
0b
fe
01
06
fb
fa
17
f9
01
05
fe
ff
f5
03
ef
0c
f4
06
0b
01
fd
05
0b
02
00
fc
07
fc
f6
06
06
15
08
02
f7
07
08
03
0d
04
13
04
06
00
00
04
fc
02
00
f6
05
fc
f8
f8
ed
07
02
19
08
f7
f9
07
f2
02
03
04
02
07
ef
00
13
04
f7
ff
fd
f9
16
f5
02
14
00
01
f5
01
01
12
f3
02
ff
01
04
ef
f7
fa
f3
00
f4
ff
0b
19
10
02
00
01
00
03
09
fd
fa
08
0a
0a
0d
02
f9
fe
02
07
f7
fe
fe
ed
15
ff
03
f2
09
05
0c
fd
fb
f6
ff
0b
01
02
fe
00
fb
fe
fa
00
08
00
14
02
f7
0e
0e
04
07
1b
04
10
0a
02
01
f1
fe
f1
02
0a
fd
02
08
ff
02
09
02
03
02
01
ff
fd
01
fb
fc
02
f3
fc
01
06
06
01
0c
fe
01
0b
00
f6
08
fd
04
13
0d
0e
09
fe
f3
f7
06
02
0a
0f
fe
04
fb
f3
19
0d
00
ff
07
0d
01
04
0b
06
00
1c
fe
02
04
f9
00
fb
07
0e
03
00
01
05
ef
fe
f8
01
fb
f3
04
f0
10
0e
05
fd
f4
05
0c
01
f3
01
04
fc
02
11
ef
f9
fa
02
00
03
0e
f6
fb
08
fb
fb
01
10
0e
f1
fe
0f
01
0a
fd
0a
0e
fd
00
fe
01
08
0c
0c
fe
06
05
03
01
f1
02
fe
12
05
0c
09
02
fb
19
03
03
00
00
03
0b
06
1c
08
11
02
0f
fc
06
0b
e7
f8
fd
06
02
f1
02
07
00
05
00
ff
12
03
00
f6
02
10
02
0a
00
0d
01
f3
05
01
10
01
fd
fb
07
00
fe
ff
f9
03
0a
fe
02
01
14
ff
13
f2
0d
07
0a
0d
00
f9
f8
f8
05
ff
f8
f8
f2
0c
0c
ff
19
11
07
0b
00
0b
ff
f5
fc
0d
06
08
08
1c
fb
1a
00
03
06
f9
06
00
07
01
08
fb
0e
00
ff
0c
0d
f5
f4
02
0e
f8
02
f0
03
ff
00
17
fd
0f
08
01
04
02
05
fd
f2
f9
11
ff
03
05
0d
f1
fe
03
04
0a
11
f3
fb
1c
ff
08
13
15
0e
fa
00
06
00
03
f3
06
ff
f4
0e
06
08
0a
f3
ff
0b
0a
06
07
0d
02
f8
09
fc
00
07
f2
fe
f8
0d
0f
f4
ff
04
fe
09
06
02
0e
11
f9
07
03
00
fd
0d
00
ff
02
06
13
fc
0b
f0
fb
09
09
07
00
00
02
1a
01
08
13
01
fe
0c
f8
09
02
ec
fb
f4
10
01
fa
01
0d
0e
fc
fb
ff
00
f8
03
f2
08
0a
f0
06
08
fa
06
f1
20
0a
04
fc
06
fe
03
13
fe
fc
0a
00
fc
fa
fd
00
fb
f5
fa
00
00
07
17
03
11
09
08
fb
0d
03
0c
02
fa
f0
f6
00
03
f0
0a
fa
03
fd
00
f6
06
e7
01
f1
01
f6
01
fa
fd
03
02
ed
05
04
fc
00
02
ef
07
fb
f6
02
fa
0e
06
04
05
05
fd
07
00
f3
03
fb
00
fa
00
00
fc
03
06
03
f7
f8
f5
03
12
f4
17
05
01
14
09
0a
03
fe
ff
04
f7
f8
08
00
f2
15
07
0a
fb
02
02
00
07
04
07
03
10
00
02
f2
09
f7
f3
06
0b
fb
f2
02
fc
fb
00
05
05
13
f7
08
fe
02
ff
01
fb
f2
10
01
00
f3
fb
ff
f3
f9
00
0c
08
00
05
ed
f5
04
01
18
0e
f3
00
04
0b
05
f9
01
08
f3
07
f7
11
0f
00
ff
03
03
07
fe
03
0f
f6
fd
03
03
05
f9
02
fb
fe
14
00
f4
07
03
03
02
03
1d
f9
f6
fc
f5
00
03
0d
02
04
00
05
1f
f9
04
f5
ef
fa
ed
0c
fe
f7
03
07
00
fe
0c
ff
ee
05
05
0c
01
fe
f7
f3
f9
0b
02
03
19
11
01
01
0d
01
f8
02
fb
01
ec
f2
0b
fe
ff
fb
f8
0c
09
06
f0
02
f2
05
03
00
07
ff
ff
fc
f8
02
00
ed
02
fe
00
00
09
0c
02
09
06
04
ff
02
ff
04
03
f7
fe
fb
0a
f7
0c
f8
00
e9
07
01
08
0e
0d
0d
05
10
fc
f9
06
0d
eb
02
01
08
fe
00
01
f0
07
e7
ff
fb
01
0c
f9
02
08
02
ff
f9
fd
03
0d
04
05
fb
02
01
e8
f7
0a
09
0d
07
07
01
fb
06
fa
05
12
09
fc
fd
06
0e
ec
15
03
03
02
0a
01
0d
07
08
f6
0e
08
fd
00
f3
06
09
e9
fe
00
08
0e
03
0d
0d
f3
fb
04
08
f6
fe
04
01
01
0e
fc
07
09
01
03
09
eb
f2
04
0b
0a
01
fa
0c
07
03
04
f8
08
01
13
10
0f
00
f8
0e
fe
fd
00
00
04
03
fe
06
09
00
0e
0e
00
f9
06
fb
02
0e
ff
fb
08
0d
fb
04
0d
0e
fb
0e
0a
fb
0a
0c
fd
ff
09
ea
fe
fa
f4
02
fd
01
0a
03
00
02
0f
f1
ff
f5
02
01
03
ef
07
12
fc
09
09
0b
00
16
03
fa
05
03
fb
11
0f
07
ff
f3
01
f1
12
0c
00
01
06
fd
08
f8
10
10
fc
04
09
0e
f0
0b
04
fd
0b
04
04
02
ff
fa
01
f8
08
06
f4
04
f5
e6
09
0b
03
f7
08
eb
11
01
09
f6
00
00
f9
fb
09
fb
ed
08
fa
f8
04
00
03
f5
03
fd
ee
ee
00
1b
02
fc
04
01
0c
f3
12
f0
03
f8
fb
ee
00
0e
fc
01
07
f9
00
f2
01
08
ff
fb
04
04
01
f9
fd
05
fd
00
00
f4
0a
0f
fb
10
10
09
fc
00
06
04
fc
14
f3
f6
f8
01
ff
fe
03
e9
f2
00
fe
15
08
f3
f6
f4
10
0c
04
fd
f2
fb
0a
fb
04
0a
00
08
00
f5
02
f3
0b
ed
00
f0
10
0a
fc
fe
09
ef
0a
1b
0b
13
ff
01
f7
ff
f7
12
f0
15
04
0c
00
03
fd
fd
fa
01
07
fb
fd
10
0b
ed
fd
0a
f5
fb
03
fe
f3
07
00
fd
0b
00
05
fc
02
f2
01
0e
0c
fb
07
fd
f4
f5
00
f8
0a
08
04
ff
12
17
07
05
18
fd
fd
08
00
09
f9
04
fa
ff
02
1e
ec
04
04
fa
07
20
fd
ff
fd
f4
08
0e
ff
01
f7
ff
01
fb
0b
13
0d
f5
04
f6
02
0d
01
f4
09
fe
13
f7
06
07
ff
09
f2
08
05
16
fd
ff
f0
02
02
f0
f8
14
fd
f6
03
f6
0d
01
f3
01
12
17
ff
03
fd
0c
fa
11
fc
fe
02
0e
fe
02
05
04
04
0a
f9
06
0c
fb
00
00
ee
fd
07
04
0b
ff
fb
05
06
04
01
15
11
02
09
f5
fb
0f
f6
fb
01
00
01
11
ff
f8
0e
1b
fe
f4
06
ef
f9
01
13
03
02
f9
01
0e
11
f7
11
0c
ff
07
fa
01
14
0f
03
f7
08
f9
f2
fd
f9
fc
07
01
ff
05
02
02
05
07
06
0e
fe
f8
0e
f1
fb
1b
04
06
04
f6
fe
04
0c
08
ff
ee
04
10
ff
ff
03
07
05
04
00
f2
03
0c
09
e8
00
f7
06
15
ff
ff
1d
e9
ea
fb
0f
f9
03
02
00
fc
08
f8
ff
0d
03
fd
fe
04
0d
09
fa
01
0d
09
02
06
0c
f1
fb
05
03
fa
04
10
f6
03
07
f2
f7
00
1c
04
02
0e
ea
fb
eb
ee
0c
00
06
01
00
fa
fd
03
07
03
09
fa
02
f6
1b
fa
fc
06
fc
f6
f3
14
05
00
05
0c
f2
04
06
f5
ed
fe
04
01
fa
08
03
0d
00
fb
07
05
0b
f9
0c
fe
18
08
02
08
03
09
06
03
00
0a
f5
0e
0c
07
fe
07
01
ee
0a
01
fc
fe
04
f6
e6
fa
05
11
ff
17
07
15
0d
04
04
03
fc
00
0c
f9
f1
0b
08
07
00
fa
05
0f
fe
f8
03
fd
f7
0b
08
f6
f8
fd
00
00
08
10
04
0c
07
09
f8
04
08
0a
fd
ff
02
fd
0b
f7
fc
fc
f8
ea
05
00
fd
0b
09
0d
00
1a
01
f6
08
05
e9
02
03
09
00
fe
02
f1
06
ec
fe
fe
ff
01
fd
05
10
0d
ff
fd
ff
07
fa
07
fb
fd
04
00
eb
f9
06
02
0f
07
01
01
01
0d
f9
02
15
18
fd
f7
08
0d
eb
06
0d
09
02
0d
05
0e
0c
0a
f5
0e
fd
02
00
f4
05
07
ef
f8
00
07
0d
0c
fb
f9
f8
fc
f6
fc
ff
ee
02
01
fc
f9
00
03
11
09
04
16
ea
f5
03
12
0d
01
fa
0c
03
00
05
f5
11
fd
fb
fe
09
03
f7
15
0c
ff
fe
00
10
fc
ff
08
00
f5
f5
0a
00
fe
0a
fe
01
0c
08
fb
08
02
fc
02
11
f8
03
03
fc
00
f8
12
f8
06
0b
eb
04
01
f4
03
ff
04
f4
f3
ff
02
fb
f0
04
fc
00
ef
06
f8
08
ff
fd
fc
02
1b
02
08
02
05
03
01
01
26
fb
06
05
f5
00
fa
04
f2
18
0a
04
f6
0d
ff
fc
08
fd
0f
fb
1e
f3
10
0a
f9
05
06
fd
f9
01
fc
07
f2
04
10
fe
01
fc
ea
f5
0f
ff
f8
f9
ec
01
f1
f7
fb
00
00
06
02
05
f9
f4
02
04
f0
0f
0b
02
0a
1d
05
f2
06
0b
ff
00
05
ff
01
fa
eb
fe
0f
03
f6
03
0e
f6
06
fc
02
18
fc
00
f9
01
01
10
fa
00
fd
01
ff
10
f2
01
06
fe
ff
0a
00
04
fc
e9
11
05
00
07
06
02
fb
0d
09
07
0b
01
0a
05
02
fb
09
02
00
06
10
09
fe
f9
09
09
0a
01
fe
fe
05
05
05
08
fd
00
00
04
f8
fa
06
00
0d
fa
fe
02
fd
f9
11
07
ea
1b
ea
01
01
f8
f4
f0
ed
0c
07
04
14
0a
03
09
02
0b
02
00
f7
0c
ff
00
06
07
eb
fe
f2
f7
ff
0a
05
f8
06
ff
00
00
09
00
0a
06
f6
fa
04
fe
08
f5
17
04
06
0a
f8
00
f2
fb
10
05
f3
ff
f6
06
06
f8
0c
05
0d
13
01
07
08
03
01
fb
11
fc
ed
03
00
ef
fb
02
04
01
e9
ef
09
08
01
0a
e9
fb
06
07
fc
04
ea
ff
0e
fb
0e
fc
f0
0e
ef
03
16
fb
f6
ef
0b
0c
01
fe
02
06
09
04
07
03
09
01
fa
fb
04
f3
04
04
e7
10
05
05
f2
05
0e
11
07
f4
04
f0
0c
08
0a
00
05
eb
04
04
0c
00
00
10
15
00
15
06
0b
03
10
fe
0d
03
e9
e8
f9
ff
0b
ef
04
05
fb
03
01
fa
0d
fb
ff
f6
02
00
09
0d
fb
0b
02
e9
05
02
0d
01
fb
ea
0b
f5
05
02
ff
08
0b
fd
ff
03
10
07
01
f0
ff
06
04
02
00
ff
fe
01
0b
02
f5
f5
f2
07
14
01
1c
09
fb
10
01
15
03
fa
fa
0f
f7
fc
0a
0e
03
29
03
05
04
ff
02
00
0b
02
09
fe
14
00
fd
06
0e
f1
ed
fb
12
f4
0b
f6
fb
fe
00
11
fc
15
05
07
00
01
ff
fd
ed
f8
05
08
03
fe
05
fd
fe
fc
07
11
05
f8
ff
04
00
0f
fc
18
13
fb
00
04
01
04
f6
05
ff
f0
12
fd
13
0a
fd
ff
0d
02
05
ff
0e
0f
f3
fe
ff
04
fc
f3
fe
fa
00
10
04
f6
02
03
00
0b
03
15
08
f7
fb
07
02
fe
0e
02
01
05
00
13
f7
0b
ec
ec
04
00
0f
ff
f5
01
10
02
07
11
00
f5
0f
fc
06
02
04
f5
f0
0a
07
ff
00
15
10
fb
fe
0a
04
f7
fc
f1
fe
02
f3
07
01
01
fd
f0
0c
06
02
fa
02
f1
03
12
f9
fb
00
fc
f5
f8
f8
03
e9
fd
02
00
00
f9
f5
02
fb
f7
01
00
f4
0f
06
fb
08
17
0a
f3
fa
fe
06
fa
fc
04
00
09
fe
18
07
13
07
03
f8
09
00
f2
00
12
fa
ff
05
02
07
1d
f2
03
0f
01
00
fb
fc
07
07
fe
fd
05
fe
01
01
fd
01
fe
00
00
08
04
03
03
09
02
11
fc
fb
14
f1
f9
0a
f8
03
07
04
fe
fe
0b
09
02
00
fb
19
04
01
01
0d
02
04
00
f4
00
f7
03
f4
00
07
0b
12
fe
00
00
f4
fb
fd
19
f3
06
01
fc
f2
f4
00
02
0c
01
12
00
08
0e
ff
02
03
09
06
06
12
10
f7
fc
05
fe
f3
0c
0f
fa
fd
f5
fa
07
00
ff
07
00
08
f4
f6
f7
fd
10
fa
f6
03
03
08
00
fa
00
fd
00
03
00
f4
15
f4
02
07
fc
06
f5
0c
0b
fe
02
0f
f8
02
f8
f9
f5
fb
0d
01
f2
f0
06
0a
00
f1
f2
06
0d
fd
12
fa
14
00
07
02
01
07
03
0f
fa
ff
fe
fd
05
fa
ff
0b
00
f5
0a
03
09
00
f3
f9
f6
00
f9
09
00
05
07
fe
18
04
f7
fe
00
fe
12
f8
fd
f8
0b
10
fe
fc
ff
01
ef
ff
06
05
fc
02
f9
fd
fa
06
00
00
f7
0d
07
00
03
01
03
fc
fe
16
ff
f0
fe
06
07
0a
fa
00
04
fb
04
00
02
0d
05
f4
fa
11
16
0c
06
f4
00
02
fa
02
ff
16
01
f5
fb
fd
01
fb
ff
f8
16
08
00
03
04
0c
0d
00
f5
fb
01
20
18
00
f8
f6
ff
0c
f9
f8
f7
f8
01
0e
01
04
02
12
fc
00
1c
f7
00
fa
0f
07
0f
fa
10
02
0e
04
f3
09
00
02
00
06
02
06
ef
01
00
f1
0f
0b
f8
f5
fb
03
f3
ff
ff
ee
01
ff
0e
00
03
01
f6
15
01
05
f4
ee
f9
0b
f8
05
06
0a
00
fe
f9
05
ff
ff
fa
fc
19
ff
07
09
f7
f8
01
00
17
ef
01
fb
fe
ef
f9
f9
04
0d
04
02
fe
02
fb
f9
07
0c
04
f9
02
01
04
03
f9
02
fd
ff
00
07
fe
fc
fc
fc
09
03
01
0c
f9
ff
0f
01
06
03
03
f9
03
f4
f9
00
13
f3
fb
01
0d
00
ff
fe
ff
02
03
11
ef
0a
06
09
02
f0
02
01
ff
fb
09
05
fb
fd
00
f6
f7
f3
04
13
f7
04
ee
0a
03
f0
01
0d
00
ff
f8
01
f9
f7
00
07
10
02
08
ee
02
03
fc
06
f8
ea
08
01
00
05
00
00
07
09
03
01
07
06
f0
ff
08
ff
02
00
08
fd
09
fa
0e
f8
ff
ec
01
01
02
00
00
0b
ff
0d
00
fd
f9
0c
ed
01
08
08
fd
f3
02
f4
02
ec
03
f2
00
0c
02
fa
0c
08
02
f6
ff
05
0b
05
fd
03
09
01
ee
fc
0f
02
0c
07
09
02
ff
0a
f5
00
10
0f
fb
01
fd
0f
f4
15
fc
06
04
06
03
fb
fc
0a
fb
09
0f
ff
00
f9
0b
08
f0
01
00
08
04
ff
0f
0d
fb
01
09
05
07
fd
08
02
f4
0f
fc
00
09
07
03
0e
f1
f9
00
10
0a
00
fa
0a
0c
fa
f7
fc
06
ed
15
14
02
ff
fe
0f
ff
ff
fe
00
0a
01
fd
05
0d
03
0c
07
f6
fe
08
04
02
06
ff
fd
05
03
f7
0b
0e
0c
f9
10
0f
ff
0b
0b
00
0a
0a
ee
07
01
fc
02
fe
0a
0d
fe
f1
02
12
f4
ff
f7
01
05
ff
fc
02
13
03
ff
fe
12
01
18
03
ed
03
00
00
16
0c
ff
07
f0
01
fc
13
0c
f9
07
07
f1
0c
02
0e
0c
07
08
09
14
f8
09
fa
02
08
05
09
fd
01
02
05
fb
04
0c
05
06
ed
f0
06
0a
01
fd
0b
ec
0c
0a
0b
00
00
00
0a
0e
fe
16
06
02
1a
0a
ed
03
0c
00
f6
07
09
08
f6
f7
15
10
05
01
13
15
fe
05
fa
fe
fe
04
09
06
09
ff
f8
04
04
0c
00
05
fe
0b
04
0d
03
06
fb
16
f5
ed
02
11
05
f8
ff
02
0e
f9
fc
00
12
0a
f6
02
04
f8
03
ff
08
04
10
1d
05
f1
05
fb
01
0b
12
09
fe
f5
f8
08
03
fd
09
01
0c
fd
f5
00
00
0a
ff
07
06
0c
00
00
03
f8
fe
fc
00
12
0d
0e
ef
0a
fa
00
19
0d
10
0e
04
ee
ff
e7
0e
0f
08
fd
00
04
08
f8
f1
0f
0f
06
06
03
00
0e
fc
07
09
02
08
0c
0c
00
fb
fb
01
f6
13
05
01
0f
13
0a
07
fc
01
0e
0b
02
01
0e
f7
04
fb
0e
ff
0b
f7
01
02
fa
15
f0
fb
11
fa
ff
0c
02
0d
02
07
0b
0f
02
fc
0c
fe
fd
03
0b
10
05
fd
06
f8
0e
02
03
03
fb
05
0c
ff
00
0b
f4
fd
15
ec
fe
03
01
fb
00
08
fd
fb
1b
0f
0a
0d
ff
04
ee
fe
f4
11
fe
00
0d
10
fc
fe
09
03
fe
06
02
01
e8
fd
08
16
07
09
f9
02
07
01
0a
07
05
ff
05
00
00
ef
fd
02
02
06
f1
ff
03
0a
0e
f9
07
fb
f9
0b
f5
16
11
01
fb
04
01
05
11
fd
f8
0c
0d
ef
f3
03
fa
ff
fe
fd
02
02
fe
00
03
fd
02
fb
01
fe
12
03
0b
0a
08
04
fc
fe
f0
0e
f7
0f
f8
f6
01
03
fa
0c
0c
ff
0b
07
02
fc
fc
04
f6
f3
0a
04
13
10
00
f5
17
0e
fa
f3
ee
fe
0d
08
05
ff
01
09
06
00
f6
04
06
fd
ed
00
f8
08
15
0f
0f
03
ea
ee
0b
02
0d
06
01
11
11
0e
0c
f5
01
02
ff
03
f8
04
f4
fc
01
fb
02
11
05
fb
f3
f8
14
10
08
fd
05
f7
ec
06
f9
05
00
0b
0a
05
0b
fc
06
0a
ed
fe
02
09
06
02
05
eb
06
00
11
10
ea
f5
07
0a
04
0b
02
0a
e8
f1
0c
fd
02
06
fe
f6
04
08
e9
ff
0a
fa
02
0d
0e
0a
fe
00
13
07
eb
09
0c
ec
12
fb
08
fe
0b
fd
0a
05
14
02
fc
f5
14
08
07
fe
f6
16
07
07
02
fd
fe
04
fa
f8
00
10
00
07
02
f6
01
f9
03
09
fe
09
13
fe
f3
ef
0d
0d
02
e9
f8
03
04
0d
e7
03
ee
06
03
17
f4
09
01
00
00
06
ff
fc
03
ec
00
f4
fe
0f
fe
05
03
03
01
ea
0e
0f
0a
08
07
ff
02
f6
e7
f0
0e
04
f3
01
0d
f1
11
14
01
05
fa
04
fc
00
0a
02
0d
f9
f5
02
fc
0e
fe
f9
fe
01
fd
0c
03
12
f9
f9
02
fa
00
0d
01
06
03
05
0a
0f
0a
06
03
f2
08
f4
f3
07
0e
fa
18
0b
00
f4
fc
03
05
fb
fc
05
04
07
fb
09
fe
00
09
00
f9
0c
12
00
0f
f7
06
09
0e
f7
0e
17
f9
0c
10
03
00
ff
01
f8
fd
13
ff
ff
03
06
04
ff
f3
0a
01
fd
ee
0b
f8
f3
0b
04
fd
ff
fc
f4
fb
0c
fa
00
13
fe
00
f4
19
00
08
10
13
09
06
f6
08
f3
12
05
03
ff
06
fd
f6
07
0d
ff
02
fd
fc
0f
03
04
00
13
02
09
06
08
07
09
01
04
08
06
02
f6
01
f7
00
05
04
fe
05
fd
02
ff
0d
fc
fc
ed
02
02
f8
00
fb
ff
15
0b
00
05
f3
12
06
03
06
f9
0d
ee
05
0f
fe
f9
0f
11
0b
05
00
0d
f8
00
ec
f4
10
f7
00
09
03
0b
09
06
05
03
02
04
04
fc
01
00
fe
09
03
0a
0a
ed
0b
09
0a
00
00
fb
0f
08
fd
05
09
0e
fd
fd
18
06
01
04
13
04
07
f4
f8
02
03
03
02
10
0d
10
f1
fc
09
10
07
08
f5
f6
02
01
04
00
11
01
fe
01
fa
0e
0b
03
f7
13
fe
03
05
04
06
13
fd
f1
fc
fc
16
0d
00
00
09
05
0b
f5
f8
f4
ff
01
12
0f
05
0b
08
ff
01
13
f4
08
fb
0f
09
0b
fd
0c
fb
08
03
00
07
01
01
00
02
05
07
fe
fd
00
f3
0c
02
f5
f7
09
ff
fd
02
06
e9
ff
01
04
01
ff
fd
f5
11
02
02
03
0a
fe
07
fd
03
0d
08
01
0b
0c
05
04
f5
f8
01
09
00
02
00
f8
fc
03
00
11
ed
00
fb
fc
f1
f7
fe
0d
11
05
07
00
fe
06
f7
06
0a
01
08
02
fe
09
00
f8
05
f9
01
01
04
fe
fd
ff
ff
06
02
01
08
f9
f6
19
01
01
02
02
00
02
f4
f8
12
11
f0
0c
f8
11
09
04
ff
04
fb
01
07
f3
fe
fd
07
04
f3
01
1c
fb
fa
05
09
f7
0a
01
f9
f5
ee
07
13
f6
07
0a
10
0c
fc
05
0a
03
f5
fe
05
ff
f4
fb
0a
11
07
fa
fb
fe
ff
ff
0f
f9
fe
08
03
05
07
00
00
03
06
ff
01
f3
04
fa
00
08
03
fd
01
00
ff
f2
0e
0a
12
06
00
ff
01
e9
f0
ed
16
02
01
fd
0c
fb
06
0f
01
00
fc
04
05
01
00
01
0e
ef
ee
01
fa
11
ff
01
01
01
09
06
00
09
fe
f6
05
fc
00
05
fa
08
ff
0a
08
0f
03
04
05
f1
10
f9
fe
0a
09
02
12
05
f9
ff
fa
00
08
01
06
0f
06
06
01
06
ff
00
0b
02
f8
01
16
00
0d
f8
0f
00
06
f3
10
00
f3
05
01
02
01
01
f0
fc
f4
12
03
ff
09
00
f6
ff
fc
0a
00
f7
ef
10
f1
ef
08
03
02
f7
f1
f6
01
0d
f9
05
10
f9
00
fa
1c
01
09
08
02
fb
0d
f3
0e
f4
0f
04
06
00
05
fb
f3
09
fa
ff
f3
fc
ec
05
00
fd
04
0b
07
08
05
09
fd
09
03
05
07
fc
fb
fb
01
e9
06
08
04
02
fb
fc
fe
09
03
f0
f9
eb
03
03
f3
00
00
01
18
08
05
f5
f9
0e
06
03
fe
fc
f9
f9
07
12
fd
01
0e
06
0c
09
fc
05
02
f8
ef
f0
fd
f4
ff
02
fb
02
06
04
02
07
0a
01
05
07
fe
ef
05
03
fa
fe
00
e9
f6
00
09
00
00
07
18
07
02
05
10
fe
fd
01
0c
04
f1
fe
04
04
03
f7
f8
06
f8
ff
01
f7
03
fe
fd
ef
05
0d
0d
fa
ff
01
04
f9
05
ff
01
01
f6
f9
03
00
f1
00
f9
12
fb
02
02
04
fc
0c
fd
f8
f9
f4
16
16
00
fe
fc
04
05
ff
f4
f4
f6
02
22
f3
15
10
02
06
06
09
ff
04
fd
04
05
0e
08
17
f4
0c
06
f9
05
01
fe
00
05
04
08
f5
04
00
fc
04
f7
f5
f5
01
13
fb
f6
04
f0
00
00
09
07
04
f6
fe
0f
02
06
f9
f9
f3
10
06
01
00
09
fd
f6
f4
fc
0e
f6
f6
fd
ff
f5
08
06
03
06
f4
00
12
f6
01
fc
02
fb
f7
09
f4
13
07
06
00
ff
06
f9
06
02
05
00
0b
00
ff
02
f9
00
fa
10
ff
03
01
fa
00
00
02
02
08
15
fb
f0
08
00
07
05
01
ff
02
fb
03
0b
08
f4
fd
f1
03
0c
00
01
03
f6
01
07
ff
0a
fb
00
00
f9
03
0a
ff
f9
fb
10
00
fb
0d
fd
fd
fd
09
18
f6
0c
f6
12
fe
f0
04
0a
01
f3
f7
0e
05
f8
fa
0a
0c
0a
00
f1
01
0e
fb
07
fb
f1
f9
00
03
00
00
00
fc
f8
05
00
07
fe
fd
fe
fd
fb
05
01
03
05
0d
fc
06
ef
05
f5
05
00
10
13
09
02
10
18
08
fe
08
05
f5
01
0d
05
01
09
00
fb
1a
f8
06
0b
ff
10
ec
05
0d
f2
00
07
fa
01
16
08
02
05
0d
01
f4
fe
fb
fc
02
0f
0b
01
02
fe
03
00
04
02
fc
f6
fc
06
f9
15
05
06
03
f6
07
13
f7
fc
f4
04
00
01
00
fc
01
07
f3
f8
00
03
0e
fc
10
0f
08
f6
fe
0b
f9
fe
04
01
0e
0f
fa
06
01
fd
02
ff
f4
fa
08
08
01
04
0e
16
05
04
fb
fd
fe
0c
0d
0e
0d
0c
fd
04
fe
f5
09
00
05
00
00
0d
01
00
09
f9
03
f7
03
ff
03
05
fc
fd
08
0f
ee
02
06
0c
02
0b
07
fd
0c
03
f4
fc
0c
f7
fd
fa
ff
01
fc
00
02
05
09
01
10
03
ff
f2
02
0b
fd
03
fa
0d
06
08
0f
f1
00
1f
fc
04
04
06
f6
ff
06
09
f6
f8
00
ed
15
09
0f
f2
01
00
05
f6
fe
09
f8
fb
0f
03
fe
0a
10
07
0a
07
f8
03
05
fc
f6
ff
10
f9
03
fe
02
f8
07
00
06
01
0a
f5
12
0a
ff
f9
00
00
f7
f6
05
ff
f8
fe
01
00
0b
fc
fc
0a
1a
03
f9
f0
02
1b
f9
03
01
ff
fc
fe
10
05
0e
13
fb
f1
07
f7
ff
00
13
fe
02
f9
01
11
12
f9
06
0b
ff
05
fb
01
0c
09
00
f3
03
0d
f9
05
fe
00
00
00
05
03
00
02
05
0f
00
11
00
f8
0b
ed
f8
0b
06
09
01
01
fb
ff
0a
0a
05
f9
f3
12
00
00
ff
08
03
07
00
f2
03
f9
08
ec
00
04
07
15
fc
ff
09
e8
ed
fc
16
00
07
01
04
f5
01
02
fe
0a
04
11
03
04
0e
ff
02
02
0a
03
05
09
09
ed
fa
17
fe
ed
0a
0d
f6
ff
03
fc
00
00
09
12
04
11
f0
ff
f0
f2
07
fb
fa
00
02
ff
00
06
03
f8
10
fe
02
ef
1e
f0
f9
07
fa
fa
f6
18
09
01
06
1b
ec
03
00
f7
ea
04
fb
01
f3
fa
0a
15
01
00
00
02
0a
01
0c
06
12
fe
03
07
01
11
02
fe
05
0b
fb
06
0e
0b
ff
05
fd
ed
07
00
04
fe
f5
fc
e9
04
f6
0c
02
0b
01
00
0f
04
f8
05
fd
02
0f
01
f9
0b
06
0a
03
f9
06
0e
f3
ff
04
fb
fb
10
fb
f9
f8
ff
00
00
f9
f7
04
ff
fd
03
11
00
f3
f9
0d
03
0d
12
fb
09
fd
02
0a
19
02
01
0d
ff
0b
fa
04
fb
12
05
03
f9
15
ff
0c
00
02
0c
ff
0c
08
0e
09
05
02
fb
fc
08
fa
f4
00
0a
06
07
fd
0b
03
0e
0d
00
17
07
f1
fc
f8
fe
fe
03
0a
01
07
ff
fd
03
03
03
fa
f8
0f
f8
ff
08
0b
fa
0d
00
fc
f8
06
01
f8
06
01
0b
fd
fd
0d
03
00
f7
0a
fd
fb
fe
12
04
00
05
fb
0d
fd
00
0c
fa
00
02
f9
05
01
05
19
06
04
00
f6
06
19
03
f8
0a
08
09
f7
04
f8
fa
07
02
07
fa
fe
06
03
00
01
fc
02
fd
ff
ff
ff
f7
09
fe
fa
00
ff
fb
02
05
01
ff
ff
03
03
f8
06
f9
fb
03
fc
05
08
f8
02
15
fc
09
0b
00
01
01
fe
07
14
00
f9
0a
01
02
04
02
fe
13
fc
fd
0d
09
0d
ee
02
07
01
07
fe
ff
ff
f9
06
0a
f6
03
01
04
fc
fd
01
fd
fb
13
f7
fb
fb
f8
f9
04
fd
fc
07
02
0a
04
fa
09
f9
04
02
12
fe
08
00
ff
12
00
13
0c
fb
01
02
11
fe
13
fd
12
f7
02
00
00
04
f4
ff
ff
f6
01
fe
f3
fe
f8
02
0a
13
04
f5
f8
fe
f7
05
fa
0b
01
0a
f6
05
17
17
00
00
f9
06
1b
f1
01
11
ff
01
00
02
ff
16
ed
00
0a
03
01
f3
fe
f9
fa
fc
fa
04
08
14
0e
07
fb
00
00
fd
09
ff
ff
06
0b
0e
0a
00
fe
0b
fa
02
f9
f8
fe
f9
12
fe
03
00
0c
01
11
fa
0b
fb
ff
00
06
05
ff
00
f6
ff
fa
fe
00
00
0f
08
02
0a
0a
fd
03
17
0d
09
03
02
01
f4
fd
f0
09
09
fe
02
0a
ff
02
0e
05
fe
00
08
fe
fb
0d
0d
f9
ff
fe
02
fd
0a
14
fc
05
f6
03
16
00
fb
08
fd
03
08
01
0c
06
0b
f2
f7
07
04
0b
0a
fd
05
02
f3
1e
08
fd
06
03
0d
03
05
0e
fb
f9
17
fa
fe
0d
f8
01
f8
02
05
09
0b
02
04
ea
01
fb
01
f9
f0
06
fa
10
0e
04
11
f8
07
06
04
00
02
03
02
02
11
f5
ff
f4
02
fb
04
07
09
fe
07
02
fd
05
12
09
f1
04
0d
fc
03
f9
16
0e
f6
01
fc
06
08
02
09
f9
12
02
09
02
f8
fd
01
14
05
04
0b
fe
06
0e
04
01
00
00
0c
03
fa
11
f8
06
05
05
0d
03
fd
03
fb
fd
f7
0a
fd
08
04
09
06
ff
f4
04
01
17
04
06
05
0a
09
03
0f
ff
f6
fe
07
15
01
fd
07
11
e9
ff
00
00
fc
09
05
ff
ff
13
fb
02
fc
03
04
fd
fc
00
ff
fa
f8
00
0f
09
10
01
09
fe
fe
0a
fd
f8
05
fb
05
11
fc
04
09
f9
fd
0a
fb
17
1b
00
05
00
02
02
00
0a
fb
fb
04
16
00
0e
fc
0e
06
02
f1
14
f3
04
fa
fb
01
00
0a
ef
01
01
10
fa
00
02
04
ef
03
00
09
02
fa
f3
05
00
02
0a
05
1b
ff
eb
03
0c
0d
ff
05
16
fa
00
f2
1f
02
0b
02
fe
ef
06
fe
ff
fc
04
01
12
00
07
ff
01
03
f9
fd
eb
04
ef
fb
fb
f8
03
19
ff
08
04
04
07
07
00
08
02
f4
fc
00
00
ee
04
05
ff
03
f2
05
f7
0d
fe
ee
08
fe
00
01
fc
01
1a
ff
0f
10
01
f3
0b
01
0c
03
f1
01
ed
0b
fb
0b
08
06
14
fd
0e
f9
f8
07
07
f4
f6
ff
fc
f9
ff
f3
04
01
09
05
fe
13
f6
f6
05
19
fd
ed
05
01
f6
00
fd
fb
f1
f1
fc
00
00
08
f8
fe
19
02
07
fc
12
fa
f2
00
fe
ff
fd
fd
f5
01
05
fd
fa
05
00
f6
01
10
0f
10
08
04
f6
08
07
04
00
04
03
02
04
01
08
12
05
fa
fe
ff
08
e5
06
05
f4
fb
fa
f8
18
02
1a
06
fa
07
00
fb
f8
f8
fa
0c
11
0b
ff
02
f6
00
01
04
fb
03
fe
f3
07
ee
06
01
08
00
0b
00
17
fb
fb
00
01
fb
05
00
f5
fc
fe
fd
ff
00
18
08
0d
09
08
01
01
fb
04
f3
07
02
01
fe
f3
01
04
0e
ff
02
07
fc
f3
08
03
fe
02
09
0b
fc
fe
04
f3
02
1d
03
f6
14
08
fc
10
0c
09
f9
00
f7
13
01
0c
fa
06
f8
07
fb
f1
fe
01
00
0d
08
09
03
01
01
00
07
f3
01
f9
fb
fc
01
0e
05
01
12
fe
02
11
f4
ff
fe
02
f4
08
03
01
f2
07
03
02
01
fc
0d
f5
f6
01
fc
0c
08
f7
01
0d
01
1b
00
00
15
03
fe
0a
f6
10
01
e5
07
f2
08
f0
09
fe
fe
12
fb
14
ee
fe
0b
08
f7
05
13
02
fb
03
f0
0d
06
0f
09
07
0e
f7
f6
fd
11
fa
f1
12
02
f4
02
06
fe
02
f1
f3
00
00
f3
f8
03
04
0b
f6
07
07
0a
09
fe
10
06
f9
0b
f5
10
11
ff
00
00
02
01
0a
fb
01
13
08
ec
f2
05
fd
fc
00
09
05
01
fb
01
0e
07
ff
ff
0d
00
17
fd
09
0c
0c
04
fb
00
ef
0d
f6
07
f1
f0
01
08
07
0d
0a
ff
0c
04
0c
fe
00
0d
f0
f6
05
06
11
06
fd
00
0e
08
f8
f5
f3
f7
0e
00
04
05
01
0d
03
00
f6
05
09
0b
ef
00
f9
01
17
0d
0c
0e
ea
fe
04
0c
0c
06
01
05
0e
05
07
f9
f8
01
fd
08
0a
13
f7
01
02
fb
fc
12
0a
0b
f4
fc
0a
0d
0a
f6
0c
f5
ef
06
f7
0c
00
0c
05
04
08
fa
05
04
f4
0c
02
0a
03
02
02
f8
05
01
09
0d
f8
f7
0a
15
07
0d
09
09
e8
f6
09
fb
01
07
01
f2
03
05
e5
01
0e
ff
02
0b
01
0b
09
00
0b
06
fd
06
0a
fb
0d
02
0a
fe
0b
ff
06
03
09
ff
f9
f8
09
0a
05
fe
08
15
06
05
00
00
05
fe
fb
f6
04
12
fd
05
03
0d
04
06
14
0b
fb
0a
11
0d
f4
f3
09
0d
01
f4
fd
06
0f
0c
ee
08
fa
06
0b
17
fa
0d
05
00
00
0d
0b
05
fe
f5
04
02
04
01
06
01
fc
f6
fd
f0
04
f9
09
fd
f8
fe
01
f6
ef
ec
06
f2
f1
f6
02
f6
02
0c
01
f2
fb
05
fd
01
0b
f1
07
f2
fa
02
ef
0a
fe
fa
fe
02
fa
0b
00
f3
01
fa
03
f2
00
12
06
03
0c
02
f7
f7
01
01
0c
fd
03
fa
f8
0c
0d
02
09
0b
f0
02
fb
fd
0a
f2
ef
16
06
11
00
05
02
00
03
05
fb
0d
12
00
01
f3
07
f5
f8
f8
09
07
fb
0c
08
fd
ff
fc
f2
fc
f8
03
00
02
fb
0c
0e
fa
fc
02
02
f9
eb
fc
fc
fc
02
08
02
f1
f4
f3
f6
05
fb
09
17
fa
00
02
0b
03
f7
04
0c
fe
07
fd
07
fb
05
02
01
05
07
fc
f0
12
02
fd
fa
01
f2
f9
05
fc
02
16
00
fb
08
05
0e
03
01
0d
01
00
04
f5
00
f0
fc
06
0f
01
00
06
01
06
f0
f8
fb
ea
07
03
ea
04
02
fc
fd
12
03
f6
f7
0d
0b
03
0e
ec
fe
f4
09
06
02
ff
18
04
fd
08
09
f9
f5
06
ed
ee
01
f5
f9
0f
03
ff
ff
0a
06
f1
0c
f9
08
ff
0c
f6
09
02
ff
f9
10
ee
f8
09
03
00
00
f3
fc
fc
fc
03
fb
00
0a
ff
fc
0a
0c
fa
00
03
0c
0f
ff
0a
0d
f9
01
07
fe
eb
fb
ff
01
06
0e
f5
fe
13
fe
fc
03
03
ff
00
01
01
0d
03
f4
00
12
00
08
05
fb
05
02
fd
f6
13
fa
05
02
08
01
05
fc
09
fb
02
0c
09
02
05
03
ee
11
fd
fb
0a
07
fa
f8
0d
19
ee
fb
04
f1
0e
fb
f5
01
fe
fd
06
00
00
0d
00
0c
06
06
00
fa
f6
fa
12
12
0e
fd
fd
03
f9
09
06
00
14
19
0c
00
fb
f5
00
f4
18
fe
01
fa
05
02
f8
02
03
f5
f0
0f
fb
fa
10
11
f2
00
0a
f5
01
00
fe
00
02
fd
03
0b
0b
0c
09
f5
f3
08
08
06
00
fc
ee
05
ff
0a
fd
f6
f9
17
f7
0d
03
fd
0e
e9
03
fb
06
10
01
f8
0a
00
08
ff
07
04
fb
03
0f
1d
01
fe
01
1d
07
02
f6
10
f4
08
ed
ff
fb
09
ff
f6
03
04
fc
f7
01
0c
ff
03
00
02
1d
07
f3
f4
03
fd
01
fa
05
06
0e
f7
0d
05
01
01
ea
09
0f
02
fc
06
06
0b
f5
0d
09
ef
fc
00
05
08
19
ec
04
05
0e
07
07
0c
05
04
00
00
09
00
06
12
05
0d
ed
1b
fb
f2
0f
f2
fe
fd
00
f7
ff
0a
02
fc
ff
01
06
01
fd
fd
f0
f8
03
f9
fa
0a
07
01
fe
05
00
f5
00
02
fd
04
06
f2
ff
02
f5
04
fa
f8
03
f7
f8
14
00
18
03
ff
05
00
f7
fd
f3
01
00
f9
fb
f8
06
fc
f5
07
14
02
08
0a
f1
f6
f2
fc
f4
0a
00
08
0a
f0
02
01
06
fd
fc
03
00
fb
03
06
00
ff
00
02
06
f7
fe
00
0e
03
08
0a
f6
11
00
01
fe
05
0b
09
fb
05
01
03
ff
f7
f2
14
fd
fe
05
0b
ef
fc
f3
f9
07
08
fb
06
02
f1
fc
11
19
0a
ff
00
07
0a
02
f2
0e
17
0e
0b
f1
f8
03
f3
fe
fd
0b
0c
06
07
ff
09
0e
10
00
09
fd
ff
06
0f
ff
f4
07
00
fb
0a
f8
01
0f
06
10
0e
f8
01
02
04
fd
ff
00
11
15
fc
f4
03
09
08
02
fb
00
00
04
05
00
ef
12
fc
15
00
fa
10
ff
f0
fd
05
f8
00
00
ed
0c
0d
0c
fb
fb
08
01
04
f7
0c
fe
fb
0a
04
00
15
f4
10
06
0c
f3
07
02
00
00
03
0d
0e
ff
f9
03
01
01
08
07
f1
00
00
08
01
01
fd
f7
03
07
f1
fd
f8
09
09
14
0a
f4
06
05
ef
01
02
ff
01
fa
ea
00
1b
00
f7
08
10
f6
0e
01
00
0b
fd
02
fe
01
01
12
06
03
04
03
03
01
fa
fc
f7
ff
08
08
04
15
01
f5
08
07
00
05
04
fe
f8
0b
09
0f
08
03
03
00
05
fc
f6
fe
fc
f8
15
04
04
f1
08
0c
0a
02
ff
f8
00
08
06
04
fa
00
02
fc
fa
00
0e
00
1a
fd
f5
08
0c
f9
18
21
f7
06
f9
00
01
f2
fa
f5
fb
07
fe
04
02
00
05
05
fd
03
01
fd
fd
00
fb
ff
0b
04
ed
06
fe
fb
05
0d
03
f4
ff
00
00
f5
06
fe
0e
16
00
08
05
fe
fb
f6
11
02
05
0c
fd
00
f6
ec
14
0a
02
f7
fe
0c
ff
05
0a
06
fe
19
06
01
06
06
00
f4
0f
0b
f8
02
02
f8
fc
fe
fe
03
f1
f7
09
fa
09
04
f4
f4
fb
06
06
02
eb
00
09
02
ff
0b
ef
fe
f4
02
02
fd
06
f1
fa
0c
07
fd
00
14
10
fb
fb
0e
03
02
f8
09
08
f6
08
f9
f2
11
ff
0c
f8
09
fa
15
0b
f8
fc
f9
11
00
0d
0a
fb
f2
14
01
09
00
00
0d
02
fe
15
08
08
fe
1b
ef
fe
10
f0
f3
f6
01
fd
fe
01
08
fe
03
03
08
0d
ff
fc
f8
f9
00
fe
03
05
07
01
f1
02
03
06
01
ff
f9
08
ff
ff
02
ff
f2
14
f8
f6
02
03
f8
07
01
17
0e
f7
05
00
fa
fd
f6
05
01
f9
00
f1
02
07
fd
15
07
f7
09
ff
fe
02
f4
fa
01
fe
fc
08
05
ff
0e
02
03
ff
fb
03
00
02
ff
07
fe
0c
00
01
0d
00
03
01
fd
0c
0b
16
e8
14
fe
01
15
0e
0f
0d
ff
f5
ff
f6
ff
f3
f4
04
ff
02
04
00
f2
07
01
01
05
0c
fe
04
06
03
03
0b
15
0d
0a
00
fd
04
03
f1
16
11
09
11
01
fc
05
f5
02
08
08
0b
04
14
00
03
04
0e
00
0d
fa
fe
00
06
0c
ed
fe
06
fa
00
ff
02
0f
02
0b
13
fb
02
fe
06
ff
fc
02
11
16
f1
fa
ff
f5
1c
04
fd
02
00
02
0c
00
f9
15
fc
07
0c
ef
0b
02
eb
ff
ff
0e
fe
00
ff
06
0f
13
07
f9
f6
02
fb
f2
03
04
fa
0b
ff
ff
0d
f0
0c
08
0c
f9
f3
f3
04
0d
fe
0e
06
00
f4
04
f9
05
01
03
fb
00
00
