00
00
ff
00
00
00
ff
00
ff
fe
00
fd
01
fe
fd
07
fc
f7
03
02
00
03
02
00
01
01
00
01
ff
fc
00
fd
fd
00
01
01
fe
fe
fd
fd
ff
00
fb
ff
03
02
00
01
fd
fa
fd
ff
ff
00
01
fe
fc
fe
fa
f9
fd
fa
ff
f9
fe
00
fd
00
00
fb
00
02
fe
00
ff
02
fd
ff
00
01
fd
03
01
ff
01
01
ff
fd
00
02
01
02
01
04
04
ff
06
ff
f9
03
01
01
01
04
07
04
04
05
01
01
03
fe
03
06
09
08
05
fc
00
01
fe
05
05
04
00
fe
03
03
02
03
01
00
04
05
03
02
02
ff
05
04
01
09
02
fa
03
ff
00
fc
fc
fc
f7
fc
ff
fb
fa
fd
fb
fa
fc
fa
f7
f6
01
00
fc
ff
01
00
01
02
02
01
ff
02
03
01
01
fb
fc
01
f5
ff
08
00
0d
05
04
08
06
fc
fc
f9
fb
f4
f7
f7
f8
fd
00
04
07
01
08
07
08
0a
ff
03
02
00
05
03
ff
01
01
ff
02
fd
ff
ff
00
02
00
fe
00
01
00
00
00
fe
fe
fc
00
00
01
00
00
ff
fe
fe
fc
ff
ff
ff
ff
01
f9
ff
ff
fb
04
07
02
03
01
03
02
05
04
05
03
01
00
ff
ff
ff
00
fd
fe
fe
01
ff
04
fd
fc
02
f7
fc
05
00
ff
fd
08
04
ff
08
fe
f9
01
fe
fb
fe
fa
fb
f9
fb
ff
01
ff
00
01
02
03
06
02
ff
f9
fc
00
fb
06
0a
06
07
08
01
02
fd
02
01
fd
00
fe
fb
00
00
00
fb
f8
f8
f9
fb
ff
02
02
00
04
02
ff
01
01
01
00
fe
01
fd
fe
fd
f9
fc
fd
00
02
02
06
03
fe
01
ff
ff
fe
01
01
ff
ff
ff
fc
fd
fc
00
00
fe
02
06
02
06
02
fd
02
fc
fc
fd
00
00
01
05
06
f4
fc
fc
f6
fb
fe
f7
f7
fb
fd
fe
fd
f9
fb
f7
f8
fa
f9
03
01
ff
01
fe
fe
ff
fe
fe
ff
00
01
09
06
02
09
01
fb
03
02
ff
02
03
01
ff
04
03
03
04
01
fd
01
f9
00
ff
f5
fe
03
02
01
02
02
fe
fe
fb
fc
ff
01
00
06
fe
06
ff
fa
03
02
01
02
01
00
00
00
01
00
00
fc
fb
f9
fb
f6
f7
f9
02
02
02
02
02
01
ff
00
ff
03
02
00
03
01
ff
01
01
00
fd
01
ff
fd
01
01
fe
01
04
ff
ff
fd
fe
fa
fc
f9
fd
ff
01
fd
03
00
00
01
fb
fe
05
ff
00
02
ff
07
08
06
0a
04
03
01
01
01
01
04
fd
ff
03
01
fc
fc
ff
fc
fa
fb
f9
fb
f9
00
fe
03
04
01
06
05
fb
02
02
01
02
02
00
03
02
00
ff
fb
fc
f3
ed
f4
f6
f5
fa
00
00
01
ff
00
00
ff
00
00
fe
fb
fd
fe
f5
fe
f9
f8
01
ff
ff
fe
fe
ff
fe
fd
fd
fd
04
ff
02
01
fe
00
ff
01
01
fa
fb
fc
fc
00
04
fb
03
08
00
01
03
00
00
0c
01
08
0a
fe
ff
00
00
ff
03
fd
fd
08
06
01
fb
fc
f8
fc
fd
fa
fd
f9
f9
06
f5
fa
00
fd
02
05
fe
ff
fd
ff
fd
fe
fc
fc
01
05
0a
07
05
03
05
ff
02
ff
01
ff
fc
04
01
fb
04
fd
03
f2
eb
ee
e8
f1
f7
fa
fb
fa
03
02
fd
02
01
fc
03
fb
fe
02
00
ff
fe
fe
fd
fe
00
fd
fb
fc
fc
fa
fc
fd
fe
fc
fb
fc
fc
fc
fe
00
01
fe
03
03
01
07
0a
02
07
06
01
00
00
00
00
fb
03
01
fe
01
fe
ff
fd
05
06
04
07
08
01
0a
0a
0e
0c
fe
0f
00
fd
01
f9
fb
00
ff
01
00
00
01
ff
02
03
01
0a
06
01
06
00
03
fb
fa
01
03
03
00
00
01
fd
fd
00
ff
05
fc
07
02
01
02
04
08
fd
fe
fd
fe
01
00
00
ff
fe
ff
ff
00
fd
fe
00
fc
fe
00
02
02
fb
05
fe
01
01
03
09
01
02
fe
fe
fe
fc
fe
fd
f9
fe
fc
fc
fa
f9
fb
fd
ff
fc
fb
fd
fb
fb
fd
fd
fe
02
ff
02
04
07
02
01
03
ff
04
07
fe
fe
00
fd
fe
02
ff
02
03
fa
00
fc
02
00
fc
04
fc
ff
06
0a
fd
05
06
fc
06
fe
01
f8
fc
ff
fb
fd
fe
fb
f9
fe
fc
fc
ff
f7
f9
fe
fe
01
fe
ff
02
02
ff
01
02
fd
ff
00
fb
fe
fc
fe
ff
ff
ff
02
04
ff
fd
00
fe
ff
01
fd
ff
fe
02
fd
fc
00
fb
fb
fd
fa
fc
02
ff
fa
00
f9
f8
fa
f2
f5
f8
f2
f5
f5
f9
01
fb
01
04
ff
0b
ff
0b
05
fb
0f
fe
06
fc
fe
01
fe
fe
02
01
fe
00
03
ff
ff
01
fd
02
fb
fc
01
04
06
06
03
03
00
ff
01
03
fc
fb
fd
fd
fe
03
fe
01
04
fc
fa
fb
01
fd
00
fb
03
01
fc
fb
f8
f9
fb
fd
fb
ff
01
05
ff
fe
00
f6
fc
fc
f9
fb
fd
00
01
fd
fe
01
fe
00
02
fc
fe
02
fa
02
03
fe
01
ff
01
fe
fd
01
fe
fe
fe
fc
fe
00
02
01
01
00
01
fe
ff
00
02
fc
f7
fd
f5
f4
f9
f3
f3
03
00
fe
00
f9
fb
01
fc
f9
ff
03
00
03
04
03
01
07
07
f9
fc
f9
00
01
fb
ff
f9
03
fc
fb
fb
fb
fa
fa
fb
fb
fc
00
06
01
0a
03
03
01
01
03
fd
01
03
0b
09
01
0b
01
01
ff
fc
fb
fe
f9
fb
fb
f6
fc
01
00
01
00
fb
00
fd
fc
fc
00
00
00
00
00
00
00
00
00
00
00
00
00
00
00
00
00
00
00
00
00
00
00
00
00
00
00
00
00
00
00
00
00
00
00
00
00
00
00
00
00
00
00
00
00
00
00
00
00
00
00
00
00
00
00
00
00
00
00
00
00
00
00
00
00
00
00
00
00
00
00
00
00
00
00
00
00
00
00
00
00
00
00
00
00
00
00
00
00
00
00
00
00
00
00
00
00
00
00
00
00
00
00
00
00
00
00
00
00
00
00
00
00
00
00
00
00
00
00
00
00
00
00
00
00
00
00
00
00
00
00
00
00
00
00
00
00
00
00
00
00
00
00
00
00
00
00
00
00
00
00
00
00
00
00
00
00
00
00
00
00
00
00
00
00
00
00
00
00
00
00
00
00
00
00
00
00
00
00
00
00
00
00
00
00
00
00
00
00
00
00
00
00
00
00
00
00
00
00
00
00
00
00
00
00
00
00
00
00
00
00
00
00
00
00
00
00
00
00
00
00
00
00
00
00
00
00
00
00
00
00
00
00
00
00
00
00
00
00
00
00
00
00
00
00
00
00
00
00
00
00
00
00
00
00
00
00
00
00
00
00
00
00
00
00
00
00
00
00
00
00
00
00
00
00
00
00
00
00
00
00
00
00
00
00
00
00
00
00
00
00
00
00
00
00
00
00
00
00
00
00
00
00
00
00
00
00
00
00
00
00
00
00
00
00
00
00
00
00
00
00
00
00
00
00
00
00
00
00
00
00
00
00
00
00
00
00
00
00
00
00
00
00
00
00
00
00
00
00
00
00
00
00
00
00
00
00
00
00
00
00
00
00
00
00
00
00
00
00
00
00
00
00
00
00
00
00
00
00
00
00
00
00
00
00
00
00
00
00
00
00
00
00
00
00
00
00
00
00
00
00
00
00
00
00
00
00
00
00
00
00
00
00
00
00
00
00
00
00
00
00
00
00
00
00
00
00
00
00
00
00
00
00
00
00
00
00
00
00
00
00
00
00
00
00
00
00
00
00
00
00
00
00
00
00
00
00
00
00
00
00
00
00
00
00
00
00
00
00
00
00
00
00
00
00
00
00
00
00
00
00
00
00
00
00
00
00
00
00
00
00
00
00
00
00
00
00
00
00
00
00
00
00
00
00
00
00
00
00
00
00
00
00
00
00
00
00
00
00
00
00
00
00
00
00
00
00
00
00
00
00
00
00
00
00
00
00
00
00
00
00
00
00
00
00
00
00
00
00
00
00
00
00
00
00
00
00
00
00
00
00
00
00
00
00
00
00
00
00
00
00
00
00
00
00
00
01
00
00
01
00
00
01
00
01
fb
fc
ff
ff
f8
fc
01
fe
fd
00
02
00
02
02
00
04
01
ff
fe
fd
02
00
01
fe
01
00
01
fc
02
04
06
fb
03
02
fe
03
fc
fa
03
fb
ff
01
0b
fe
03
00
fb
00
06
fc
00
0c
00
04
ff
fd
03
fb
fa
00
ff
fb
ff
ff
fc
03
fd
04
05
03
fa
fb
00
fe
ff
01
fc
fe
01
00
00
02
fe
05
00
00
05
fa
fa
fd
fa
fd
03
07
fe
00
02
fd
03
f5
fd
06
01
05
fe
03
fd
fe
01
01
ff
09
07
fb
ff
03
ff
ff
ff
01
01
fb
ff
00
fd
fe
01
fe
ff
02
f9
fe
ff
ff
ff
f8
fc
01
fe
02
03
00
03
fe
00
08
ff
f5
06
04
00
03
f6
fe
fe
02
03
fd
00
04
fd
ff
fd
fc
ff
fc
fb
00
ff
06
ff
04
fd
02
fe
06
03
02
06
ff
fe
ff
04
00
00
06
0c
fd
00
ff
05
01
03
03
fe
fa
00
fa
fe
fe
ff
ff
ff
fd
00
00
fe
ff
02
fe
01
04
fc
fc
06
fc
00
ff
ff
00
00
ff
00
00
fd
fd
00
00
00
01
00
ff
ff
ff
fc
fd
ff
fe
f9
fb
00
ff
ff
fe
fc
04
06
fd
fe
02
fd
fe
fe
ff
02
01
04
fe
00
ff
00
ff
fc
fe
ff
fd
00
07
01
ff
02
ff
05
fc
00
06
00
fc
ff
01
ff
01
f9
f9
00
01
fd
ff
fd
fc
ff
07
fd
fe
fe
fe
fd
fb
03
04
05
00
fc
fc
06
ff
02
01
ff
05
02
fd
08
06
fe
fd
00
02
02
03
03
04
00
fb
00
00
ff
01
ff
00
02
01
00
fb
01
ff
f8
fb
03
04
0e
00
04
fe
00
fe
fe
ff
05
ff
00
fd
fe
ff
fc
fe
00
00
01
00
ff
00
04
01
00
ff
fd
f8
fb
fe
ff
07
01
ff
01
08
fc
01
fc
fe
04
f7
fa
fe
06
03
fe
04
00
02
fe
05
03
0b
01
02
fa
fd
ff
ff
00
00
fe
fc
fd
ff
02
00
f9
fd
01
fe
ff
f9
fe
ff
fd
fd
00
fe
02
00
fc
01
02
09
ff
02
07
0a
fd
04
fe
07
f4
02
00
fa
f9
08
f9
f5
f7
f8
f6
f8
fa
fc
f9
f9
00
00
01
00
ff
01
01
01
ff
00
ff
02
ff
0a
00
01
01
fc
fe
ff
00
ff
00
00
01
00
00
ff
ff
fe
00
00
fe
02
00
fd
fe
fe
00
fb
fb
fc
fd
fa
fb
fd
ff
02
02
01
02
02
ff
fd
01
fd
fe
02
fc
fe
03
01
00
ff
05
03
02
ff
02
01
06
fb
ff
ff
00
fe
fd
03
04
fe
01
fc
fe
fe
fe
05
fb
00
0d
fb
02
ff
03
01
01
fa
06
02
fa
fc
fc
fe
fd
fd
fd
00
fc
fb
fa
fe
00
fc
03
fe
02
fd
f7
00
00
01
00
00
00
00
00
00
03
05
02
05
09
07
03
08
0a
ff
fe
ff
fe
fd
fe
ff
ff
ff
00
00
ff
fd
fe
ff
02
00
ff
ff
01
03
ff
00
fe
02
01
04
00
fe
02
00
ff
02
08
06
07
02
04
02
fc
03
03
fa
05
05
01
04
fe
fc
fe
fc
01
00
fb
f8
f5
f9
0f
0c
0a
ff
fc
fc
00
00
00
fc
ff
fe
ff
01
ff
fb
f9
f9
01
02
00
0b
08
05
ff
fc
fd
05
04
00
01
02
01
f8
fc
f8
0d
12
0f
f8
fa
f7
fd
fb
fe
01
00
fc
f8
fb
01
ff
fd
fe
ff
fe
ff
00
02
01
01
01
00
04
05
03
01
03
03
00
00
02
fd
fd
01
fb
fd
ff
fe
fd
fc
fd
f9
fa
fe
fe
04
00
ff
00
fe
ff
fe
01
02
00
00
03
02
fd
00
ff
04
08
04
02
fd
fa
fd
fc
fa
06
03
06
01
02
03
fc
fd
fe
02
02
01
02
fe
03
fb
fd
fc
fd
ff
01
fe
fd
ff
fc
fc
fe
fd
fd
fe
00
fb
01
fb
fa
fd
01
fe
02
01
00
00
fe
fe
fe
ff
00
ff
ff
00
00
ff
00
01
00
01
03
06
03
06
00
01
00
0c
03
07
02
fe
fd
02
02
00
01
03
00
02
00
ff
05
05
03
fc
fc
fc
fd
ff
00
fa
ff
fd
fb
ff
00
fd
fd
fa
04
06
03
06
04
ff
ff
fd
02
01
fe
00
fe
fe
fb
fc
fb
fb
fe
fd
fa
01
00
fc
fa
f3
fd
01
fc
fd
01
ff
00
fd
04
fd
fd
03
fd
fc
ff
fc
fe
fd
fe
02
02
ff
fe
00
00
fe
fe
fd
ff
fe
fc
ff
fe
fe
00
f8
02
00
f9
fd
fd
fa
fb
02
03
04
05
03
01
03
02
ff
01
00
00
03
02
01
04
02
01
fe
ff
ff
fb
fc
01
02
00
00
05
04
06
00
02
00
02
04
01
03
07
03
fe
03
fb
fe
02
00
ff
ff
fc
fe
fc
fa
ff
ff
fb
00
ff
fe
ff
fd
fe
02
01
02
fb
f7
f4
05
05
01
08
03
fe
fc
fc
fd
fc
fc
fd
fd
fd
00
09
0a
06
fe
fd
fe
03
ff
00
fe
fb
fc
04
ff
01
fb
fa
ff
01
03
00
03
05
08
fa
fb
fb
ff
00
ff
fe
ff
fe
fd
fe
fe
fb
fb
fd
fe
fe
fe
fc
fd
fe
01
00
00
00
00
ff
02
01
01
fe
fc
fe
fc
fb
fd
fe
fc
ff
fd
00
ff
fe
00
fe
fd
fe
fd
03
fb
01
05
fe
00
fa
fa
fd
ff
fe
00
fa
fd
fd
fe
ff
fe
fd
f7
01
00
f8
fb
07
fd
01
00
02
03
fd
00
02
fe
01
00
01
fd
03
fc
fa
fe
03
00
04
07
ff
04
0a
03
fe
05
fb
fa
fd
fc
fe
fd
fc
fd
fe
fd
fe
f8
f4
f9
01
f6
fe
ff
fa
04
01
01
01
00
01
01
00
00
01
00
01
ff
00
00
02
fe
fe
fe
01
02
01
01
01
01
01
01
00
fd
ff
fd
02
02
00
fe
ff
00
01
00
00
ff
fd
01
01
02
ff
fe
fd
fe
ff
ff
02
fd
fd
ff
02
00
fd
02
fc
fc
04
fe
fe
ff
fe
ff
ff
ff
01
fe
fe
ff
ff
00
00
fc
fa
fa
07
06
01
fe
ff
00
ff
01
01
00
02
00
05
02
01
fc
fc
fe
00
01
01
fd
ff
02
00
fe
05
00
00
04
fe
01
05
fb
f8
fa
01
02
05
ff
00
fe
00
fd
ff
02
01
05
ff
01
01
ff
ff
01
00
01
01
01
01
00
03
02
02
00
00
ff
ff
fe
ff
02
fb
fd
04
ff
fc
fe
00
01
fc
fa
fb
04
00
ff
ff
fd
02
fe
fc
02
00
00
02
01
04
02
fd
fe
ff
03
01
fe
ff
ff
01
fd
f8
fd
01
fd
01
fe
ff
04
ff
fb
01
02
00
01
fd
fc
fc
ff
fd
ff
fe
fe
02
00
02
01
01
02
01
ff
01
00
02
ff
fc
01
fb
fa
03
03
fe
02
03
01
00
01
ff
00
01
ff
fe
ff
ff
ff
ff
ff
ff
01
01
ff
ff
ff
ff
00
fe
00
04
fe
00
01
03
ff
fe
04
ff
00
03
ff
ff
00
02
ff
00
00
00
ff
fc
fe
01
fc
fa
fe
ff
fe
ff
04
02
00
fe
fd
fc
00
02
01
fc
ff
02
fc
ff
00
fe
00
00
fc
fc
ff
ff
00
04
fe
03
04
fb
fc
fd
ff
fa
01
05
03
01
03
01
fe
02
01
fe
01
00
ff
fd
01
02
01
fc
fe
01
01
00
00
00
ff
00
00
00
00
ff
ff
01
00
ff
01
fa
fa
06
ff
fb
01
01
01
00
01
03
02
02
00
fe
00
00
ff
ff
fe
fe
fe
fd
fe
fe
ff
ff
00
00
fd
ff
00
ff
fe
03
fc
fb
01
00
01
02
fe
fc
04
fe
f8
01
01
fc
ff
ff
fd
04
fb
fb
02
04
00
02
01
00
00
00
ff
00
fe
00
02
04
03
01
00
fc
fd
03
03
03
ff
fe
ff
02
fe
ff
00
00
00
06
ff
04
03
fe
01
02
fd
ff
00
fb
ff
01
f9
fa
0a
04
02
02
ff
fe
00
fe
ff
ff
fe
fd
00
01
01
ff
00
00
ff
00
00
ff
ff
00
ff
fe
ff
00
ff
ff
00
00
01
00
00
00
00
00
01
fe
ff
01
fe
ff
01
fe
ff
00
ff
00
00
fe
00
00
fd
fd
fe
fb
fe
01
02
fe
00
02
00
00
fd
fd
ff
fd
fb
ff
01
01
ff
ff
04
ff
fb
f8
fc
01
fc
ff
00
02
01
fd
01
00
ff
02
ff
01
fc
fa
02
fb
f7
05
02
fa
fd
fb
04
fb
f9
02
02
01
05
fd
fd
fe
fd
fd
fd
fd
fd
fe
fa
fa
04
f9
f6
fe
05
02
02
00
00
00
00
00
00
00
00
00
01
ff
00
02
00
00
01
01
00
01
01
00
00
00
00
01
00
00
00
02
00
00
01
ff
00
00
ff
fd
01
01
fd
02
02
ff
04
ff
04
05
01
02
02
01
00
00
fe
00
00
02
ff
fe
03
fe
01
03
ff
04
01
ff
02
03
ff
01
02
01
03
04
ff
ff
03
01
03
02
00
00
01
00
00
01
00
01
01
fe
00
02
fd
fc
ff
ff
fd
01
fe
ff
01
fe
fe
02
fd
02
01
fe
fe
00
00
fd
fe
fe
fa
fb
fd
00
00
ff
fc
02
01
03
05
ff
00
01
00
ff
00
00
00
01
01
01
00
02
01
00
00
01
ff
01
fe
00
02
fd
ff
01
fe
fe
01
00
01
01
fb
00
00
ff
00
fe
01
04
fd
01
05
fe
03
04
ff
fd
fd
ff
fd
fe
02
ff
fc
fe
03
01
00
fe
ff
02
fd
02
ff
05
07
fd
02
07
fd
04
05
02
03
ff
04
fe
02
00
05
03
ff
01
04
ff
01
03
fe
00
03
02
fd
fe
02
fc
fe
03
00
00
01
02
ff
01
02
ff
01
03
fe
fe
ff
01
fe
fe
01
fe
ff
00
03
ff
fe
03
00
ff
03
01
fc
fe
00
03
fe
ff
03
fe
02
03
00
ff
00
01
fd
ff
fe
ff
ff
ff
00
00
ff
fe
00
fe
ff
ff
ff
ff
01
fe
fe
ff
ff
fe
00
00
03
01
ff
02
00
fe
01
fd
fc
fd
00
fe
fd
00
ff
00
01
01
fe
03
03
fe
04
03
02
03
02
03
02
01
02
01
01
00
01
ff
ff
00
fe
fe
00
fe
ff
fe
01
00
00
00
01
01
00
00
01
03
ff
fe
02
fc
ff
01
fc
ff
00
02
00
03
01
01
01
00
ff
fc
fe
00
fd
fd
01
fc
fc
ff
ff
fe
03
ff
fd
ff
ff
fe
01
ff
02
ff
fe
02
02
ff
02
ff
ff
fd
fd
fd
fb
fe
fe
fc
fd
fb
ff
00
fa
fb
ff
f9
fd
ff
fe
fe
01
fd
fd
ff
fd
fd
ff
01
fe
01
01
fd
fe
01
fe
01
fd
fd
ff
fc
fc
ff
fc
fc
fe
06
00
f8
02
ff
fa
03
01
fb
ff
fe
05
fd
ff
03
01
04
00
03
ff
02
01
ff
01
01
ff
00
01
01
00
02
02
01
02
02
01
02
01
00
03
ff
ff
ff
ff
00
fe
fe
00
fe
fe
ff
fe
fe
ff
ff
01
04
ff
00
03
00
00
02
fd
fe
02
fe
ff
03
ff
00
01
00
ff
01
ff
fd
ff
ff
ff
fe
fd
fd
ff
fe
fc
00
ff
ff
fd
ff
fc
fb
01
f9
ff
00
fe
fe
00
01
ff
00
01
ff
00
01
ff
02
fa
fd
02
f8
fc
02
fc
fc
fc
fd
fc
fd
fc
fe
fe
fd
fa
fb
fc
ff
fb
fb
fe
fb
fb
fe
ff
02
05
01
fd
04
02
01
fe
00
00
00
ff
00
00
00
00
00
05
ff
f9
00
fa
fb
fd
fa
fd
03
03
ff
03
01
fe
02
fe
fd
01
00
01
02
01
01
02
01
02
01
01
02
03
02
ff
05
00
fd
02
f9
ff
f9
f8
03
fa
fc
00
fb
03
04
fa
04
02
ff
06
fc
fd
fa
03
f7
fe
09
f7
05
06
f8
fa
07
fa
04
05
fd
05
ff
01
ff
01
ff
fe
03
ff
ff
02
00
00
fe
01
02
ff
ff
fc
fe
fa
01
06
fd
06
02
02
02
fe
f5
fa
07
fb
0a
06
02
ff
f3
fe
08
07
07
07
fd
04
03
fa
04
01
ff
01
ff
ff
ff
fd
fd
fd
fd
fd
ff
00
fa
ff
fc
fc
02
fd
fe
fb
fc
ff
fe
00
00
08
fe
fb
03
f6
fd
fc
fc
01
ff
01
03
ff
04
01
01
01
ff
01
00
fe
01
fe
ff
00
fb
02
09
06
fd
00
f8
03
fd
fa
04
04
fb
fd
fb
f9
fc
fb
fd
fc
ff
fd
fa
01
f9
f7
fe
f6
fc
fd
fd
00
ff
fe
03
fe
fd
00
02
03
00
02
02
fe
fe
ff
02
ff
00
02
00
00
04
01
01
02
01
00
01
01
ff
00
ff
fe
00
07
ff
fd
01
00
01
00
ff
03
03
ff
02
02
02
01
03
fe
fc
01
fa
ff
00
ff
ff
00
ff
ff
02
ff
00
fc
fe
00
fd
ff
02
01
fd
ff
05
01
ff
00
ff
fc
f9
fd
07
fa
02
08
00
03
05
fc
fc
fc
fe
fb
ff
fc
fd
fd
00
00
0c
00
06
08
01
07
01
05
02
fd
05
01
f9
03
fb
f8
05
fd
fa
fc
f7
f8
fe
fa
fd
fe
01
ff
01
00
ff
00
ff
fe
02
01
06
fd
fd
fc
fb
fd
ff
06
fb
fa
00
fb
ff
fd
fe
03
01
fe
ff
00
ff
00
ff
fd
fe
fd
01
03
ff
08
05
01
05
00
ff
fc
03
fe
06
04
03
02
f9
01
02
f7
01
f9
fb
fb
f2
04
ff
fd
fc
fa
f9
fd
fb
fe
fd
02
03
02
02
02
00
00
ff
ff
04
fb
fd
05
fd
00
fe
fb
02
03
01
01
01
ff
ff
00
ff
fe
01
05
09
00
05
01
ff
02
f7
02
03
0b
04
03
01
03
ff
03
fa
ff
00
03
07
01
05
0d
fe
00
01
01
ff
01
01
00
01
01
01
fd
ff
ff
ff
fe
01
02
01
01
03
04
02
03
03
02
02
01
01
01
ff
03
00
ff
00
fd
fd
03
fd
ff
ff
ff
04
fd
01
03
04
fb
fd
fd
f6
fe
fc
f9
fe
01
00
02
fe
ff
03
fe
fd
05
fe
01
0c
01
09
fe
04
03
fb
fe
00
02
fd
02
00
01
04
fd
03
ff
f6
fd
fc
f6
fb
fa
fe
02
02
f5
01
f5
f4
fa
f1
04
ff
00
01
00
01
00
ff
ff
fe
0f
fd
fe
fb
f6
fd
fc
fb
01
00
00
00
00
01
00
00
00
00
fb
ff
02
fd
ff
01
fc
fe
02
fe
00
00
ff
00
00
ff
00
ff
ff
00
00
00
02
01
00
00
00
fe
fc
fc
01
fd
fc
fd
fd
fc
00
00
01
02
01
01
fe
fd
ff
fe
fb
fc
00
fd
fd
fe
fd
fd
05
01
fd
05
03
fe
04
04
ff
01
03
00
fd
ff
fe
01
fc
fc
fd
fd
ff
02
fe
00
01
00
00
01
03
02
05
03
01
ff
fe
ff
fe
fe
00
ff
00
03
fb
ff
02
06
05
02
ff
fc
fe
fa
f9
ff
06
02
01
00
fe
03
fa
fc
04
02
02
01
ff
01
00
00
00
00
fc
ff
01
fe
01
03
fd
01
04
fe
f9
fd
01
f8
fe
06
f9
fc
fe
fe
03
fe
01
06
03
01
01
ff
fe
ff
ff
00
00
00
00
02
ff
f9
fd
03
f8
fe
04
f6
fc
04
03
04
03
01
06
ff
fc
02
fb
fe
00
fe
01
02
00
02
ff
fa
ff
00
ff
00
02
01
02
03
00
01
00
00
01
00
00
ff
fe
03
fc
f9
07
fd
fb
05
fb
fc
fe
00
00
ff
00
00
ff
ff
ff
ff
ff
fe
00
ff
fe
ff
00
ff
01
ff
fb
03
fd
f9
01
fb
fa
00
02
02
fc
fe
00
fe
ff
03
fd
ff
01
fd
ff
01
ff
00
03
00
fc
01
01
fe
01
ff
fc
00
fd
02
02
ff
03
02
ff
01
00
fc
ff
00
fe
ff
00
fe
ff
00
00
00
fd
ff
00
03
fe
ff
00
06
01
fd
07
02
04
00
fb
00
fb
ff
00
fb
00
03
fe
04
04
ff
02
04
fc
fe
03
02
ff
01
fe
ff
00
ff
00
00
00
ff
ff
03
fa
fb
03
f8
fe
07
f9
fd
ff
01
00
fe
01
02
00
02
00
fe
fe
fd
fe
fe
fc
fe
fd
fc
ff
ff
fe
03
ff
fd
ff
fe
ff
fd
fe
fe
fc
ff
01
fc
fe
00
02
fd
ff
02
fe
ff
04
f9
fd
fb
fd
01
fb
01
02
fd
02
01
fe
00
fe
ff
01
fe
fe
00
fe
fe
03
01
00
02
00
03
00
fe
ff
02
02
00
01
00
00
ff
fe
fd
fa
fe
ff
fb
00
02
00
00
04
fd
fc
01
fc
00
00
fd
00
01
03
00
02
00
fe
02
00
fd
ff
00
00
fe
00
00
fe
00
00
fd
00
02
fd
ff
02
fe
01
02
ff
00
ff
00
00
ff
00
00
ff
ff
01
01
ff
01
00
ff
00
ff
05
02
fe
06
03
ff
04
02
fe
ff
02
03
fc
fd
01
04
02
02
02
fa
ff
05
fc
00
05
fb
01
04
00
fa
03
01
00
00
fe
fd
fe
fe
01
00
ff
00
ff
fe
00
03
ff
f9
0a
ff
fa
0d
ff
fa
04
01
fe
06
03
02
09
04
fe
00
01
00
01
01
01
00
01
00
00
00
03
ff
00
00
03
fd
ff
01
01
02
01
02
02
01
02
01
01
02
01
07
04
fe
06
05
03
ff
01
00
ff
03
02
ff
01
03
fe
ff
00
fa
f9
fc
fc
fc
ff
fa
fa
fc
fe
01
01
07
08
04
fb
fb
f8
0a
03
fe
05
01
01
ff
f8
f6
01
03
ff
03
07
07
fc
fe
ff
fc
fc
fb
fe
00
fe
04
03
f7
08
04
01
f4
f6
fb
fd
fe
fd
fd
fe
fe
01
04
01
ff
fc
fb
03
04
01
03
02
03
fb
fc
fb
01
ff
02
05
05
02
04
05
04
06
07
09
fd
fd
f9
fe
fa
01
f8
fd
00
02
04
fe
fe
05
06
fd
02
02
fd
fb
fc
fe
05
03
02
01
ff
04
00
ff
fe
fc
00
fa
ff
00
02
06
04
05
fe
00
03
04
00
fb
fa
fc
fb
fa
fa
00
ff
ff
05
07
06
00
fc
fd
00
02
03
09
0a
07
02
00
02
f9
fe
03
ff
f7
f9
ff
ff
00
ff
03
01
01
03
06
ff
0a
0e
f6
fd
fb
ff
f8
f8
fe
ff
01
01
02
03
00
05
05
fc
fc
fd
fd
fb
02
05
0a
06
fb
fd
fc
ff
03
00
01
01
00
ff
00
01
01
02
01
00
02
01
02
00
fd
06
02
fd
06
05
ff
fe
06
06
fd
00
01
01
ff
fe
00
06
09
ff
fe
ff
00
fd
fc
fd
fb
fe
00
fe
ff
03
05
02
02
01
00
03
03
02
fe
fc
fe
fa
ff
ff
fe
fe
fd
01
01
02
fc
fd
ff
ff
01
02
03
01
00
01
07
06
fe
ff
ff
02
02
ff
fe
fe
fa
01
06
03
03
09
06
01
03
03
fb
01
fe
fb
f6
fa
fd
fe
ff
ff
ff
00
00
00
00
02
fd
ff
fc
fc
fb
00
fe
02
07
08
04
02
03
01
fb
f6
f8
fd
fd
fd
01
00
00
04
05
05
fe
fe
fe
fb
fc
01
01
05
05
fb
fa
fa
fe
ff
ff
04
05
03
fe
fa
fd
01
fb
fb
07
02
02
f7
fd
03
fd
fe
ff
fe
fc
02
ff
fe
00
ff
00
03
fd
ff
01
02
00
00
04
02
00
fe
fa
fa
fa
f9
ff
ff
02
02
ff
03
04
fe
00
00
fe
00
fa
fd
fd
fa
04
09
06
fb
fb
fe
fc
00
00
02
00
fd
fe
fd
ff
fe
fb
fe
fd
fc
fd
ff
ff
fe
00
ff
ff
fe
fb
01
01
00
02
01
fd
fd
ff
fe
ff
ff
ff
01
fe
00
02
00
00
01
00
02
02
00
01
03
00
03
04
fe
02
00
02
04
02
01
0b
08
fa
fd
fd
fb
f5
fb
fe
fc
fd
ff
fe
02
06
08
04
00
00
01
00
fd
ff
03
ff
00
fd
fc
fe
fd
ff
00
01
02
02
fd
fc
fc
00
fe
01
07
0a
07
05
00
fb
04
03
03
04
fd
fe
ff
fd
fd
fe
fe
00
fe
ff
02
fe
f9
fd
01
fd
fe
fb
fd
fc
00
00
00
00
00
00
00
00
00
00
00
00
00
00
00
00
00
00
00
00
00
00
00
00
00
00
00
00
00
00
00
00
00
00
00
00
00
00
00
00
00
00
00
00
00
00
00
00
00
00
00
00
00
00
00
00
00
00
00
00
00
00
00
00
00
00
00
00
00
00
00
00
00
00
00
00
00
00
00
00
00
00
00
00
00
00
00
00
00
00
00
00
00
00
00
00
00
00
00
00
00
00
00
00
00
00
00
00
00
00
00
00
00
00
00
00
00
00
00
00
00
00
00
00
00
00
00
00
00
00
00
00
00
00
00
00
00
00
00
00
00
00
00
00
00
00
00
00
00
00
00
00
00
00
00
00
00
00
00
00
00
00
00
00
00
00
00
00
00
00
00
00
00
00
00
00
00
00
00
00
00
00
00
00
00
00
00
00
00
00
00
00
00
00
00
00
00
00
00
00
00
00
00
00
00
00
00
00
00
00
00
00
00
00
00
00
00
00
00
00
00
00
00
00
00
00
00
00
00
00
00
00
00
00
00
00
00
00
00
00
00
00
00
00
00
00
00
00
00
00
00
00
00
00
00
00
00
00
00
00
00
00
00
00
00
00
00
00
00
00
00
00
00
00
00
00
00
00
00
00
00
00
00
00
00
00
00
00
00
00
00
00
00
00
00
00
00
00
00
00
00
00
00
00
00
00
00
00
00
00
00
00
00
00
00
00
00
00
00
00
00
00
00
00
00
00
00
00
00
00
00
00
00
00
00
00
00
00
00
00
00
00
00
00
00
00
00
00
00
00
00
00
00
00
00
00
00
00
00
00
00
00
00
00
00
00
00
00
00
00
00
00
00
00
00
00
00
00
00
00
00
00
00
00
00
00
00
00
00
00
00
00
00
00
00
00
00
00
00
00
00
00
00
00
00
00
00
00
00
00
00
00
00
00
00
00
00
00
00
00
00
00
00
00
00
00
00
00
00
00
00
00
00
00
00
00
00
00
00
00
00
00
00
00
00
00
00
00
00
00
00
00
00
00
00
00
00
00
00
00
00
00
00
00
00
00
00
00
00
00
00
00
00
00
00
00
00
00
00
00
00
00
00
00
00
00
00
00
00
00
00
00
00
00
00
00
00
00
00
00
00
00
00
00
00
00
00
00
00
00
00
00
00
00
00
00
00
00
00
00
00
00
00
00
00
00
00
00
00
00
00
00
00
00
00
00
00
00
00
00
00
00
00
00
00
00
00
00
00
00
00
00
00
00
00
00
00
00
00
00
00
00
00
00
00
00
00
00
00
00
00
00
00
00
00
00
01
00
00
01
01
00
01
01
00
02
fc
02
fd
fa
02
fd
fa
01
00
00
00
ff
00
00
ff
ff
00
00
00
01
00
00
01
00
fe
00
01
04
03
00
01
02
00
fe
fd
00
ff
fe
fe
fe
ff
fe
fc
ff
01
fc
06
fb
f7
07
f9
f3
01
03
fe
ff
00
fd
fd
ff
fc
fc
fd
ff
04
f4
fa
01
fb
fb
05
00
ff
fd
00
00
ff
01
ff
fe
00
00
03
fc
fe
02
fe
fe
01
02
02
02
ff
01
00
ff
01
ff
02
02
fc
fb
04
01
fd
fe
04
fe
f8
00
01
fc
00
00
fb
02
00
01
02
00
00
01
ff
00
03
00
fc
01
fe
fb
01
00
fe
01
01
08
00
fd
09
01
fc
04
04
01
ff
fe
f9
00
fd
f9
fc
fb
02
01
01
00
00
02
fe
ff
00
03
06
fe
01
08
01
02
05
01
01
f9
ff
05
fc
00
06
fb
02
00
00
00
f8
fd
fe
fa
fa
fb
00
fd
ff
fc
fb
00
fe
fa
ff
fe
fe
ff
fe
ff
ff
fd
ff
00
01
04
03
01
00
03
01
fe
fd
01
ff
00
01
ff
01
01
01
01
02
02
01
01
02
01
02
00
00
fe
01
ff
00
ff
01
01
fd
fc
fe
fd
fd
fe
fd
00
fe
fd
02
00
00
ff
ff
00
01
00
ff
04
03
06
01
01
07
00
00
04
01
fe
fe
03
fa
fc
01
fd
fb
01
01
fe
fc
ff
01
fc
fe
ff
fe
fe
03
03
01
03
06
01
04
03
fd
fd
00
fc
00
ff
00
01
ff
01
fd
ff
ff
fc
00
00
fe
00
02
04
00
fe
08
00
fb
04
04
ff
fe
ff
ff
fe
00
fe
fe
ff
04
05
fe
fe
07
00
fd
03
03
fe
fe
00
fe
fe
ff
ff
00
02
06
04
01
05
03
01
02
02
02
fe
f9
fb
fe
fb
fd
00
fc
fa
01
ff
ff
ff
00
ff
00
fe
fd
07
05
ff
05
08
00
02
03
00
06
03
04
fe
02
03
fb
fd
02
01
03
03
00
01
04
00
00
01
fc
fc
01
fa
f8
01
ff
fa
fe
01
04
01
ff
04
02
ff
01
02
fe
fd
05
fc
fe
06
fb
fc
02
00
02
01
f9
08
01
fa
0a
03
02
00
02
00
fb
ff
01
fc
ff
fe
ff
ff
fe
fe
ff
00
ff
00
02
00
fd
03
01
ff
01
01
04
02
02
01
00
01
02
00
00
00
ff
ff
ff
fe
ff
00
fe
ff
ff
00
fe
fc
03
fe
fb
02
00
fe
ff
02
00
fd
06
02
fc
00
06
02
05
01
ff
06
02
00
05
00
03
01
05
ff
fc
06
00
00
ff
ff
02
01
fe
03
01
ff
01
02
02
07
02
04
04
06
04
00
03
fc
02
fc
02
04
01
02
01
03
01
03
02
01
02
04
01
02
03
ff
02
fd
fa
ff
02
f7
fb
fe
01
01
01
01
00
00
01
01
01
00
01
00
04
08
05
07
04
04
fe
ff
fe
fe
ff
ff
fe
ff
00
fd
fc
ff
fd
fd
fe
fe
fc
fd
fc
fb
01
f8
f7
fc
00
00
03
fb
fa
01
fc
fd
00
03
03
07
08
fd
fe
00
f6
f7
02
ff
02
02
05
06
fe
01
02
fd
ff
02
ff
fd
01
02
ff
ff
06
02
02
01
fe
00
fd
fc
fd
ff
ff
00
fe
ff
03
04
00
ff
05
03
05
fa
fa
ff
fc
fa
ff
02
02
06
00
01
01
fb
02
05
05
00
02
00
fb
ff
fe
ff
fe
00
03
04
02
02
02
04
04
05
01
00
00
00
02
ff
04
07
05
03
00
00
03
fd
00
fe
fb
fd
00
fc
00
07
ff
03
08
04
00
00
fc
fa
fc
f8
fd
fa
f5
fb
fe
fc
00
00
fd
02
fb
fa
fe
00
01
06
08
02
06
fb
fd
04
02
fe
00
01
00
05
f9
f6
fc
fa
f9
fe
04
02
03
01
00
02
fe
01
ff
02
01
05
00
00
00
02
00
03
01
fd
fe
fe
f6
f8
fe
fd
ff
ff
fe
fe
ff
fe
ff
00
ff
00
ff
ff
ff
ff
ff
fe
ff
ff
00
00
fe
03
fc
fd
01
03
04
03
01
ff
02
03
02
05
01
01
00
03
01
04
02
02
02
00
fe
fd
fd
fc
ff
f8
f8
fb
fc
fe
ff
02
02
02
07
06
04
05
02
ff
ff
00
fd
f7
f5
f9
f8
fc
fd
fc
fb
fe
ff
fb
ff
ff
fe
01
00
fc
ff
fa
f4
f8
09
04
02
fc
fc
fb
02
03
ff
02
02
00
00
01
01
01
02
04
ff
fe
00
ff
ff
ff
ff
ff
fe
00
ff
fe
02
fd
00
fe
f9
fa
02
fb
fc
06
05
04
08
0a
07
02
00
fe
fe
ff
00
00
00
00
02
02
00
fc
fd
00
fe
fc
fd
00
fe
00
fb
fc
00
f6
f9
ff
fe
fe
03
03
fd
08
fc
f0
fc
00
f7
02
ff
ff
05
fd
f9
fb
01
fe
02
01
00
01
02
00
ff
02
00
00
05
03
05
04
03
02
03
ff
fc
00
fe
02
fe
fc
fe
00
ff
02
05
02
04
09
04
06
ff
f9
fa
07
ff
01
ff
f4
fb
02
fe
f9
fe
fa
fa
03
01
03
07
fb
fc
ff
ff
00
ff
ff
00
ff
00
00
fe
fe
00
ff
fd
fd
00
00
00
02
01
01
01
01
00
02
01
ff
fe
ff
02
fe
ff
00
ff
ff
01
fe
fd
02
f8
fb
ff
fc
00
01
04
02
06
01
ff
01
ff
fc
fd
fd
f9
fe
f6
f5
fa
fb
fb
00
06
02
03
01
fa
fd
00
fc
ff
fe
ff
01
fa
fc
fe
fc
00
01
05
fe
fc
ff
f7
f6
03
02
ff
fe
fb
01
04
04
09
00
fd
02
ff
00
01
fe
fd
fe
ff
fe
fe
fc
f5
02
fc
f5
fb
00
fc
03
fe
ff
00
fe
ff
00
fe
fe
ff
00
fc
fc
01
fb
02
f7
01
05
fe
ff
00
fd
fe
00
fc
fd
00
01
01
01
02
01
00
03
01
03
02
02
01
02
05
ff
05
0c
03
03
fb
fb
02
f5
fa
fa
f0
fb
f8
00
fc
01
01
f9
04
03
fb
f9
fc
ff
ff
01
fd
02
02
fa
fc
f7
f8
f6
f4
fd
f5
f7
fd
01
03
02
01
04
ff
03
05
00
fd
ff
fc
01
ff
04
fb
fe
03
ff
03
fe
07
02
fd
04
09
03
01
fc
ff
fe
fc
00
fb
02
0a
03
0a
03
04
06
05
03
04
08
03
fe
00
fe
fc
01
fc
ff
03
02
01
ff
02
fd
fb
fe
fc
ff
ff
ff
fc
fb
fb
fd
fc
ff
0a
fa
f7
f5
fe
f2
f5
fe
f9
02
fd
04
ff
02
04
00
05
08
03
fb
03
02
00
03
04
fe
01
06
0d
0b
fe
02
04
07
01
fe
06
f8
f8
f3
f7
f7
f9
fa
ff
03
03
fa
fd
06
fd
01
fe
fb
05
fe
fe
00
fc
fd
02
fc
ff
03
02
02
ff
04
04
fe
05
05
03
ff
01
00
fe
ff
00
fe
ff
01
00
02
01
01
03
02
01
04
02
04
01
01
04
01
01
03
01
fc
06
04
05
04
06
09
02
09
09
03
fe
fd
fe
f8
fd
ff
fa
04
fe
01
00
ff
00
00
fd
02
0a
fa
f8
f9
ff
fa
01
ff
fe
03
02
ff
07
02
01
05
05
02
05
00
fd
ff
02
fc
02
fe
03
04
ff
ff
00
0a
03
01
05
09
00
fe
fd
f9
00
ff
ff
ff
02
04
05
f9
fd
f9
f5
00
f7
fa
0d
ff
01
00
00
01
01
ff
00
00
03
ff
fb
01
fd
f9
fd
f5
02
02
fe
01
fc
f9
ff
fa
fd
02
01
03
01
02
02
00
fd
00
02
fd
fe
fa
00
fe
fb
fe
f9
fb
fe
03
00
01
00
ff
02
03
fd
01
fc
f8
02
fd
04
03
07
0c
f6
f9
f6
f6
f4
f7
fc
f7
f9
00
00
01
ff
00
03
fc
00
01
fe
f7
fa
03
f8
ff
fe
f9
02
02
00
fd
00
fe
fd
01
01
02
f7
03
fc
07
02
f9
00
fa
04
00
02
08
fd
07
03
01
09
ff
f4
fd
fb
ff
08
03
02
0c
08
02
01
00
02
00
fe
01
00
00
04
00
fb
ff
f8
fa
fc
f9
ff
00
01
01
ff
01
02
fe
02
03
ff
ff
01
fe
fe
02
fc
fe
02
fd
fc
ff
01
00
00
01
06
00
03
f6
f8
f8
f1
fd
f5
f8
08
fe
05
02
00
04
02
ff
04
09
02
06
04
08
08
00
02
07
fc
fd
ff
01
00
fd
ff
02
fe
05
fe
fa
f5
fb
fe
fc
00
05
03
03
f9
f8
00
fe
0a
00
04
06
00
ff
ff
00
ff
00
ff
ff
01
04
f6
f2
fc
ed
f3
fc
f5
f8
01
01
01
00
00
00
00
00
ff
ff
ff
ff
01
00
ff
05
02
04
00
ff
ff
ff
ff
fe
ff
ff
fe
00
01
01
03
04
03
fe
fe
fe
06
09
06
fd
04
02
fe
fb
fe
04
06
03
ff
ff
ff
fb
fd
02
fc
00
02
f9
fb
01
03
fa
fd
02
02
01
fe
00
02
fd
fc
02
fa
fa
fa
00
fc
f9
05
ff
fc
fe
fe
ff
ff
00
00
00
fe
fe
fe
fc
fc
fc
02
fe
fe
00
01
ff
00
fe
fe
01
ff
ff
fb
fa
02
00
ff
03
04
00
04
01
fc
ff
00
01
02
0d
09
fc
ff
02
00
01
00
03
02
fc
ff
00
ff
02
00
ff
04
04
00
02
03
05
fc
ff
ff
00
ff
ff
00
01
00
fb
fd
f9
01
f6
fc
12
08
04
fe
ff
00
fd
fd
fd
00
fa
fb
02
04
00
f9
fe
ff
fb
00
00
00
fa
fb
fc
01
07
f7
ff
05
fc
fe
fe
ff
fb
fd
05
fb
fb
01
00
ff
03
03
09
f6
fe
0b
00
01
fd
ff
fd
fc
ff
fd
fe
05
06
04
01
02
05
ff
01
05
01
fe
fe
00
fd
fd
00
00
00
00
fd
fe
02
01
ff
02
01
ff
05
08
06
fc
ff
04
00
fb
00
01
03
02
04
03
fd
fd
ff
ff
02
02
00
07
04
ff
01
03
00
fc
fe
ff
fe
ff
00
ff
ff
ff
ff
ff
fd
00
02
fd
02
00
00
02
fe
fe
01
ff
ff
02
02
03
fe
ff
fc
fe
fe
fd
fd
fc
fe
ff
fe
ff
fe
ff
05
03
fc
00
f9
fa
fb
fc
fa
f9
00
00
01
ff
03
02
08
00
ff
04
05
01
01
02
ff
01
02
00
ff
00
00
fd
03
ff
03
fe
00
01
02
01
fd
fd
fe
fc
fe
ff
fe
01
02
fc
fa
fa
fe
fb
fb
01
ff
fe
fa
fa
fb
fb
00
fe
fe
fd
fe
01
04
01
00
01
fe
fd
fa
fa
04
05
ff
02
ff
02
03
fc
01
fb
ff
00
ff
fa
fe
fe
00
fe
ff
fe
fe
01
02
00
00
01
ff
01
00
fe
ff
01
00
06
00
ff
01
02
02
02
01
01
05
04
01
00
04
0a
fe
fc
fe
f4
fc
01
fd
06
02
fc
ff
02
00
fc
02
00
01
01
ff
01
00
ff
fe
fd
fd
fe
ff
fe
fe
00
01
ff
00
fd
00
fc
fc
fc
ff
ff
00
fe
ff
fe
fd
ff
00
fe
00
01
ff
00
01
ff
ff
ff
fd
01
00
fe
fb
fb
fd
fc
fc
fe
02
02
00
ff
ff
fd
07
00
fb
02
05
00
00
02
01
fc
02
03
fc
00
01
05
0a
04
01
08
0b
fb
fd
07
f9
fa
fc
fb
fc
fe
ff
fe
ff
03
02
01
fe
fc
03
ff
fe
04
02
00
fd
fc
fc
ff
fb
02
03
fe
fe
fe
ff
fe
fe
00
01
fe
00
fb
f6
f9
f9
f9
07
00
fb
ff
ff
00
ff
ff
ff
ff
ff
ff
00
01
01
ff
fd
fb
fb
fb
fb
00
01
01
01
01
01
01
00
01
01
01
02
01
01
fe
01
fe
fe
08
06
04
ff
00
00
fd
fe
02
f8
fe
fe
05
ff
fe
04
00
fe
fd
fe
00
00
fc
00
ff
fb
fe
f5
f8
fd
fb
f8
f8
fe
f9
fa
00
fe
f5
02
fc
f7
fd
fa
fc
ff
01
fe
00
00
ff
00
00
ff
02
fc
fa
fe
02
01
01
06
05
08
09
06
01
00
01
f9
fb
00
07
07
fd
fd
f4
f3
f9
f5
fc
03
02
02
ff
00
02
fa
fd
01
01
01
00
ff
ff
fe
01
01
01
02
01
ff
00
ff
fe
fb
fd
ff
fe
05
02
ff
00
01
02
ff
fe
f9
f9
fc
ff
01
03
09
06
01
03
04
03
01
01
00
fc
fc
00
fe
ff
fe
fc
02
05
01
04
05
ff
fe
00
fd
08
03
01
04
fe
fc
ff
01
02
05
02
05
04
03
ff
fb
fb
fd
02
fd
06
06
00
fd
ff
02
01
01
01
03
00
01
07
06
01
fc
03
03
00
02
ff
ff
fd
00
ff
fc
ff
00
00
03
00
00
ff
01
01
ff
00
01
01
ff
ff
fe
fd
fe
fe
01
fc
fb
05
06
03
00
01
ff
ff
fe
ff
01
05
01
04
03
ff
01
ff
fd
ff
06
04
01
03
02
01
02
01
ff
fe
fa
00
03
01
02
06
05
fc
fc
fc
00
fd
03
01
01
05
01
ff
01
fb
fe
00
fe
01
03
06
07
04
00
fc
ff
f9
fa
00
f9
fb
fc
fc
fa
fd
00
01
02
01
06
03
01
00
fc
04
fd
fa
fe
ff
ff
fd
00
01
ff
00
01
ff
05
03
00
00
02
02
fe
00
fe
fd
fb
ff
fe
fb
00
fd
fd
fa
fc
fd
00
ff
fe
03
01
00
01
fe
fb
ff
00
fd
ff
ff
ff
07
06
02
03
ff
fc
fd
f9
fd
01
01
07
fd
04
05
03
02
fe
fa
fb
fe
04
04
02
06
06
04
01
00
ff
00
01
fe
fe
fe
00
01
00
fc
01
04
03
04
04
04
fe
fd
fc
01
ff
fc
04
00
fd
f9
fa
fd
fb
fe
fd
08
06
02
03
04
fe
fd
fd
fd
fc
fc
fb
fd
03
03
fa
fc
ff
00
00
04
ff
00
ff
00
01
ff
00
01
00
fc
ff
00
05
02
00
02
00
00
00
00
01
02
02
01
01
01
01
fd
ff
01
00
00
00
01
00
01
f8
f8
f9
f7
f5
f6
fb
f9
fa
00
03
02
02
01
fe
07
fe
fc
00
03
03
fe
01
04
01
01
03
07
08
00
fc
fc
fe
f7
fc
01
ff
01
00
ff
ff
ff
ff
ff
00
01
03
03
fd
05
06
06
07
ff
fe
f3
fa
f7
fd
03
05
06
01
ff
ff
ff
01
00
ff
ff
ff
ff
01
03
03
03
05
fe
03
fe
fd
00
00
00
ff
ff
ff
ff
ff
ff
00
00
00
01
01
fd
02
02
01
00
01
ff
00
00
ff
00
00
ff
fd
fe
ff
01
03
03
00
00
ff
fb
ff
ff
fd
ff
fc
fd
01
00
fa
00
02
fe
02
03
00
04
06
ff
fe
fe
ff
ff
00
01
ff
03
ff
ff
ff
ff
00
02
00
02
02
fe
00
ff
00
00
fc
01
01
02
00
00
02
00
02
02
ff
00
02
03
03
fb
03
00
fe
00
ff
fc
02
02
00
03
04
02
02
03
02
00
08
00
09
07
01
ff
00
fc
ff
00
fc
01
ff
fb
fe
ff
fd
01
02
ff
05
04
01
02
01
fe
02
01
01
05
03
ff
04
02
00
ff
ff
ff
ff
fe
ff
fe
ff
01
ff
fd
fd
00
fc
fd
01
fe
00
01
00
ff
01
01
00
00
02
02
01
ff
fc
fe
fb
fc
fd
ff
00
ff
fc
f9
04
00
ff
fb
fe
fd
fe
fd
fe
fc
ff
00
fe
fe
01
04
fe
fe
07
ff
ff
ff
fc
00
01
02
ff
01
01
fe
ff
ff
fe
06
03
ff
04
fd
00
fd
fe
00
01
00
fe
01
00
fe
01
01
00
00
01
02
ff
00
00
00
00
00
fc
ff
01
fb
00
03
fb
ff
00
01
02
00
06
05
02
03
02
ff
00
01
01
03
01
01
01
01
00
00
00
03
ff
00
02
fc
01
02
01
02
ff
00
03
02
00
00
ff
fd
fd
fe
fd
fd
ff
03
05
09
04
02
fe
04
01
fe
02
00
fe
02
ff
00
0a
01
ff
05
fc
02
01
03
00
00
01
00
00
01
01
ff
ff
fd
06
03
01
01
00
01
01
01
00
00
01
00
00
00
00
01
ff
fe
05
fe
ff
fd
ff
01
01
00
00
ff
ff
ff
00
fd
fc
02
01
ff
00
00
ff
00
00
fe
fe
00
ff
00
ff
fc
00
00
fc
fa
fe
01
02
05
02
00
01
02
06
fd
fb
02
fb
fd
fd
00
02
ff
ff
ff
fe
fa
fe
fc
fd
03
01
02
01
00
01
00
02
02
01
04
02
00
ff
03
02
ff
00
ff
fd
fe
fe
fc
fe
ff
01
02
03
04
00
ff
01
fc
fc
00
fb
fc
03
00
ff
03
fa
f9
00
fc
fe
ff
00
ff
ff
02
ff
03
01
00
ff
01
02
ff
00
01
ff
00
01
fd
00
ff
ff
fb
fd
ff
ff
01
02
01
01
01
00
00
01
01
00
01
02
00
00
00
ff
00
00
ff
fc
fe
fe
fc
fd
fe
fe
fe
fd
ff
02
ff
04
02
01
01
01
01
02
00
01
00
00
02
ff
02
03
fe
02
02
07
01
fc
fc
fb
00
fe
03
02
fe
02
02
fe
02
03
09
00
00
01
fc
00
fc
fd
01
0d
02
fc
00
f9
fd
fe
fe
01
03
02
01
02
02
00
02
02
02
ff
fb
fb
01
f8
f9
00
ff
00
02
02
02
02
02
02
02
02
02
06
04
04
06
ff
05
02
03
02
00
01
01
ff
00
00
fe
00
00
00
00
fc
01
00
fd
00
ff
fd
fd
05
00
fb
10
01
ff
10
01
01
fe
ff
01
04
fd
02
04
00
fe
f5
ff
fb
fb
05
fa
00
01
02
ff
fc
03
ff
fc
04
03
fd
02
00
ff
00
00
fe
fa
f9
00
01
01
01
01
01
01
00
01
02
03
00
00
04
04
01
ff
00
fe
fe
00
01
fb
06
fe
fd
06
fd
06
02
03
02
02
05
fd
ff
fb
01
f9
04
fb
fe
03
fd
01
ff
01
02
03
ff
00
ff
fd
fd
fc
04
02
02
02
00
00
03
02
ff
ff
fe
fc
fd
ff
fd
fc
ff
fd
fe
fb
01
02
00
02
00
00
ff
fd
ff
fe
fa
04
fe
fc
05
fc
02
ff
fc
03
ff
fe
03
ff
00
04
01
02
ff
ff
03
fc
ff
fe
fc
01
fd
fc
06
fa
fc
08
fb
fe
ff
00
02
06
00
01
02
fe
03
03
02
03
02
03
01
02
02
ff
ff
ff
fb
00
00
fd
ff
00
ff
ff
fd
01
01
fd
01
01
fd
00
ff
ff
01
00
ff
00
ff
ff
00
04
01
fe
05
00
fd
05
04
00
02
03
fc
01
fe
fc
01
fb
01
00
03
fd
fd
ff
fe
ff
fe
01
01
02
ff
01
01
fe
00
02
04
02
00
03
00
fe
fe
fe
fe
00
fd
fe
03
00
fe
04
01
ff
fc
fe
00
fa
fe
fd
fd
ff
ff
00
fc
02
fb
01
02
fc
02
fd
02
ff
fd
02
ff
ff
02
00
fe
00
01
03
ff
00
fd
fd
fb
fc
01
01
01
01
01
02
01
00
00
03
ff
00
ff
fe
fd
fe
fd
00
03
03
01
02
ff
fd
ff
fe
01
01
01
01
01
01
fe
ff
ff
fe
03
01
04
02
03
05
02
04
06
fe
03
00
fa
07
fc
fc
0c
fc
fc
fe
fe
fc
fe
fb
fe
fc
fc
fe
ff
fe
fe
03
ff
ff
07
ff
01
00
ff
02
02
ff
00
00
ff
02
01
00
03
00
fe
fc
fb
fd
ff
fd
fd
00
ff
fe
00
ff
ff
fc
fd
fc
06
0a
03
01
04
fc
f6
05
00
f5
09
fc
fc
04
fc
01
04
04
ff
00
01
fd
01
01
00
00
00
00
00
00
00
00
01
ff
fe
fd
fe
fd
ff
ff
fe
fe
00
00
ff
00
01
ff
00
01
ff
02
03
03
02
03
03
01
03
02
00
02
00
03
05
ff
02
04
ff
00
ff
02
fe
fd
fc
fc
f9
fb
ff
fe
ff
fc
fe
00
fd
ff
ff
00
ff
03
f5
04
01
fb
07
03
01
01
02
00
01
03
ff
00
04
fe
fb
fd
fc
fa
00
fd
fa
01
fe
fb
ff
00
fa
f9
fd
f7
fe
ff
ff
ff
ff
ff
ff
00
00
00
fc
00
fb
fb
03
fa
fa
fe
fa
00
00
01
00
00
01
00
00
01
01
ff
03
06
06
07
05
04
02
ff
fd
fe
fd
fe
fe
fc
fd
fd
fb
fd
fc
ff
01
00
fc
00
ff
fe
fc
f9
07
01
02
06
06
03
04
03
00
0a
0b
0c
06
00
fe
f9
fb
fb
f9
03
01
fc
04
06
fe
fe
fc
02
fe
00
fd
fe
fd
05
01
03
ff
f5
fe
0c
f2
f0
fd
00
00
fe
01
03
fc
02
02
05
02
04
02
01
08
00
fa
f7
ff
fb
00
ff
fe
01
ff
01
02
fd
fe
05
03
01
ff
02
02
00
ff
fa
fe
fc
f7
fb
01
f9
00
00
02
04
fc
fa
fd
fe
f7
fa
02
00
01
02
fe
ff
06
fe
fd
fb
fb
ff
02
fc
fb
04
00
fb
fc
ff
fd
ff
ff
01
0b
fe
ff
ff
fb
fe
00
ff
02
fe
01
05
fe
ff
03
03
05
07
02
08
02
06
fe
01
02
f6
fa
09
fa
f1
fe
fb
fb
00
ff
01
01
03
02
ff
f8
fa
09
f6
f4
0c
fa
f2
fb
fc
fc
fb
fb
fd
f8
fd
fd
fc
fd
fd
fd
02
00
fb
04
05
00
fe
fe
fe
ff
fe
fd
fd
ff
fd
ff
ff
fe
00
01
fe
01
01
02
02
03
08
07
05
07
09
05
00
fe
06
fc
f6
fc
ff
f9
fd
fd
fe
02
05
fd
fb
06
00
fe
fa
fd
03
fe
03
02
fe
06
03
05
00
04
02
fb
01
06
fd
ff
fa
01
02
00
fe
00
01
02
06
fe
00
03
fc
f9
fe
f7
f7
fb
f8
fc
fa
03
f9
f6
03
ff
f7
ff
fd
03
f8
fd
fe
f5
f9
ff
fc
05
08
ff
fb
fb
07
00
f9
fe
ff
ff
ff
00
ff
fe
ff
ff
fd
00
01
03
fc
fa
03
02
fd
04
05
05
03
fc
fe
05
fc
fa
00
ff
03
fe
fd
ff
fe
fb
fd
fd
f9
ff
ff
fc
ff
fc
f7
fb
03
00
03
08
00
05
06
07
04
fd
fe
02
02
06
fe
05
0c
03
fe
f7
f9
fc
f7
01
fc
ff
ff
fe
fc
fe
fd
fd
00
fd
fd
00
01
01
01
06
fc
fc
0b
ff
f7
fb
fe
04
fc
01
05
fb
01
04
01
f7
fc
05
fa
00
03
f9
f9
fe
f8
fc
fd
ef
f3
0a
fa
f7
01
02
0a
fe
fe
07
fb
f9
02
fd
00
00
fd
ff
00
fd
fe
ff
fe
fe
01
fe
00
00
02
01
01
fd
fc
fe
fe
fd
ff
00
fe
00
fe
fe
ff
fd
ff
00
fc
fe
00
fe
00
00
00
00
00
fb
fd
fe
fb
00
05
00
f5
f4
05
fd
f8
fd
fd
00
fd
02
01
ff
06
03
fa
fe
f9
01
f8
fd
02
fc
ff
fc
ff
ff
ff
00
00
ff
01
00
ff
04
ff
ff
07
06
fc
0a
0b
fe
09
0d
f8
ff
04
fc
ff
08
ff
fe
00
ff
ff
02
ff
ff
02
03
fd
ff
04
fc
ff
05
03
fe
00
00
00
00
00
00
00
00
00
00
00
00
00
00
00
00
00
00
00
00
00
00
00
00
00
00
00
00
00
00
00
00
00
00
00
00
00
00
00
00
00
00
00
00
00
00
00
00
00
00
00
00
00
00
00
00
00
00
00
00
00
00
00
00
00
00
00
00
00
00
00
00
00
00
00
00
00
00
00
00
00
00
00
00
00
00
00
00
00
00
00
00
00
00
00
00
00
00
00
00
00
00
00
00
00
00
00
00
00
00
00
00
00
00
00
00
00
00
00
00
00
00
00
00
00
00
00
00
00
00
00
00
00
00
00
00
00
00
00
00
00
00
00
00
00
00
00
00
00
00
00
00
00
00
00
00
00
00
00
00
00
00
00
00
00
00
00
00
00
00
00
00
00
00
00
00
00
00
00
00
00
00
00
00
00
00
00
00
00
00
00
00
00
00
00
00
00
00
00
00
00
00
00
00
00
00
00
00
00
00
00
00
00
00
00
00
00
00
00
00
00
00
00
00
00
00
00
00
00
00
00
00
00
00
00
00
00
00
00
00
00
00
00
00
00
00
00
00
00
00
00
00
00
00
00
00
00
00
00
00
00
00
00
00
00
00
00
00
00
00
00
00
00
00
00
00
00
00
00
00
00
00
00
00
00
00
00
00
00
00
00
00
00
00
00
00
00
00
00
00
00
00
00
00
00
00
00
00
00
00
00
00
00
00
00
00
00
00
00
00
00
00
00
00
00
00
00
00
00
00
00
00
00
00
00
00
00
00
00
00
00
00
00
00
00
00
00
00
00
00
00
00
00
00
00
00
00
00
00
00
00
00
00
00
00
00
00
00
00
00
00
00
00
00
00
00
00
00
00
00
00
00
00
00
00
00
00
00
00
00
00
00
00
00
00
00
00
00
00
00
00
00
00
00
00
00
00
00
00
00
00
00
00
00
00
00
00
00
00
00
00
00
00
00
00
00
00
00
00
00
00
00
00
00
00
00
00
00
00
00
00
00
00
00
00
00
00
00
00
00
00
00
00
00
00
00
00
00
00
00
00
00
00
00
00
00
00
00
00
00
00
00
00
00
00
00
00
00
00
00
00
00
00
00
00
00
00
00
00
00
00
00
00
00
00
00
00
00
00
00
00
00
00
00
00
00
00
00
00
00
00
00
00
00
00
00
00
00
00
00
00
00
00
00
00
00
00
00
00
00
00
00
00
00
00
00
00
00
00
00
00
00
00
00
00
00
00
00
00
00
00
00
00
00
00
00
00
00
00
00
00
00
00
00
00
00
00
00
00
00
00
00
00
00
00
00
01
00
00
00
00
00
00
ff
00
00
03
04
fe
07
ff
fa
04
ff
00
fe
ff
00
fe
ff
00
fe
fe
fe
01
02
01
01
01
fe
fe
fe
fd
f9
fd
03
f9
fa
08
fc
fc
fb
00
03
f9
03
02
fc
02
00
fc
fd
f9
00
ff
f7
08
08
fd
02
02
04
00
02
02
ff
00
00
ff
05
03
fe
03
02
fe
00
fc
00
fe
01
00
ff
01
00
02
03
05
02
00
01
ff
fc
02
05
02
01
fe
fe
05
fe
ff
06
00
02
fb
00
00
fd
06
03
fd
ff
fa
08
00
fc
05
ff
fb
03
06
fb
fe
fe
00
fe
00
ff
fd
00
fe
00
04
04
02
05
00
01
04
00
fe
fc
01
00
01
fe
03
05
01
01
fc
02
fb
fa
01
fd
01
00
00
fd
fc
05
fd
fe
07
02
01
03
ff
02
01
fc
fd
01
06
03
06
00
01
01
00
00
fe
07
09
fc
fb
fd
01
fc
ff
09
00
fe
03
ff
02
f7
01
04
fb
00
05
00
00
ff
ff
00
00
fd
fd
fe
01
00
fd
02
00
fc
03
07
05
00
ff
02
01
01
01
00
00
00
ff
fe
ff
00
fe
ff
ff
fe
fe
fe
fe
ff
fd
fd
fe
fc
ff
00
ff
ff
ff
00
00
fd
ff
00
fe
fb
00
03
fc
06
04
fc
02
01
fd
f9
ff
ff
fd
00
00
00
03
01
02
03
ff
00
ff
00
04
00
00
ff
02
04
05
ff
01
01
00
01
fe
fc
00
fb
fc
ff
00
fd
05
ff
fc
07
00
fb
06
03
fe
04
01
02
04
00
02
04
ff
ff
fb
fd
05
ff
02
ff
00
05
ff
01
ff
ff
00
ff
ff
fe
ff
ff
fd
fe
04
ff
ff
00
04
08
03
03
06
05
03
05
02
00
06
00
ff
fd
00
fe
fe
fe
fd
fe
fd
02
ff
00
fe
00
fd
fe
04
01
fe
fd
fe
02
fc
ff
05
fc
fc
ff
f7
fa
f6
f9
fd
f5
ff
f9
fc
fb
ff
ff
fc
01
0c
04
ff
ff
ff
ff
00
ff
fe
ff
ff
fd
ff
00
04
fb
fe
01
fb
02
04
fd
fe
03
00
00
01
02
00
00
00
00
01
00
00
fa
04
01
f7
02
f9
fd
08
ff
f9
04
02
ff
00
04
05
00
04
03
00
00
fc
ff
ff
01
ff
fe
00
ff
fe
00
fe
00
01
fe
04
07
01
04
04
00
ff
ff
00
00
ff
01
00
ff
00
fe
ff
ff
fe
ff
fe
fd
fd
03
04
05
00
01
02
fe
ff
01
fa
fc
04
fe
04
ff
fe
03
01
02
fc
00
01
fc
fe
03
06
04
02
fc
fd
03
f8
fb
09
fe
02
00
fe
01
02
ff
00
04
00
00
fd
ff
fd
01
02
ff
02
08
06
08
05
03
02
ff
04
fb
03
03
01
00
01
01
02
01
02
02
02
fd
f7
fb
ff
fd
01
fe
fa
fe
01
01
01
02
02
01
01
02
02
ff
02
05
fb
fd
06
05
04
fe
ff
fe
ff
ff
fe
ff
fe
fd
ff
fd
fd
ff
00
00
02
01
00
01
fc
02
fc
02
02
ff
08
04
05
02
0c
02
00
03
08
05
fd
00
03
02
fc
05
05
02
03
04
04
ff
fd
fb
03
00
01
04
fe
03
fb
0b
0c
eb
f5
0b
f7
f3
fd
fd
fd
fd
01
ff
fd
01
01
01
fe
fe
ff
f7
ff
06
01
fa
ff
03
fa
f7
01
ff
fb
02
00
ff
0a
08
03
fb
00
04
00
fa
f8
fb
f8
f6
f3
f9
fc
fe
fb
fa
00
fe
ff
fc
ff
03
fe
fb
00
fc
00
03
fc
fb
06
08
01
ff
02
03
f9
00
06
05
00
05
07
09
09
09
fd
00
09
fc
00
03
00
fb
fa
03
fd
fc
04
ff
01
00
00
ff
00
00
ff
05
05
04
04
02
f7
f4
fa
02
fc
f5
f9
00
00
00
07
02
04
06
01
05
fa
05
0a
f1
f3
01
03
f7
f4
fc
fa
fc
fc
fd
fe
fb
fb
00
fb
fd
f9
01
fd
fb
04
fe
01
fe
fd
fd
fe
ff
02
fd
fe
00
fe
00
00
fd
ff
01
fd
ff
01
fd
01
00
ff
01
03
04
01
06
01
fe
00
f9
f8
02
02
f9
fd
03
05
03
fc
fe
03
00
fd
ff
00
fc
fb
00
02
ff
fe
03
03
f8
fd
07
fa
f7
03
03
fd
ff
fd
fd
ff
ff
fd
fe
02
ff
ff
02
fd
00
00
00
00
05
02
03
fa
f7
f9
f4
ef
fd
fe
ef
f6
03
04
04
03
02
03
ff
00
06
07
04
ff
fb
06
09
fa
fb
02
fc
fd
ff
fd
fd
ff
fd
fc
ff
05
05
fe
fe
06
05
00
00
04
fd
02
03
fd
fd
04
00
fb
ff
01
ff
fe
fd
01
03
fa
fd
02
f7
fa
fc
fd
00
04
ff
ff
01
fd
00
fd
ff
00
01
04
fd
03
07
fe
fa
02
06
fa
ff
04
ff
04
06
02
fe
00
05
02
fc
02
fb
fd
ff
fc
fc
ff
ff
fe
fe
f6
f9
08
fc
ee
fe
05
fb
f8
ff
03
ff
fe
02
03
fb
ff
02
ff
07
08
fd
fd
00
02
fd
fe
fb
05
00
fd
fd
ff
00
fd
03
fd
ff
fb
02
02
fa
06
0b
02
fd
fb
fd
fe
fd
fc
fe
fe
ff
03
07
03
ff
06
07
fd
00
01
ff
00
01
fd
fd
ff
fd
fc
fe
fd
fe
fe
fc
fd
01
fb
fc
ff
04
01
00
04
02
02
04
06
04
03
05
02
f3
ff
06
fb
f8
ff
fb
fa
fa
fe
fd
fb
00
01
02
03
04
ff
f7
fd
02
ff
f5
fb
fd
fb
fe
00
fe
ff
01
00
03
fd
00
fd
02
ff
fe
03
00
03
00
ff
00
f8
fa
00
00
f9
fa
ff
01
02
ff
00
02
00
ff
01
07
0a
05
05
ff
0a
04
f9
07
01
00
00
01
01
00
01
00
00
fd
fe
fe
fd
fd
00
01
ff
ff
04
03
01
04
04
03
04
02
02
00
ff
00
01
fe
fe
01
ff
fd
02
05
fd
02
03
fe
02
05
01
fd
f8
01
ff
f9
03
fd
ff
07
ff
00
00
fe
00
fc
02
00
01
fd
fd
06
fc
fe
05
fd
fe
03
f7
f7
fb
fb
ff
0b
fd
01
0a
02
01
ff
02
01
00
02
02
ff
fb
fa
fc
fc
fc
04
fc
03
04
01
ff
fd
02
00
fe
03
01
02
fe
fc
05
fd
f9
07
fe
fc
05
00
fd
fa
00
02
fe
00
09
fa
00
02
04
02
00
04
00
ff
00
fd
fc
ff
fd
fc
fe
ff
00
ff
fb
03
04
fc
ff
07
fc
01
03
fc
04
ff
fb
fa
04
02
f2
fd
03
00
fe
03
01
01
04
03
04
fe
00
ff
fd
00
01
fe
03
01
fe
f9
07
01
f8
fe
01
00
f9
01
01
00
01
ff
00
02
ff
02
f8
f3
06
f8
f6
fe
f7
fb
00
00
ff
02
fe
00
04
00
00
03
fd
fc
03
ff
fd
00
fd
04
02
ff
00
01
00
ff
01
00
ff
01
ff
00
00
ff
ff
00
00
ff
ff
fe
fe
02
00
fd
02
fb
00
02
00
fc
00
00
fc
00
01
00
fe
fe
fd
05
00
fb
02
00
fe
fd
03
02
00
03
00
ff
01
03
ff
ff
fd
fc
fe
fe
01
ff
02
02
fc
04
0b
fd
fd
04
fe
ff
fe
01
fe
fc
00
ff
fe
fd
00
02
fe
fa
01
00
fa
00
03
f9
fd
ff
fc
fa
fe
fc
fd
ff
fd
ff
fb
06
06
fa
fb
08
fc
f9
fd
00
ff
00
00
01
02
00
01
02
fb
07
0b
f9
fd
0a
fa
fc
06
ff
ff
03
fe
ff
08
fe
ff
05
fe
fe
01
ff
fe
01
ff
fd
01
fe
ff
02
fe
00
06
fd
07
07
00
02
fd
04
02
00
04
01
fe
00
03
00
02
02
02
02
00
00
fc
fc
fc
fd
f9
fb
fc
f9
fa
00
ff
ff
00
ff
00
01
ff
ff
ff
fa
fd
00
f9
02
ff
fd
06
00
00
ff
01
ff
ff
01
00
fe
fe
0b
08
fb
05
08
fb
05
02
f9
0a
06
f8
04
09
fe
03
00
fe
fe
fd
fe
fe
01
fe
fb
00
01
01
fe
01
00
fe
01
ff
fe
02
00
fc
02
fd
ff
01
fc
fc
ff
fe
00
ff
fe
ff
ff
ff
ff
03
02
02
02
02
04
03
01
04
00
01
03
00
02
04
00
ff
04
f8
02
0a
fb
f8
09
fd
f9
fa
01
00
fe
03
01
fe
01
05
ff
fd
fd
03
fd
f9
fc
fe
fd
ff
02
07
02
02
05
03
ff
04
00
00
00
01
01
00
01
fe
02
03
04
fc
01
04
fc
06
06
fc
01
00
00
01
ff
ff
ff
00
00
ff
ff
f9
01
ff
f7
00
04
fa
ff
00
00
00
ff
00
00
ff
00
00
fd
ff
02
fd
00
fd
03
fe
fb
fd
fe
ff
fe
00
00
fd
01
02
01
01
00
ff
ff
ff
ff
00
02
f6
fa
00
fa
f5
ff
02
fe
03
03
07
03
01
03
01
fc
fc
03
fb
fa
fb
fa
fa
fb
09
07
ff
0a
08
04
01
00
01
f8
f8
fb
fe
f9
f8
fa
f9
f8
f0
f8
01
fe
fd
00
01
fe
ff
00
02
05
fd
fd
fd
ff
fc
02
fd
01
07
f7
fb
02
fa
fe
02
04
03
03
f8
f8
f9
00
fa
03
f8
f5
fe
f6
f8
ff
f8
01
0b
ff
02
06
04
02
00
00
04
ff
ff
fe
fc
ff
00
02
02
08
03
04
05
00
fc
fe
fd
fb
fc
00
03
04
08
03
00
fb
09
04
fc
0a
06
04
f7
f8
00
f9
fa
fd
06
03
01
fb
fc
00
f7
f6
fd
00
06
09
04
06
02
01
ff
07
00
ff
07
fd
ff
02
01
00
00
04
08
02
09
04
06
ff
0a
07
ff
01
01
fd
fe
ff
fd
fc
ff
fd
fd
00
fa
fc
fd
ff
f7
ff
05
fe
09
02
00
01
04
03
01
01
01
ff
ff
fe
ff
01
00
00
ff
00
01
02
05
04
02
fd
00
ff
fa
01
03
01
03
00
03
03
03
02
01
02
03
00
00
04
03
ff
fd
00
fb
fa
01
fa
fa
fe
00
ff
02
ff
fe
fb
00
00
00
fc
01
02
07
07
00
07
07
07
fc
ff
00
fe
ff
06
00
01
02
04
00
00
00
03
05
ff
02
01
05
fb
00
f7
f8
ff
fc
00
02
00
03
02
04
03
ff
05
05
ff
03
03
01
fd
fe
ff
fe
ff
00
fe
ff
00
fd
01
fe
00
ff
fa
fe
00
02
07
05
00
05
05
ff
fd
ff
ff
fc
fb
fb
fc
fa
fa
fe
fd
fc
fb
fb
fe
f7
f3
f8
f6
f7
fe
f2
f8
fd
f4
f3
fc
fa
fc
fe
fa
ff
0b
f4
f1
fa
fe
ef
f5
fd
fd
ff
fd
fe
02
03
03
05
fe
fd
ff
00
01
01
00
fe
02
02
03
00
05
06
01
02
ff
04
fc
fd
fd
00
fe
ff
fe
01
01
04
fe
fb
06
04
01
fe
07
03
fc
fe
fe
00
fa
fe
fb
fc
04
05
05
01
08
02
05
02
fe
fd
fe
ff
ff
ff
ff
ff
ff
00
00
fd
fe
fb
02
04
03
03
04
05
ff
ff
ff
00
00
ff
ff
00
00
fb
fd
fe
fd
00
fe
fd
01
00
01
02
04
fa
fc
fc
f8
f7
f9
07
09
00
05
07
01
02
01
01
f7
fa
01
fc
f9
01
02
05
09
fc
fa
fc
fd
fb
fb
ff
fc
00
f8
f9
00
f7
f8
00
fc
00
02
fd
fe
fb
fe
f5
fc
07
fe
08
ff
02
0a
fc
01
05
00
fb
fc
ff
00
02
00
00
00
01
00
00
f6
fc
fb
fe
fb
fe
07
ff
06
00
00
00
00
00
00
00
00
00
00
00
00
00
00
00
00
00
00
00
00
00
00
00
00
00
00
00
00
00
00
00
00
00
00
00
00
00
00
00
00
00
00
00
00
00
00
00
00
00
00
00
00
00
00
00
00
00
00
00
00
00
00
00
00
00
00
00
00
00
00
00
00
00
00
00
00
00
00
00
00
00
00
00
00
00
00
00
00
00
00
00
00
00
00
00
00
00
00
00
00
00
00
00
00
00
00
00
00
00
00
00
00
00
00
00
00
00
00
00
00
00
00
00
00
00
00
00
00
00
00
00
00
00
00
00
00
00
00
00
00
00
00
00
00
00
00
00
00
00
00
00
00
00
00
00
00
00
00
00
00
00
00
00
00
00
00
00
00
00
00
00
00
00
00
00
00
00
00
00
00
00
00
00
00
00
00
00
00
00
00
00
00
00
00
00
00
00
00
00
00
00
00
00
00
00
00
00
00
00
00
00
00
00
00
00
00
00
00
00
00
00
00
00
00
00
00
00
00
00
00
00
00
00
00
00
00
00
00
00
00
00
00
00
00
00
00
00
00
00
00
00
00
00
00
00
00
00
00
00
00
00
00
00
00
00
00
00
00
00
00
00
00
00
00
00
00
00
00
00
00
00
00
00
00
00
00
00
00
00
00
00
00
00
00
00
00
00
00
00
00
00
00
00
00
00
00
00
00
00
00
00
00
00
00
00
00
00
00
00
00
00
00
00
00
00
00
00
00
00
00
00
00
00
00
00
00
00
00
00
00
00
00
00
00
00
00
00
00
00
00
00
00
00
00
00
00
00
00
00
00
00
00
00
00
00
00
00
00
00
00
00
00
00
00
00
00
00
00
00
00
00
00
00
00
00
00
00
00
00
00
00
00
00
00
00
00
00
00
00
00
00
00
00
00
00
00
00
00
00
00
00
00
00
00
00
00
00
00
00
00
00
00
00
00
00
00
00
00
00
00
00
00
00
00
00
00
00
00
00
00
00
00
00
00
00
00
00
00
00
00
00
00
00
00
00
00
00
00
00
00
00
00
00
00
00
00
00
00
00
00
00
00
00
00
00
00
00
00
00
00
00
00
00
00
00
00
00
00
00
00
00
00
00
00
00
00
00
00
00
00
00
00
00
00
00
00
00
00
00
00
00
00
00
00
00
00
00
00
00
00
00
00
00
00
00
00
00
00
00
00
00
00
00
00
00
00
00
00
00
00
00
00
00
00
00
00
00
00
00
00
00
00
00
00
00
00
00
00
00
00
00
00
00
00
00
00
00
00
00
00
00
00
00
00
00
00
00
00
00
ff
00
00
ff
00
00
07
02
fb
04
02
fd
ff
01
ff
fe
fe
00
fd
fe
ff
fd
fd
ff
01
ff
00
00
02
01
01
01
01
fd
fe
fd
ff
02
00
ff
02
01
03
ff
fa
06
01
ff
06
01
fe
fd
f9
fe
fe
00
03
ff
00
05
01
fb
fc
04
fe
fe
06
00
00
03
02
01
fd
fa
fd
03
fd
fc
02
ff
00
02
01
01
01
01
01
02
ff
f8
00
ff
ff
01
fe
fe
00
00
fe
02
03
01
00
01
ff
0c
0b
05
04
02
ff
05
02
fc
fb
f8
f8
fa
fb
fc
fc
fd
ff
01
01
00
03
01
ff
00
00
ff
04
03
ff
03
02
ff
ff
ff
ff
fc
fe
00
fd
01
00
00
01
01
ff
fe
00
f6
f9
fc
f7
fb
fa
fd
fd
fe
00
00
01
00
01
01
00
03
01
ff
04
01
01
05
01
01
ff
f9
05
02
fe
fd
00
fd
01
fe
ff
00
03
01
ff
01
01
08
06
03
01
01
fd
ff
00
fc
ff
ff
00
ff
fe
00
ff
fe
ff
fe
00
02
fd
01
05
00
04
04
ff
00
00
02
01
01
01
01
01
01
00
01
00
ff
01
ff
ff
00
00
ff
03
ff
02
07
02
03
06
00
00
fd
04
00
ff
02
00
ff
02
02
02
02
01
ff
01
00
ff
00
01
02
02
05
03
01
05
01
06
03
fe
ff
ff
fe
01
ff
fd
f8
f8
fd
fe
fa
fd
00
fd
00
ff
fe
00
01
00
01
00
00
00
fd
f9
f8
02
fb
fa
fb
fc
fc
01
00
01
fe
00
01
ff
00
02
ff
01
ff
02
04
01
01
01
fe
00
ff
01
00
fe
00
00
fe
ff
fd
fe
01
fe
00
03
00
02
02
05
01
00
02
02
ff
00
01
fe
02
02
02
00
01
02
ff
ff
00
fe
fb
f8
fc
fe
ff
fd
fd
fd
00
00
00
02
03
02
02
03
02
fa
ff
ff
fc
03
01
ff
06
01
fc
fb
fe
fe
fe
00
fd
ff
01
ff
00
00
00
fe
ff
fe
fe
fe
0a
03
fe
ff
ff
fd
04
02
fc
fe
00
03
00
00
02
ff
fe
00
0d
09
0a
fe
ff
00
03
01
04
fd
fb
00
fa
f8
fd
fd
fd
fc
fb
fe
fd
f9
fd
fc
fa
fe
fc
00
00
ff
01
00
ff
01
00
ff
ff
fe
fd
ff
00
ff
fd
fe
fe
ff
ff
01
ff
fe
ff
fe
fd
fe
ff
ff
00
fe
fd
ff
fd
fc
fe
02
00
fc
02
01
fd
02
02
ff
00
00
ff
01
00
00
01
fe
fe
ff
ff
00
01
04
01
02
05
01
fd
fd
04
fd
fc
04
00
00
08
fd
fe
01
fe
00
02
ff
01
02
fc
01
02
fd
04
04
fd
05
04
01
05
03
fe
06
fe
ff
06
fd
00
01
03
00
00
02
ff
ff
01
f7
fa
f9
f7
fd
fa
fc
fd
fc
01
01
01
01
01
01
01
01
00
01
04
00
00
02
fe
02
03
01
fe
fd
ff
fe
fd
ff
ff
fe
00
01
ff
fd
fe
fe
00
fd
fc
fd
04
04
02
02
03
00
01
00
fd
fe
01
fd
fc
00
fb
fd
00
ff
01
ff
fd
01
00
fd
03
00
fc
fe
fe
ff
fe
ff
02
ff
fd
ff
01
01
fa
01
01
fe
01
01
00
00
02
01
01
02
01
01
01
00
02
ff
fc
01
01
fe
00
ff
01
00
03
03
03
03
02
01
01
01
ff
00
01
ff
fd
fe
ff
00
00
ff
02
01
04
01
03
05
ff
01
00
ff
fd
00
00
01
00
01
01
03
02
00
02
02
00
00
02
02
fb
fc
fb
f9
fb
f9
fd
f9
f8
04
00
03
01
02
01
00
02
02
02
02
03
03
02
04
00
01
02
fd
fa
fb
fa
fa
fb
fe
f9
fa
fc
01
fd
03
06
05
02
06
05
04
00
ff
03
00
ff
03
03
ff
03
01
00
02
01
fe
06
02
04
00
ff
00
02
ff
00
01
00
01
fb
fe
ff
f8
fe
f9
fd
fc
fa
fe
fc
ff
fe
fd
fe
ff
00
ff
ff
ff
00
00
01
01
ff
ff
ff
fb
ff
fc
f9
00
f9
fd
ff
fa
ff
ff
ff
02
02
04
ff
00
02
fe
fe
fe
ff
fe
ff
00
00
ff
ff
fe
fe
ff
ff
00
00
00
fe
07
03
fe
03
03
01
02
03
02
01
fc
ff
ff
fd
fd
00
fe
00
fb
01
02
fe
02
03
fc
02
03
ff
07
02
03
05
00
fd
00
00
02
ff
04
00
ff
04
00
00
04
fc
f5
f8
fa
f9
fb
fb
fc
fb
01
00
00
00
01
00
01
00
01
f9
f7
f8
f7
fb
f7
f9
fa
f7
00
fe
fc
fd
fe
fd
ff
01
00
ff
fd
fc
ff
fd
fd
00
ff
fe
ff
fe
fe
fd
fe
fc
fe
fc
fd
01
00
fe
02
ff
00
00
01
fe
fc
fc
ff
fa
00
ff
fb
ff
fb
05
ff
fd
06
01
fe
06
05
01
01
fe
fe
02
02
01
00
ff
fe
07
04
01
ff
03
02
fd
01
03
fd
fe
fe
fe
ff
ff
fe
ff
ff
05
02
fb
03
ff
f9
01
02
ff
05
fe
fc
02
fc
f7
fe
fc
fe
00
02
fd
00
03
01
02
05
03
01
00
00
01
01
01
01
01
01
fd
fd
fe
ff
fe
fe
00
01
02
00
ff
ff
01
00
ff
01
00
ff
00
ff
01
01
ff
01
01
01
02
fe
fe
ff
ff
fe
01
fe
fd
fd
fb
fa
f8
fb
fb
fb
ff
ff
fb
fc
fe
ff
fc
fd
fe
fe
fd
fd
00
02
00
03
05
ff
00
00
fd
ff
fe
fe
00
fe
ff
fe
fe
fe
f8
fb
fc
f7
fd
fa
fd
fb
fa
fc
03
04
f8
01
02
fb
03
04
02
01
00
02
02
00
03
02
01
04
fe
00
04
04
fb
01
04
ff
00
00
00
01
00
00
01
01
00
fc
f9
fe
ff
fc
fb
03
02
04
fd
fd
ff
ff
ff
00
02
00
00
fe
fe
ff
00
ff
ff
fe
ff
02
fa
fa
02
f8
f9
00
fe
f9
fe
fa
fa
04
fa
fe
ff
fa
fb
01
fd
fe
02
ff
ff
03
04
ff
ff
fe
fe
fe
ff
ff
ff
00
00
00
f9
fd
00
02
ff
fc
01
07
06
00
fe
00
00
ff
00
00
ff
01
f9
fc
fe
f4
f6
f8
f6
f6
fd
00
00
fc
fd
01
00
fa
fe
00
05
fb
f7
0b
06
fc
ff
08
08
f9
fe
fe
f8
f4
fe
fc
f9
04
fe
fd
fc
00
fe
ff
01
00
fe
fa
f8
fd
fd
f7
f8
06
ff
fb
02
02
05
07
01
05
05
06
00
00
00
01
04
02
ff
06
07
04
01
00
fe
00
00
fe
00
00
00
f6
fb
01
f3
f4
fc
f7
f9
01
f0
f9
01
f4
ee
fd
05
f9
fe
04
03
00
04
03
ff
04
06
00
f6
f8
ff
fb
f1
f3
0a
03
fb
fc
fc
fd
fd
fc
00
01
fe
02
05
fe
fe
ff
fa
fa
00
f8
fe
01
01
01
01
01
03
02
ff
00
ff
00
00
01
01
01
02
02
04
fe
fc
00
fc
f8
fc
07
fc
00
fc
fc
fe
fd
fa
fd
fd
fd
ff
01
01
03
07
05
00
00
06
04
fe
01
ff
01
01
01
01
06
03
fc
fd
00
fa
fc
fc
fb
fb
01
02
ff
ff
01
01
ff
02
03
02
fd
fe
f9
f8
fc
fd
f8
f7
fb
fd
fa
02
fc
fb
01
fc
ff
ff
fc
ff
01
f8
fd
02
fa
fa
ff
fc
03
05
06
03
04
04
07
01
ff
fe
fe
00
ff
ff
00
01
00
03
02
04
0a
03
02
07
08
fe
fa
ff
ff
fb
fb
fe
03
fd
ff
fd
fd
fd
ff
ff
fd
00
ff
fe
00
fd
fa
fc
f9
f9
02
fb
ff
fb
00
06
fa
fe
01
fe
00
03
03
fb
f9
07
01
fe
02
07
07
02
02
04
04
04
ff
01
07
01
00
fe
ff
02
ff
ff
01
00
02
fe
fc
ff
ff
fd
fc
fe
fc
02
01
01
01
02
00
ff
01
02
00
02
fa
01
fe
f9
f7
0b
fa
f7
fd
00
02
ff
ff
01
fd
fd
02
02
01
fe
04
00
fe
09
00
04
00
00
00
00
00
01
ff
00
01
ff
04
09
02
03
02
fb
06
06
01
ff
fe
03
01
00
04
03
02
01
ff
fe
04
00
00
07
02
01
fe
fe
ff
fc
fd
ff
fc
00
ff
ff
02
05
09
04
04
07
0a
02
fb
fd
00
fc
fc
00
fd
ff
01
01
ff
01
fa
f9
fe
fd
f7
01
01
02
ff
03
03
02
04
06
04
07
fe
fd
02
ff
fb
03
00
03
04
02
ff
fb
ff
fe
fa
fd
04
00
fe
fc
01
ff
fc
03
01
ff
04
03
05
05
08
08
05
0b
09
fe
fe
fe
fe
fe
fe
fe
fe
fe
fe
0b
0f
f5
09
0e
f8
fe
01
fd
fc
fc
fd
fb
fc
fe
fe
fe
fb
ff
fc
fa
fd
ff
ff
fd
fa
0a
04
00
0d
01
fe
fe
f8
01
f7
01
07
00
06
01
fe
0d
02
0c
fe
02
0f
09
fa
08
fe
f5
ff
f8
fb
ff
06
fb
04
0a
03
f8
02
07
f8
07
01
ff
07
fa
fe
fb
fe
ff
fc
02
fc
ff
04
02
fe
fe
fd
09
05
f6
05
03
05
09
02
02
ff
01
01
f7
ff
f8
0f
10
ed
fd
12
f6
ec
f4
00
fc
fe
f4
f5
fc
ff
f5
fd
fd
01
ff
f9
03
05
fe
02
05
ff
06
05
fd
06
09
fa
ff
06
05
02
01
07
ff
fd
07
f9
fa
fb
fd
fe
fb
f8
01
ff
fc
fe
06
02
01
06
01
fe
01
f9
fe
08
00
fc
04
ff
fe
02
03
00
fa
ff
f9
fd
fa
fe
ff
08
07
09
00
02
10
06
ff
05
02
04
f8
fc
fc
f5
fb
01
f8
fb
03
fc
ff
fd
fe
fe
fc
02
01
fe
04
00
ff
03
fb
fd
fb
f8
f9
fc
fd
ff
fe
fe
fe
fe
ff
01
fd
fe
fe
fd
fb
ff
fc
fe
00
fc
00
fc
00
03
00
f9
05
04
fb
05
03
f3
00
07
f8
fc
02
fb
0b
0a
f7
02
05
fe
fd
fa
03
03
01
04
00
05
00
fe
02
03
fe
05
00
05
05
fe
08
06
fd
01
fe
fa
00
fb
fe
02
fd
fe
fd
fe
ff
00
fe
fc
00
06
04
06
fb
fa
04
fe
ff
fb
00
f2
f4
fc
f1
ed
f3
f0
f0
f5
fd
04
00
fc
03
07
03
02
fd
01
00
ff
ff
fd
fe
ff
fe
ff
02
08
00
04
03
fd
07
fe
f8
fe
02
02
f9
07
08
fd
08
09
00
04
01
fc
ff
01
fb
fa
fe
ff
fa
fe
fb
04
07
f7
01
00
02
02
02
0b
01
fd
03
fb
fe
02
08
00
f8
02
06
f7
f8
00
03
f9
ff
0f
03
f9
0b
05
f9
fc
fd
fe
fc
fa
fc
f9
fa
ff
fb
fb
fd
f8
04
0a
fa
0a
10
f3
f7
fc
f5
f6
f7
f8
f8
f9
01
f4
fa
0b
04
f9
05
0e
01
07
00
fc
02
fd
01
fd
fc
05
04
f7
05
07
f6
f3
0a
ff
f9
fc
fa
ff
fd
fc
ff
fe
fd
00
fd
fc
05
03
03
03
0b
04
fa
fd
ff
ff
fd
fd
fd
fc
fc
fe
fd
fe
fc
fe
fd
fc
ff
fd
fd
ff
03
01
fc
fd
fe
f9
f7
ff
fe
0c
04
fa
05
04
01
ff
fc
05
00
ff
03
fc
fe
ff
f9
fc
05
04
f6
06
02
fc
00
fa
fc
05
03
04
04
03
ff
02
03
ff
04
03
05
04
00
00
ff
fd
fc
fa
01
03
f4
f9
fe
fc
03
03
fa
fd
00
fb
fc
fd
fc
fc
fd
ff
fc
05
fd
f3
fc
fb
f4
f7
ff
fe
ff
fe
fd
fe
fe
fe
ff
03
05
06
fa
0e
0a
01
05
04
fc
fb
fc
fd
ff
fe
fe
02
ff
fc
fa
f7
f7
f9
fd
fd
fb
fc
f9
f0
fb
f6
f0
fc
ff
f9
00
fd
fd
01
00
03
00
07
09
03
fc
f8
f3
03
fd
f7
00
07
02
02
f2
ef
02
ee
e7
02
ff
f5
fb
01
09
0b
09
fd
f9
fa
03
fc
f9
fc
fb
f8
fc
fe
fd
03
fd
04
04
f1
fa
05
fd
05
04
08
ff
fe
fa
fd
fe
06
04
05
0d
02
f9
01
0a
fd
01
04
01
0b
01
03
f5
fc
05
fc
02
03
f8
01
00
f4
ff
03
fa
fc
03
fb
04
03
f9
04
06
00
01
00
f9
f8
09
fd
f9
00
f8
fa
00
fb
fe
0a
11
08
fd
03
05
01
ff
ff
fb
fd
f8
f8
00
03
01
fa
ff
01
f8
f5
00
fc
fe
05
08
08
ff
fa
01
0a
fe
0a
08
f8
f6
05
01
03
ff
fb
ff
06
02
09
09
fd
10
06
fd
03
05
fe
fb
f7
01
f8
f5
00
00
fa
02
fb
f9
f4
f8
01
fd
ff
fe
fd
f9
f8
fd
fb
f9
02
ff
00
fd
fc
ff
ff
fd
ff
00
01
03
f4
f3
f7
f7
fd
f9
03
00
ff
fd
04
06
f4
00
06
fb
fb
03
fc
00
08
f9
01
04
fa
fa
fd
f7
f7
fe
fa
fd
04
ff
02
06
f4
02
03
fd
fa
00
f9
f8
fd
fc
f3
f8
fc
f7
f5
04
fb
fe
00
fe
fc
f6
ef
f9
01
fa
04
03
00
fc
fe
fd
01
fd
03
01
02
fd
ff
fe
fe
fb
fd
fe
f9
f3
01
0c
fd
07
02
f3
fa
05
fe
fb
fb
fc
fc
fd
fe
fe
ff
f8
02
03
0a
04
ff
fa
01
04
01
0a
08
09
0c
09
08
06
06
01
00
ff
ff
f9
fa
07
04
04
04
03
f9
f5
f9
fb
05
07
01
03
01
05
f2
f6
ff
fc
fe
07
fe
f8
f8
02
fa
fb
fd
fa
fe
00
f9
fe
0b
04
fc
fe
01
06
04
f8
f9
fc
fa
fd
01
01
03
f0
fe
03
00
ff
fd
fe
fa
fc
f9
f3
fa
03
f9
f5
08
06
02
fc
ff
00
02
00
fb
08
04
f7
04
08
02
04
ff
06
f9
ff
fc
06
08
f9
00
f4
f5
04
fe
f1
fb
fa
fc
fd
fc
fe
fe
fe
01
fb
f4
fd
09
ff
f8
fd
03
01
02
ff
fe
03
00
ff
01
00
00
fa
f9
f9
ff
fd
fc
ff
01
fe
0d
fa
f4
02
f6
ef
0f
00
f4
f1
05
0e
fe
08
04
f0
f2
fb
f9
f5
fd
f7
f7
01
fa
fc
04
06
fe
fa
04
00
04
05
08
08
fa
f9
fd
fb
f9
01
fd
fc
02
fe
fd
fe
f5
f8
f9
fb
fa
00
06
08
fe
02
02
04
01
02
00
04
00
fd
06
02
fe
07
04
00
fb
00
0c
07
04
01
f4
03
04
00
01
00
fe
ff
ff
fd
fd
fe
04
04
02
0a
10
05
05
07
06
fb
fa
fe
f8
f9
fe
fb
fc
01
00
ff
fe
05
01
fd
01
f9
f6
fc
02
05
00
04
09
fb
07
06
05
fa
f2
07
f2
e9
11
07
f9
06
fc
f5
06
fc
fc
03
fd
02
fe
00
fb
06
02
fc
09
04
00
01
fe
f8
02
fa
04
04
08
06
ff
fe
03
fd
fb
ff
fc
fe
fd
02
01
fe
05
06
fc
03
0d
00
fe
fc
fa
f6
f9
00
fb
02
09
f7
f6
f6
ef
03
00
f2
09
11
00
02
02
fc
02
0d
fa
06
0b
03
00
ff
06
06
05
fe
fe
fe
03
02
01
01
00
fd
fa
fe
fb
fc
ff
02
fb
fe
07
f9
fe
00
f9
06
0a
fe
08
0b
ff
f0
ff
08
03
00
01
fd
fd
fe
fc
fd
00
02
01
fd
02
fc
01
01
fa
02
03
07
0a
05
04
00
fe
ff
05
00
fc
06
00
01
0c
ff
fb
fd
02
05
fb
01
06
fe
fd
fa
03
01
01
02
ff
fe
00
fd
fd
ff
fa
07
fc
fe
fc
fa
fa
f9
06
fd
fe
00
f9
fa
00
fe
ff
ff
fd
00
fd
fc
fe
fa
fa
fd
00
fc
03
ff
fb
fb
03
fd
fd
09
07
06
06
07
01
fa
fd
fa
0a
02
01
06
03
fe
ff
fa
fb
ff
fe
fc
01
ff
fb
00
02
ff
fc
fe
fd
fa
05
09
00
ff
fd
09
fd
fd
04
f3
f3
fe
f1
fb
f9
02
fe
ff
03
fd
fd
fa
f9
06
ff
f8
06
ff
f6
0d
07
04
f3
f6
fd
f7
01
01
fc
0a
0a
06
07
01
09
07
fc
07
fc
fd
ff
fd
ff
fc
fe
fe
fc
fb
fa
03
fa
02
fd
fa
fa
01
fc
fa
02
09
01
01
04
fb
07
01
f6
f8
f8
f9
fa
f8
fc
f7
f8
fa
03
fd
00
06
05
01
03
02
07
04
05
ff
ff
f1
fb
ff
f7
04
fb
03
01
f9
0a
04
07
0f
04
ff
f9
f6
01
f3
f6
01
f4
fa
fc
fc
fd
fc
fc
fc
fa
f5
f9
07
04
fc
03
08
f9
0c
07
f5
fc
fa
fd
f9
f9
f9
f9
fc
fc
fc
f7
0d
f7
fc
1b
04
fd
03
02
0b
fc
fd
0d
f2
fb
ff
fe
de
ed
05
e5
f9
27
e2
fc
27
01
ff
fe
01
ff
fe
01
fd
fe
fb
ff
00
ff
01
01
fe
f9
05
fd
ff
01
fd
fe
00
fe
fd
00
fd
fc
00
fc
fc
00
fb
fb
00
f8
fc
fa
fc
fb
fc
fc
00
03
0b
fe
02
04
fe
04
06
f7
f9
ff
f9
ff
00
f7
fc
fa
fe
fc
01
f5
07
fa
ea
00
fa
ed
f8
03
ff
fe
01
fc
fe
02
fb
02
03
fd
01
ff
06
01
02
00
fc
f6
f4
01
f9
0a
07
02
ff
01
ff
ff
01
fc
fc
fe
ff
fc
ff
fd
fa
00
ff
ff
fd
00
02
09
00
00
ff
00
ff
ff
01
00
00
01
fc
fd
06
fd
fc
09
04
fd
02
00
00
04
01
ff
04
02
ff
fe
ff
ff
00
02
01
fe
01
01
f7
f7
03
fa
f8
fe
ff
fd
01
03
03
05
fa
00
07
f4
fb
fd
f7
f9
fb
f9
fb
fc
fd
fe
fc
fc
01
04
fc
03
05
fc
04
03
02
00
06
04
f9
fa
06
04
fd
ff
ff
00
fe
fe
ff
fd
02
02
03
01
06
01
f8
01
03
fb
fd
fe
fb
ff
01
fa
fb
01
fe
fc
05
f8
f8
14
01
f5
0b
07
fd
fe
fb
00
08
f8
f7
07
02
fd
00
01
04
03
fe
fe
01
fc
fa
07
02
ff
06
fd
fc
05
ff
fb
fc
fa
ff
02
00
03
03
02
02
01
f3
f9
06
fc
f8
0a
0b
ff
fc
f9
01
00
f9
fb
00
fd
fd
fd
fe
05
ff
fa
02
03
ff
03
fc
fe
06
00
f6
fe
04
fc
f7
fb
fa
02
fc
fd
ff
ff
fc
fc
06
01
04
05
fa
f9
07
02
fd
fc
fd
ff
00
fc
fd
01
fc
fe
fd
fd
fe
00
ff
fb
00
03
04
01
00
00
02
00
ff
ff
fe
00
fd
fd
ff
fe
fd
ff
ff
fe
fe
ff
00
05
ff
00
fe
fb
03
02
fe
ff
05
06
fc
fb
00
fa
f9
01
00
03
08
02
fe
02
01
fe
fa
f9
fe
fd
fa
fe
00
fe
00
02
fd
02
04
fc
fd
ff
fc
fd
03
01
f9
03
03
fc
f7
fe
fe
05
02
03
02
fc
00
03
ff
01
fd
fd
00
ff
f9
fc
f9
fb
fe
04
ff
01
04
03
fd
06
01
fe
01
03
07
07
03
04
03
ff
fd
00
00
fe
02
01
fe
00
00
ff
01
01
04
03
03
03
fd
02
01
02
03
04
01
fb
00
fd
f8
fb
fe
fd
01
fd
fc
fe
fd
fc
fc
02
01
00
03
00
00
08
04
04
fb
fc
07
02
fa
fe
00
fd
fa
f1
f6
fe
fd
f3
fd
0b
04
05
f7
f8
04
f9
fc
01
fd
fd
fd
fc
fc
fe
00
00
ff
00
ff
ff
03
ff
02
05
fd
f9
fe
fd
fc
fb
00
04
fa
00
05
fa
fe
03
0c
ff
fd
05
02
fd
07
fe
fb
f9
ff
08
00
f9
00
f9
00
07
ff
fa
fe
00
f7
f9
07
ff
fa
01
00
fe
01
01
fe
ff
01
fd
01
ff
01
05
06
03
00
03
02
fd
fc
fe
ff
fe
fe
00
ff
fe
fe
fe
ff
03
00
fe
04
00
fe
fd
05
07
00
07
08
fe
07
09
01
03
06
08
01
02
02
ff
fb
fd
fd
ff
fd
fc
ff
ff
01
04
02
fe
06
01
fb
f9
06
05
01
fd
fd
fd
01
fe
fd
01
02
fb
fa
f5
f9
fd
fb
fa
04
03
ff
06
fe
03
02
fa
fa
02
00
fd
fe
fd
fd
00
00
fe
01
00
fe
f9
f9
ff
ff
03
fc
06
05
ff
00
01
01
00
00
00
00
00
00
05
03
fc
03
02
fe
00
fe
fd
00
01
ff
fe
00
fe
ff
01
fe
ff
00
ff
fc
fc
fe
01
00
00
fb
00
01
fc
04
06
02
01
07
ff
fb
ff
01
fe
fd
01
fc
fc
f9
fe
fc
f6
01
06
f7
ff
02
fe
fc
02
fd
f7
fd
00
f9
ff
00
01
fe
08
05
fc
00
fb
fd
ff
01
ff
fd
fe
fd
ff
00
ff
ff
fd
fc
08
06
fd
00
02
ff
fe
ff
fe
ff
00
fe
04
06
fe
01
02
05
03
00
02
02
04
04
fa
01
01
fa
fd
fd
02
0f
0b
01
01
fe
02
00
fc
05
05
00
05
03
fd
02
03
ff
01
02
00
ff
ff
fe
f7
fb
02
fb
00
04
fd
03
01
ff
09
0e
f6
fb
02
fe
02
fd
fc
ff
ff
02
04
00
ff
fd
fb
ff
01
ff
f9
fd
01
fa
03
02
f8
00
02
f9
03
09
ff
01
01
fd
03
03
ff
01
01
01
05
01
ff
00
fc
f7
04
fc
02
00
02
ff
fe
ff
00
01
00
fb
fb
fe
fa
fc
fd
f9
fd
00
fe
fe
fe
01
00
ff
00
00
fc
ff
00
00
fd
fd
ff
fe
ff
fe
00
fc
fa
fd
fd
fd
01
fa
fc
06
06
fd
fe
02
fa
0a
0f
03
03
03
01
fe
01
00
03
07
01
fc
fd
fb
f9
fd
fe
fa
ff
00
04
02
ff
08
08
01
ff
ff
ff
fb
fb
02
fe
fc
00
fc
f9
fd
ff
ff
fe
fd
fa
f9
04
01
fb
ff
fd
02
fc
fb
00
02
04
01
03
04
fe
02
01
ff
03
03
fd
02
01
02
ff
fe
fc
06
07
01
00
00
00
ff
ff
fe
00
ff
fd
ff
fd
01
fb
fb
00
01
fd
03
04
04
00
04
03
fd
03
02
fc
01
00
00
ff
fe
fd
fd
fa
fb
01
00
02
ff
fe
fe
01
02
01
fd
fc
fb
fe
fe
fe
05
01
00
fb
04
00
fa
00
fc
fb
06
01
fa
ff
01
fc
fd
01
fd
fc
00
00
00
ff
fe
fc
ff
00
00
00
03
03
01
08
07
00
ff
00
fe
00
ff
01
ff
fe
00
ff
fd
fe
03
05
0b
fc
01
0a
fc
ff
09
fc
02
03
fa
04
04
03
05
04
00
fb
01
f9
f5
fd
fa
f8
ff
ff
ff
00
00
00
01
00
00
01
fd
fe
02
fc
fc
01
fb
fe
01
01
01
01
00
00
00
00
00
00
00
00
00
fd
ff
fd
fe
00
fd
01
02
04
02
fe
fe
01
fe
fe
06
04
ff
fe
01
fa
05
09
01
fc
fe
fc
f7
fc
fe
f9
ff
02
fc
fe
fe
fb
fe
02
f8
fb
02
fe
00
01
fc
fd
02
ff
01
04
fc
fa
00
f9
f7
00
f9
fa
00
00
fe
fd
00
ff
f8
00
03
fa
fd
fd
00
fc
fd
00
fc
fd
01
fa
01
01
f8
04
04
f9
00
01
00
00
00
00
00
00
ff
ff
00
fa
02
03
f9
fd
08
f8
01
09
ff
01
01
ff
02
03
fe
01
01
03
00
ff
fe
fe
00
04
02
00
07
01
fd
fc
fc
f8
fb
f9
fb
fb
f5
f9
f5
f1
00
f7
f8
00
05
02
fb
ff
f9
fb
fe
ff
fc
0f
05
ff
05
fc
f9
ff
fa
f5
fb
fa
03
f5
02
06
01
09
05
03
01
fd
01
01
fe
fd
00
fd
06
0a
08
fe
03
03
fd
01
ff
02
f9
fe
fb
fe
00
fa
fe
01
06
fc
ff
fd
f8
fd
fd
fd
fd
ff
04
06
01
06
07
fe
00
01
02
04
05
fd
ff
01
fb
02
03
f6
01
07
f9
00
0b
f7
02
0a
fc
fd
ff
00
ff
01
04
03
fd
f9
01
05
f3
fa
ff
fe
09
03
09
04
00
06
05
02
03
01
01
06
01
fd
01
f9
fa
f9
f2
f2
01
fd
ff
fa
f3
05
f7
f6
01
06
05
01
ff
01
fe
01
01
fd
f2
f9
08
f7
fc
04
f6
ff
06
03
02
fd
05
00
fd
03
00
fd
08
0b
fd
06
00
fd
03
f7
f5
fe
00
ff
fe
ff
00
ff
ff
fe
01
02
ff
02
02
01
01
00
ff
04
fe
f5
02
f6
f7
fc
f5
f9
07
07
07
03
06
0a
f9
03
07
f8
f9
01
f9
fd
04
f9
02
04
01
fd
fa
fd
f8
fb
fb
f9
f8
fd
05
05
f5
00
03
fb
07
03
02
f7
f5
f8
f1
f3
f9
f3
f4
07
09
03
06
08
01
03
01
00
0c
05
fd
03
fc
fc
02
fe
fb
fd
04
02
fd
05
06
03
0b
08
f3
fa
08
f8
ff
0a
00
09
07
fc
00
01
ff
00
03
fe
ff
01
fc
fe
fc
fc
fb
fc
02
01
02
f8
01
06
f8
fe
09
fa
03
03
03
03
00
04
01
fe
00
01
ff
00
00
fc
fc
01
00
00
00
f8
00
f8
fd
f7
fd
00
f8
fc
02
0d
06
f7
0f
fe
f8
0b
fd
f5
fe
fc
ff
fa
fe
00
00
00
00
02
04
00
00
02
02
ff
ff
ff
07
06
06
fc
fd
02
f9
01
01
05
05
fe
03
01
fd
04
ff
fb
02
fd
02
fe
f9
fb
01
00
04
10
03
00
0c
fa
fb
0e
fd
00
02
fc
f5
fd
f7
f5
fe
fc
f7
fc
01
00
fc
ff
00
fc
ff
01
f8
fd
fe
fd
fe
03
04
06
02
04
04
02
05
04
01
03
03
01
02
01
00
03
02
02
03
02
01
08
00
fa
07
ff
fc
05
01
fd
f5
fa
06
f7
02
08
00
0a
08
07
01
fc
04
ff
02
fe
fb
fa
04
07
01
f5
f9
f9
f3
f3
fd
fa
ff
fc
fb
fd
fc
ff
fe
fb
04
0e
fb
0a
03
f6
06
fb
f2
01
07
01
07
0a
04
08
06
fc
ff
ff
fd
ff
fd
fa
ff
fc
fa
fb
f0
f9
f7
f6
fe
04
02
06
00
01
01
00
01
00
01
01
00
00
01
00
00
02
01
00
02
03
ff
01
00
fe
ff
ff
fe
ff
ff
ff
00
00
fb
fb
fe
fb
fc
fc
06
03
03
03
01
ff
fc
fe
fc
02
03
02
01
00
00
00
02
01
05
05
03
05
03
03
00
fb
ff
01
00
fe
fe
00
ff
00
00
ff
fd
fe
fe
fe
03
04
0c
0f
0a
01
ff
ff
fe
fc
fd
fd
fc
fe
00
01
ff
00
03
03
0a
0d
0a
01
02
03
00
00
00
fd
ff
ff
00
00
fe
01
01
fb
08
06
00
01
02
00
05
02
00
09
02
fc
fa
fc
fe
f8
fa
fd
fd
02
03
fe
ff
00
fd
01
02
01
05
06
ff
01
00
00
ff
02
fa
f8
fe
00
fe
ff
fe
00
01
00
fa
fa
02
03
00
01
01
ff
fb
fc
fd
01
04
03
fd
02
04
ff
04
06
f9
fc
fd
01
ff
00
03
02
fd
03
06
04
fe
02
02
fb
fe
fe
fc
fa
fa
fd
fc
ff
04
fe
fe
01
00
ff
00
00
ff
02
01
fe
03
04
02
05
00
00
00
00
fc
00
02
02
fe
ff
00
00
00
01
00
ff
00
01
01
02
01
ff
ff
02
01
00
00
fd
fe
fd
ff
ff
fa
fd
fd
f7
f8
fc
f8
00
01
fb
fe
ff
fb
fd
ff
fe
01
02
fe
01
00
00
ff
00
fb
fb
01
ff
00
00
00
02
03
06
0b
07
03
06
06
fe
00
ff
ff
fc
f9
fc
fb
fc
fa
fa
fc
fe
01
02
02
fe
ff
03
fc
fb
04
fb
f8
00
00
ff
00
ff
fe
fe
fb
fc
f9
fb
fc
f9
fa
fb
fa
fc
fe
02
01
01
00
ff
ff
fe
fe
ff
fd
ff
00
00
fe
ff
fb
f5
f8
fd
fd
fe
fc
00
00
fe
00
00
fe
fe
fe
ff
fe
fe
ff
00
00
fe
01
01
fd
ff
fe
00
02
00
04
05
02
04
04
01
fe
01
fe
05
00
01
05
00
fd
00
01
fb
fc
fd
fd
fd
00
02
00
ff
ff
ff
00
ff
fe
01
00
00
02
00
fe
00
ff
00
03
03
03
0d
08
01
01
00
01
00
ff
03
00
00
05
02
00
02
ff
00
fd
f8
fc
01
01
fe
02
01
fc
ff
fd
f9
00
02
02
05
02
02
05
04
fe
01
00
00
01
00
00
00
01
01
01
ff
fd
fd
fc
ff
00
fc
ff
00
ff
ff
00
ff
00
00
ff
ff
01
01
00
00
00
ff
00
ff
fe
01
01
ff
fd
fe
ff
fc
ff
ff
f7
f9
fd
f5
f7
fd
fc
01
00
00
01
01
01
ff
00
fb
fb
00
fe
00
02
02
04
03
08
fc
fb
ff
02
01
00
01
01
fe
ff
01
01
00
02
ff
fc
fd
fe
fc
fb
01
01
01
02
02
ff
02
ff
fd
02
02
01
01
01
00
01
01
00
00
ff
00
00
fd
fe
fe
fe
f8
01
01
01
01
01
01
01
01
01
01
05
05
ff
02
04
01
09
04
fd
fe
fe
fe
fe
ff
00
00
00
00
00
00
fe
ff
fe
fc
fd
fe
ff
f9
01
05
fa
02
08
fe
04
03
ff
04
04
fe
ff
0a
04
05
fc
fc
fa
fe
00
f9
ff
06
ff
02
fe
fc
03
01
ff
fe
fc
fc
01
01
02
03
01
ff
fe
03
03
fd
02
02
fd
00
00
fd
01
00
00
02
02
05
03
01
05
05
02
fe
fc
01
00
fc
fe
02
00
04
06
05
05
fe
02
ff
01
02
03
ff
f9
01
ff
fd
fc
ff
02
01
02
02
02
ff
01
02
01
02
00
02
05
05
01
02
04
fe
02
00
fe
fd
02
00
fe
01
03
ff
01
ff
fc
fd
03
03
01
fa
fc
fd
fc
fa
fe
fd
fa
fd
00
00
01
ff
01
04
03
02
02
04
03
04
02
fb
fd
fd
fa
fd
fd
fc
fd
fc
fa
00
00
fe
fe
fd
fb
fe
fa
f9
fe
fd
fe
01
fb
fa
fd
01
00
ff
fe
fe
fe
00
01
01
fd
fb
ff
02
fc
fd
03
02
fe
ff
00
00
00
02
02
01
03
00
fd
00
ff
fe
00
00
fc
ff
ff
03
fd
03
09
ff
ff
0a
04
05
03
05
08
fc
ff
02
ff
03
02
03
05
07
fd
01
01
fd
fe
00
fc
fe
01
fc
fd
ff
ff
ff
02
ff
04
02
03
08
05
fe
03
01
05
04
02
02
00
ff
03
03
ff
00
fe
fe
ff
ff
01
00
01
00
08
f9
ff
ff
fa
fa
04
05
ff
fa
fd
fb
ff
01
fe
00
02
00
03
03
05
00
00
03
01
03
02
00
ff
ff
ff
ff
ff
00
00
ff
04
fd
03
fd
f8
fe
04
00
00
01
01
01
00
02
01
ff
00
ff
fe
fe
ff
fd
fd
fe
ff
fe
ff
00
00
02
00
ff
fd
01
00
01
00
fb
03
ff
fc
ff
03
fe
04
01
fa
fb
fd
fa
fa
00
fe
00
fa
f8
ff
fc
fa
f9
fb
fc
fc
fd
ff
00
fd
ff
ff
fe
ff
ff
ff
02
01
ff
07
03
fa
ff
fe
fa
ff
02
fb
fe
00
fb
ff
01
fd
fe
fd
08
05
0b
05
00
ff
06
00
04
00
f9
fd
04
01
fb
ff
fd
fb
08
07
04
09
06
00
fe
fe
fe
fe
00
fe
ff
01
ff
fe
fe
03
fc
fe
ff
fa
fc
fe
fe
fe
ff
ff
ff
ff
ff
ff
00
fe
fe
ff
fe
fc
fd
00
ff
00
02
00
00
03
02
00
01
03
01
06
05
08
ff
00
01
01
00
ff
fd
ff
02
fe
fc
ff
01
ff
01
ff
f5
fc
fe
f5
fe
00
fa
fd
00
fe
00
02
ff
00
04
01
03
fe
f7
fc
03
fb
fc
05
ff
ff
ff
f7
ff
04
00
06
03
ff
03
ff
ff
00
ff
ff
ff
01
00
01
00
f7
fd
05
f6
fa
02
f9
01
00
00
00
00
00
00
00
00
ff
fe
fe
00
ff
ff
02
01
00
ff
01
ff
ff
02
00
00
01
00
00
fe
fd
fd
fe
fc
fd
ff
ff
ff
fe
ff
fe
fc
fd
fd
fc
fc
ff
06
02
00
07
02
fe
0a
02
fc
ff
fc
fc
f9
f6
f7
f8
f3
f5
fb
fb
fa
01
01
00
04
02
ff
00
05
04
06
02
00
04
01
ff
ff
fe
ff
00
ff
ff
01
00
fe
02
06
07
03
03
03
01
01
00
02
01
00
00
00
00
fc
fe
01
02
07
05
04
04
03
05
02
fe
04
03
ff
fd
fd
fe
ff
00
fe
00
ff
01
02
00
01
03
01
01
05
01
00
05
01
01
04
01
fe
fd
fc
ff
ff
fb
fd
04
00
fd
f9
fc
ff
f9
fd
fa
f9
fc
00
fe
ff
fe
fb
fe
fd
fb
fc
fd
00
04
01
00
01
fe
00
01
fb
05
fe
fe
02
05
03
fe
ff
01
fa
fc
f9
f8
f7
f9
f8
fa
fd
05
03
fe
05
fe
ff
03
06
02
02
01
ff
02
00
fe
02
00
ff
02
02
02
01
ff
00
03
01
ff
00
fe
ff
01
00
00
ff
fd
fd
00
ff
ff
ff
ff
ff
fe
ff
ff
fe
fb
fc
00
fc
fd
00
fc
00
02
00
01
ff
00
01
01
fe
ff
01
fe
ff
01
fd
ff
04
01
ff
fe
fe
02
fd
fd
fe
fe
00
fe
01
02
03
01
00
01
fe
00
00
04
00
fb
04
ff
fb
08
fe
fb
02
02
03
02
03
03
fd
02
03
ff
fc
02
f8
fb
00
01
ff
02
03
01
ff
04
02
00
03
03
02
fd
fd
ff
fe
fa
ff
02
fd
fc
00
00
00
01
00
ff
01
00
00
01
ff
ff
01
fc
fa
04
fd
f7
01
01
06
03
02
02
01
02
02
fe
ff
00
01
01
00
00
00
00
fe
01
00
00
01
fe
00
ff
fd
00
01
fd
fd
00
fd
fd
ff
fe
fa
fe
fc
f7
fb
01
f7
ff
02
ff
fd
fd
fa
fb
fa
fc
fe
fc
01
ff
ff
00
fe
fe
fe
fd
fd
02
03
04
04
02
02
01
01
00
03
00
00
05
00
ff
04
00
ff
04
fe
f7
01
fd
f7
02
01
f9
fa
07
07
ff
04
02
05
04
00
fb
fc
fc
fa
ff
ff
fe
04
05
00
01
01
00
01
01
02
01
00
ff
fd
fe
01
fe
fb
01
01
fc
ff
ff
fe
00
ff
fe
ff
fe
fd
01
00
ff
02
00
ff
01
00
00
fd
ff
fe
01
06
03
03
05
04
00
fc
ff
00
fa
fd
03
fe
fd
fd
00
00
fd
fd
fd
ff
ff
fc
01
01
02
fb
fc
fd
fe
ff
ff
00
01
02
00
ff
00
01
01
00
fe
fe
01
ff
fd
fd
01
ff
fd
02
05
04
ff
01
01
f8
02
00
fe
ff
ff
00
ff
ff
00
ff
fe
fb
fb
00
fc
fb
fc
fd
ff
01
00
ff
fe
00
ff
ff
ff
ff
fe
06
07
01
03
08
05
01
ff
04
fd
fe
ff
fe
fe
ff
fd
fd
ff
00
00
ff
00
00
00
01
ff
ff
01
fa
fc
fe
fc
00
fd
f9
00
03
02
01
fd
00
02
fd
00
09
05
02
f8
01
fe
fd
01
fc
02
09
03
f4
08
06
fb
00
04
04
fd
02
fa
08
0d
06
fe
01
01
ff
fe
fe
ff
01
ff
fe
00
00
ff
03
00
fe
ff
fd
fe
fe
03
01
ff
fd
02
fb
fe
fe
fc
fe
f4
f4
f1
ed
ed
ef
f7
ed
ea
ff
04
fd
ff
fe
f9
fa
f3
00
02
03
03
01
00
01
02
00
02
fd
01
01
fd
ff
06
01
fe
01
01
fd
fe
00
02
fd
02
00
00
ff
00
ff
04
04
01
01
fa
fe
03
00
fe
01
02
ff
00
ff
01
ff
00
fc
00
02
ff
fe
fd
02
02
05
07
07
04
ff
02
fe
03
04
00
fa
05
03
fe
04
01
03
fe
07
04
03
ff
02
05
fa
00
04
01
00
06
05
ff
03
01
00
00
03
fd
01
02
fe
01
ff
fd
02
01
ff
ff
fe
ff
ff
fd
01
fe
fe
fd
fd
ff
ff
fc
fe
fd
05
ff
fd
02
00
05
00
00
04
ff
04
ff
fe
01
04
ff
fe
02
00
01
00
04
04
04
07
03
03
02
01
ff
04
02
03
06
04
04
fa
ff
fe
fe
fe
ff
fe
fd
fd
02
01
fc
02
fe
01
00
fe
00
fb
ff
f9
fb
fb
fd
fb
fb
fe
03
0b
04
01
06
04
01
fd
09
f3
f4
f8
f1
f1
f5
f0
f1
f5
ff
04
01
01
03
03
02
03
04
ff
ff
01
ff
00
01
00
00
01
01
06
02
02
06
02
04
03
02
02
06
03
04
06
03
05
04
08
00
fe
ff
ff
ff
fe
ff
fe
fc
01
03
fe
02
02
fb
02
00
fe
01
00
fd
fe
fd
fd
f7
fa
03
06
07
f8
02
03
fa
fc
f7
fa
04
fe
fc
fe
fb
fd
fe
fe
ff
ff
01
fe
fd
fe
fe
fe
fe
fd
fe
03
01
04
07
05
05
03
02
fa
f9
fb
fb
ff
fe
fc
fd
ff
f7
f1
f2
f4
ef
ef
f7
f5
f3
fe
04
fe
01
ff
02
ff
fa
fe
fa
f3
f5
f9
f2
f3
fe
f5
f2
00
fe
ff
ff
00
00
00
00
ff
01
fd
fd
03
fd
fb
07
01
02
fe
fd
fe
fe
ff
ff
fc
fc
fd
ff
00
02
01
02
02
01
00
01
0d
07
f6
0a
03
fe
06
fd
01
01
01
01
02
09
07
06
05
04
02
fd
fc
00
ff
fe
ff
00
02
01
04
01
03
06
ff
00
01
03
ff
fe
fe
02
01
00
04
ff
ff
00
fd
fc
fe
03
fe
00
00
fe
fc
f7
f6
fc
f7
f6
f9
f4
fa
fe
fe
fe
ff
fe
fe
fd
fc
fc
03
05
fe
08
02
00
fe
03
03
00
ff
00
00
00
00
00
ff
ff
05
00
fe
fb
f9
fc
fc
00
fe
00
ff
fd
01
00
fe
01
00
ff
02
02
01
01
fe
00
ff
ff
02
02
fe
ff
fc
fc
fe
fb
fd
fe
05
f8
fe
fc
f8
01
01
06
0a
00
01
fb
f6
fb
fa
f6
fc
fc
02
fb
fd
fc
fc
02
fb
01
04
fb
fc
02
f9
02
0c
04
0b
0e
00
ff
fe
02
fd
fe
ff
fe
01
02
01
fd
04
02
01
04
01
01
ff
03
02
ff
00
00
fe
01
fe
f1
f5
02
f2
02
06
05
08
04
ff
03
01
00
03
ff
01
01
fc
03
00
fd
02
00
ff
00
01
ff
ff
fe
ff
03
fe
ff
05
04
00
06
ff
03
00
00
00
01
04
07
05
02
00
00
fd
fa
f3
fc
ff
00
03
00
ff
00
fd
00
ff
fc
02
05
05
03
03
01
02
03
04
03
06
f7
0e
02
fa
fc
fd
fe
00
fc
f7
fb
fa
fb
f9
fc
fe
01
06
fb
09
02
ff
04
02
03
ff
ff
ff
fe
00
01
ff
fe
ff
01
04
04
00
01
00
ff
fc
ff
00
03
00
01
02
01
02
03
00
00
00
fc
01
ff
fe
00
fe
ff
04
ff
00
ff
fd
02
fc
ff
03
01
fe
fc
03
01
fe
01
ff
fc
ff
fd
fb
fe
fc
fe
fd
ff
ff
06
00
fd
ff
fb
fb
fa
fb
fe
01
fe
fb
03
00
01
01
00
00
fd
00
05
fb
ff
04
00
06
04
01
04
02
08
05
01
00
00
fd
03
01
03
02
fc
02
f9
00
ff
01
01
00
06
04
00
08
03
01
06
fc
fd
ff
fb
fe
fa
fe
02
fd
fe
ff
fe
ff
00
ff
00
ff
03
01
07
ff
00
01
fd
02
04
01
fd
01
05
00
00
01
03
05
02
00
fd
01
00
ff
01
ff
ff
00
fc
f8
01
fc
fb
fc
fb
fb
fa
f4
fd
f3
f6
fe
fe
02
02
0a
09
00
fe
fb
fa
f5
f8
fe
03
ff
fd
fd
fc
ff
f8
fa
03
00
03
01
ff
02
01
01
01
03
00
ff
fd
01
ff
00
ff
fe
01
fc
fd
fe
fb
fc
ff
fd
00
03
01
f9
fb
ff
02
00
ff
02
ff
fe
fc
08
fd
ff
0b
01
08
07
02
fe
fe
02
ff
01
07
05
03
01
01
ff
00
01
00
ff
02
ff
03
00
00
fd
00
03
ff
00
05
03
01
ff
01
01
00
00
01
00
fe
fe
ff
ff
00
01
ff
00
ff
03
02
ff
05
04
01
00
ff
fe
06
fd
fc
01
fc
00
fc
00
01
02
04
05
01
01
ff
ff
00
00
fa
fd
04
f9
00
02
fd
01
00
04
fd
fd
fe
fd
fd
fa
01
fe
06
04
fc
02
fd
f7
fb
f6
f8
01
0a
ff
0b
03
f7
05
fa
fc
03
02
02
03
03
02
02
03
01
0a
ff
00
fa
f3
00
fb
00
07
00
00
00
00
00
00
00
00
00
00
00
00
00
00
00
00
00
00
00
00
00
00
00
00
00
00
00
00
00
00
00
00
00
00
00
00
00
00
00
00
00
00
00
00
00
00
00
00
00
00
00
00
00
00
00
00
00
00
00
00
00
00
00
00
00
00
00
00
00
00
00
00
00
00
00
00
00
00
00
00
00
00
00
00
00
00
00
00
00
00
00
00
00
00
00
00
00
00
00
00
00
00
00
00
00
00
00
00
00
00
00
00
00
00
00
00
00
00
00
00
00
00
00
00
00
00
00
00
00
00
00
00
00
00
00
00
00
00
00
00
00
00
00
00
00
00
00
00
00
00
00
00
00
00
00
00
00
00
00
00
00
00
00
00
00
00
00
00
00
00
00
00
00
00
00
00
00
00
00
00
00
00
00
00
00
00
00
00
00
00
00
00
00
00
00
00
00
00
00
00
00
00
00
00
00
00
00
00
00
00
00
00
00
00
00
00
00
00
00
00
00
00
00
00
00
00
00
00
00
00
00
00
00
00
00
00
00
00
00
00
00
00
00
00
00
00
00
00
00
00
00
00
00
00
00
00
00
00
00
00
00
00
00
00
00
00
00
00
00
00
00
00
00
00
00
00
00
00
00
00
00
00
00
00
00
00
00
00
00
00
00
00
00
00
00
00
00
00
00
00
00
00
00
00
00
00
00
00
00
00
00
00
00
00
00
00
00
00
00
00
00
00
00
00
00
00
00
00
00
00
00
00
00
00
00
00
00
00
00
00
00
00
00
00
00
00
00
00
00
00
00
00
00
00
00
00
00
00
00
00
00
00
00
00
00
00
00
00
00
00
00
00
00
00
00
00
00
00
00
00
00
00
00
00
00
00
00
00
00
00
00
00
00
00
00
00
00
00
00
00
00
00
00
00
00
00
00
00
00
00
00
00
00
00
00
00
00
00
00
00
00
00
00
00
00
00
00
00
00
00
00
00
00
00
00
00
00
00
00
00
00
00
00
00
00
00
00
00
00
00
00
00
00
00
00
00
00
00
00
00
00
00
00
00
00
00
00
00
00
00
00
00
00
00
00
00
00
00
00
00
00
00
00
00
00
00
00
00
00
00
00
00
00
00
00
00
00
00
00
00
00
00
00
00
00
00
00
00
00
00
00
00
00
00
00
00
00
00
00
00
00
00
00
00
00
00
00
00
00
00
00
00
00
00
00
00
00
00
00
00
00
00
00
00
00
00
00
00
00
00
00
00
00
00
00
00
00
00
00
00
00
00
00
00
00
00
00
00
00
00
00
00
00
00
00
00
ff
ff
ff
ff
00
00
ff
00
00
fa
f7
fe
fb
fe
08
fd
06
07
fe
fd
fe
fd
fc
ff
fd
fc
01
01
01
02
01
01
01
01
03
ff
09
08
fd
0d
09
fd
0c
08
03
fc
fa
fa
fb
f7
fd
f7
fb
03
01
01
01
06
01
fd
04
02
fd
f9
fc
00
fa
03
01
01
05
fb
ff
f7
fb
f9
fd
04
fa
fd
02
00
01
fc
fe
fe
fc
01
ff
ff
05
fc
fd
fa
f6
fe
f8
00
00
03
02
02
05
02
ff
04
00
fd
ff
fc
05
05
02
06
09
02
fc
00
ff
00
fb
ff
fd
05
00
fd
02
fd
ff
ff
fe
05
fe
ff
02
fc
f7
fd
fa
f8
04
f9
f9
04
03
01
fb
fe
fe
fd
03
fe
01
fd
fc
fc
f9
f6
01
fd
02
08
01
04
02
04
03
01
04
03
02
02
02
fd
01
ff
fe
03
02
ff
fe
00
06
fb
04
0a
ff
09
04
00
fe
fd
fb
fd
00
fd
00
04
f6
f1
fd
ee
ef
04
fb
01
0d
00
00
02
00
01
02
02
01
01
00
04
fe
ff
fc
fb
fe
02
01
ff
fe
fe
01
fc
fc
fd
fb
fe
fc
02
ff
fe
02
01
01
02
01
01
00
fb
03
00
ff
03
07
03
ff
fe
03
ff
02
0a
00
03
06
00
fe
02
fe
fc
08
04
fc
00
01
02
00
00
00
00
ff
fd
ff
05
fc
fa
fc
f7
ff
fc
fd
03
fd
fa
00
fb
fd
00
fb
f9
f9
fe
f8
fb
fb
f5
fd
f9
fb
fb
fc
03
07
fe
06
0a
04
08
ff
fd
f7
fb
fa
f6
fc
f9
fa
02
ff
f9
02
f9
fc
04
fc
fd
07
ff
ff
ff
ff
ff
ff
ff
fe
ff
06
04
02
03
fe
fd
fd
f7
fb
fb
f6
00
f7
fa
08
f7
00
09
fd
00
00
fe
01
03
fe
01
02
00
fa
f3
fc
f3
f6
fb
f8
fb
01
00
fd
02
ff
01
01
fb
01
00
fb
f9
01
03
fe
09
0b
00
fb
fc
ff
fe
fe
ff
fd
fc
00
fc
fd
00
fe
fe
00
fc
ff
00
04
01
fa
fb
fb
04
fc
ff
0a
f7
fd
fd
f7
fd
fe
fb
fb
ff
08
fe
f5
ff
ee
f5
fa
f7
0c
fe
02
0c
01
07
0b
02
04
fe
06
ff
f4
09
fe
f5
04
ff
fd
01
ff
fe
01
ff
fe
00
fe
ff
00
02
01
ff
01
fd
01
f8
fd
fd
fe
00
fd
fe
00
fe
ff
01
ff
ff
01
00
ff
02
00
00
03
fe
03
01
01
07
01
04
06
fb
fe
fc
02
f8
00
0c
fb
fb
04
02
01
ff
fe
fd
fc
fe
fe
ff
01
05
05
05
07
04
05
07
fe
01
fc
fd
02
fb
ff
02
fb
01
fd
ff
fd
00
fe
00
02
04
04
f7
ef
f7
f7
f6
02
f9
01
06
fd
fe
ff
fd
fd
fe
fd
fd
fe
fc
f9
03
f9
f7
04
fd
01
08
00
00
00
00
00
00
00
00
00
05
01
02
05
02
02
00
fd
02
00
00
ff
00
00
fe
ff
ff
fe
01
01
01
02
03
02
fe
ff
00
00
03
04
02
03
05
fe
ff
01
04
00
fd
02
03
fe
f9
fb
fc
01
02
04
fe
00
04
fd
fb
01
00
fc
fc
fd
fe
fd
fe
fa
fb
f9
f0
f3
03
f8
fa
02
03
fc
fd
ff
fe
fe
ff
fe
fd
fe
fe
06
ff
ff
fd
fc
ff
fc
03
00
02
00
01
03
01
03
02
01
02
01
fe
fb
06
04
fd
05
08
01
06
fb
fc
02
00
02
ff
04
02
00
fe
00
fe
fc
fe
fe
01
00
04
00
ff
03
01
fe
00
fe
ff
fd
fd
01
00
fe
ff
fe
02
03
03
fd
fc
03
f7
fc
05
03
07
01
00
00
00
ff
02
01
00
03
02
00
04
02
00
04
fc
ff
03
04
f5
f6
04
f8
f6
fe
05
04
03
fe
fe
01
fe
00
ff
ff
02
01
f5
f3
fd
f9
f9
00
05
03
fe
fe
ff
fe
fd
ff
fe
fe
fd
01
02
fe
01
02
fe
fe
04
01
00
01
ff
ff
00
fe
ff
ff
fe
ff
00
00
ff
00
00
ff
00
00
01
00
00
03
02
ff
fa
00
fe
02
fd
00
01
ff
00
fe
03
02
02
fd
fc
04
03
ff
fe
03
01
ff
00
fe
00
ff
fd
fe
01
01
04
fd
fd
01
ff
ff
fb
00
01
ff
fc
ff
03
03
01
fd
02
02
01
00
01
fd
ff
03
fb
00
02
03
fc
f9
ff
fc
fd
03
06
04
02
01
00
ff
01
01
fa
fe
02
fc
fc
04
02
fe
fd
02
06
04
ff
ff
fe
00
ff
fe
fe
ff
fe
fe
00
00
03
ff
fe
ff
01
02
01
fd
fd
04
fe
fc
fd
00
fe
ff
fe
fc
01
ff
fd
00
01
fe
01
ff
fe
fd
fd
fc
fa
fe
fd
ff
00
00
01
02
01
fe
02
01
02
ff
00
05
ff
02
02
01
00
01
fd
fc
00
ff
00
fc
ff
00
01
00
00
00
01
02
fe
00
01
07
fd
f8
07
ff
fe
ff
01
05
fb
fc
fd
fe
ff
ff
fe
00
01
fd
fa
ff
fa
fa
fe
f3
f5
fa
ff
f9
01
01
fd
06
01
03
09
02
02
01
01
ff
00
fd
fe
fd
fe
00
ff
fe
ff
ff
fe
fe
ff
02
00
02
02
02
03
fe
00
01
ff
ff
ff
00
00
00
ff
00
00
00
ff
fe
00
ff
fe
00
ff
00
ff
fd
ff
ff
fe
ff
01
ff
fc
fb
f5
fb
04
00
fa
00
04
00
00
fe
fe
00
fe
ff
fd
01
01
00
fd
f9
02
f8
fc
04
02
02
00
00
fe
00
ff
00
fe
00
02
ff
06
01
00
05
00
fc
03
00
fd
fe
fe
01
fe
00
fb
04
ff
ff
ff
fd
ff
ff
fe
fe
ff
ff
00
f9
f8
03
fa
ff
01
05
03
01
02
01
01
02
01
01
01
01
01
ff
00
fc
fb
fd
fc
fc
fe
00
01
00
00
01
01
00
02
03
01
00
00
00
fe
ff
01
00
00
fd
00
ff
03
02
02
04
01
03
fa
fd
fc
f9
fc
fc
ff
01
fe
ff
f6
f7
01
fd
fd
04
01
01
03
03
04
01
fd
fd
fe
fa
fb
ff
fc
f7
fa
f5
f3
f6
f5
fc
fd
ff
ff
fe
ff
ff
ff
00
00
ff
fe
fe
fc
fb
fc
fb
fe
fe
ff
ff
01
03
02
03
02
00
01
07
ff
ff
fc
f7
00
f7
f6
fd
02
fb
fb
ff
03
ff
fe
03
07
04
06
08
ff
ff
ff
ff
01
01
03
02
00
ff
fd
fc
ff
fe
fc
fd
fe
01
ff
00
04
02
01
05
fe
ff
fe
ff
ff
01
01
02
00
00
fe
02
01
00
03
04
02
03
f9
f8
f7
fa
fa
fc
fc
fe
01
01
00
fe
01
01
fa
05
02
00
fc
f8
fd
ff
fd
03
06
00
04
04
07
04
01
02
fc
fd
fe
f9
02
04
02
02
06
04
03
06
05
f9
fa
fb
fb
fd
00
fb
00
00
00
01
fe
fd
fe
fc
ff
01
ff
00
00
fe
00
ff
ff
ff
ff
ff
fc
02
fe
fe
01
ff
fd
ff
ff
05
07
09
01
03
02
03
04
05
03
01
04
ff
00
00
01
02
02
fc
ff
02
fd
ff
02
ff
02
04
fe
ff
fe
fc
fb
fc
fd
fe
ff
fe
03
00
fd
02
fd
03
04
fd
ff
02
07
fd
ff
ff
fd
ff
ff
00
09
02
03
03
ff
03
04
01
fe
fd
fc
ff
ff
00
ff
03
02
01
05
0b
00
01
03
02
05
02
ff
00
01
ff
01
02
00
02
03
f9
fd
00
fc
fc
02
00
02
04
01
00
00
fb
fb
fc
fb
fd
fd
01
05
04
ff
fe
fb
ff
ff
fe
ff
00
ff
fe
ff
ff
fa
fc
fe
01
fd
fc
ff
fc
ff
03
fd
01
f8
fe
11
fa
02
0e
fd
05
0c
fd
f9
00
fe
fa
02
02
fc
01
01
01
00
00
fe
00
ff
fe
00
fd
01
00
fc
fc
fb
fd
fb
fe
fe
fe
fe
fc
fd
fc
ff
fe
fd
07
03
07
02
ff
05
03
ff
06
02
fe
00
ff
fd
fc
00
00
fd
02
03
ff
00
ff
00
fc
fb
fe
ff
00
01
ff
ff
00
00
01
00
00
fd
ff
00
ff
ff
02
01
00
01
01
00
01
01
01
01
01
01
00
03
02
01
05
04
01
06
05
05
09
07
03
03
00
02
ff
fe
01
06
0a
00
02
00
03
05
01
f9
fc
fd
fd
ff
ff
00
02
03
ff
01
fb
fd
f9
f9
f9
fc
fd
fe
02
ff
ff
02
01
01
04
03
f9
fa
ff
fd
ff
02
fc
01
03
f9
fd
08
fa
01
05
fb
01
fe
00
ff
ff
ff
fe
ff
ff
fe
ff
01
fe
01
03
04
03
06
07
02
ff
ff
ff
ff
ff
ff
fe
ff
fe
00
fe
fa
f7
f7
f8
02
fd
fe
00
03
01
01
03
00
01
00
fd
02
01
02
fc
fc
fd
01
fe
fd
04
09
00
03
00
fd
09
fe
02
06
00
fa
f0
e7
fb
f1
f6
07
04
00
08
04
03
02
08
04
ff
09
02
fe
00
fb
01
fb
fd
08
fe
fd
03
f1
fa
05
fd
03
04
03
00
03
01
fe
ff
00
fe
00
00
01
09
fb
05
05
01
07
fe
02
07
07
08
0f
02
0a
04
00
01
fc
08
fb
04
02
00
04
fc
fd
0b
12
06
19
09
0c
14
00
02
01
fc
ff
fe
fd
fe
fe
03
02
fe
01
fa
f6
f8
00
fd
02
00
fa
fd
fd
fb
fb
ff
ff
fe
02
f3
f5
fd
eb
f7
f7
f5
02
07
09
09
0b
0b
02
09
04
00
01
fe
03
fd
00
01
ff
01
00
fe
02
07
03
06
04
fb
09
06
fd
00
f8
f6
f5
f8
fd
f7
fa
ff
03
fd
fa
fd
fa
ff
00
06
fb
fb
ff
fc
fe
ff
ff
01
fb
03
07
08
05
0e
0b
07
0b
04
01
fb
fd
fe
fa
fd
ff
fc
01
00
ff
fd
01
fe
fd
01
fc
fe
ff
00
fc
fc
fa
03
ff
04
04
08
09
06
06
0b
01
07
06
01
03
fd
f9
fc
f8
fd
00
ff
00
01
ff
03
01
fd
ff
ff
ff
fe
01
fa
02
fa
f9
ff
01
02
fd
07
fb
01
f7
f9
00
fc
00
06
02
fe
fe
fe
ff
fc
fc
01
02
fd
06
01
01
0a
04
09
0c
04
03
ff
00
06
fe
fc
04
fb
fa
ff
f8
f9
f8
f1
f4
f9
f6
f9
ff
01
02
ff
04
02
01
03
ff
ff
f7
00
fa
f5
fd
fa
fd
02
00
fd
fb
fa
f6
f9
fa
fb
fe
fb
f9
fc
fd
fb
fe
fc
fd
fe
00
fb
03
fa
ff
05
fd
09
fe
01
06
03
ff
02
ff
02
fa
fc
03
00
00
02
01
f6
01
fd
fa
fb
f8
fb
fb
f5
fd
f9
f9
fd
02
03
00
00
01
fc
02
00
fa
03
01
ff
f8
f6
00
f9
03
05
05
fe
fc
02
fc
fd
03
fd
02
05
05
00
fe
fa
f8
00
fe
ff
01
05
03
03
08
00
05
01
fd
03
02
ff
07
02
fc
06
fd
fe
01
00
01
01
01
01
00
02
01
02
f9
f5
fb
f0
fb
fa
f6
02
01
00
00
02
02
00
02
01
ff
fc
ff
ff
ff
02
fe
02
00
fc
02
00
fd
00
fe
03
01
00
07
fe
fc
f5
f6
f4
f6
fb
fa
01
02
03
08
06
06
05
05
05
03
00
00
05
04
0a
06
0a
0c
08
00
fe
00
ff
00
ff
01
04
00
fe
01
ff
00
fe
fc
ff
00
ff
ff
04
ff
05
05
fe
02
00
06
02
01
00
03
01
ff
02
01
00
fd
fe
f9
fb
f1
fa
f5
f5
fd
00
00
00
00
00
00
00
00
00
fd
fb
fe
00
f8
f7
fe
fa
fc
03
01
00
00
00
01
00
00
01
fe
fd
fd
fe
fc
fd
ff
fe
fd
03
ff
fc
ff
02
ff
fd
fd
ff
02
fd
07
00
ff
06
06
04
06
00
05
ff
02
04
ff
fe
fd
fc
fd
ff
04
fc
fe
05
ff
01
04
fe
05
05
01
04
00
06
07
01
ff
ff
00
fe
ff
01
fc
00
02
fb
09
07
fd
04
fc
fd
fe
fa
fd
03
00
ff
01
00
fe
fc
fd
01
02
07
06
01
fd
07
fc
fb
fe
0c
01
f8
00
f9
f7
f9
f8
03
02
00
fe
ff
fb
ff
fd
fb
fb
fa
ff
fd
fa
fb
fe
ff
00
09
01
02
03
00
00
fc
02
02
0c
02
05
08
01
00
05
fd
fb
01
02
00
ff
02
01
fc
fc
00
00
03
06
02
09
04
ff
05
05
ff
02
02
fb
03
fc
fa
00
fc
04
fb
fb
00
fb
fe
fd
f8
fd
fa
f8
fe
fc
fc
fb
01
ff
01
01
01
04
00
ff
01
fc
fe
01
01
07
04
03
05
02
fd
ff
ff
fd
fd
00
fe
ff
00
00
ff
fe
01
ff
fd
ff
fe
fe
fc
fe
fe
fe
01
03
02
02
02
02
03
03
fb
00
ff
f9
ff
fb
fc
fb
fc
03
fd
00
00
fb
fe
01
00
ff
ff
fd
fc
fa
fb
fe
f6
fc
ff
fd
03
02
01
01
fc
02
01
fc
f9
fb
01
f8
fd
03
fe
00
05
f9
00
fb
fd
ff
fb
ff
fb
fb
f9
00
02
f8
00
04
ff
fe
01
09
08
00
05
fd
fb
03
fa
f9
04
ff
01
fd
f6
fb
ff
fa
fe
01
03
01
01
00
00
ff
ff
01
04
04
06
04
02
04
01
07
07
fa
fe
01
fd
fd
00
02
02
01
00
fe
fb
00
fc
fa
fd
f9
fa
fc
05
06
01
02
fc
fe
fc
f9
01
fa
fe
02
00
fe
ff
fb
fe
03
fd
f9
08
ff
ff
07
02
ff
08
fe
fa
01
fc
fc
fc
f6
fd
00
fe
ff
ff
fd
fe
fa
fb
fe
fa
fe
07
fd
00
02
01
02
01
ff
fc
ff
fc
ff
01
fc
01
03
03
ff
01
fd
03
fd
ff
05
01
f6
fc
03
ff
fa
fd
01
00
00
06
00
fd
04
fd
f8
01
fc
f4
fd
fc
ff
fc
fb
fe
fc
fa
fe
04
ff
00
ff
fd
fd
fe
ff
fe
00
00
ff
00
ff
fe
ff
fe
ff
02
00
01
ff
fe
00
fb
fd
01
03
00
01
03
ff
00
04
ff
00
05
fe
fd
01
f9
fc
02
ff
00
02
05
07
00
06
05
f9
03
05
f8
00
02
fa
06
05
fa
fd
ff
02
fc
ff
fd
fc
fd
fa
fa
fd
09
07
00
07
02
ff
fe
fd
fc
fe
00
fc
00
fb
fc
01
fc
fd
00
ff
00
00
ff
ff
00
ff
00
13
03
04
09
02
02
03
fe
ff
00
00
00
00
00
00
00
00
00
00
00
00
00
00
00
00
00
00
00
00
00
00
00
00
00
00
00
00
00
00
00
00
00
00
00
00
00
00
00
00
00
00
00
00
00
00
00
00
00
00
00
00
00
00
00
00
00
00
00
00
00
00
00
00
00
00
00
00
00
00
00
00
00
00
00
00
00
00
00
00
00
00
00
00
00
00
00
00
00
00
00
00
00
00
00
00
00
00
00
00
00
00
00
00
00
00
00
00
00
00
00
00
00
00
00
00
00
00
00
00
00
00
00
00
00
00
00
00
00
00
00
00
00
00
00
00
00
00
00
00
00
00
00
00
00
00
00
00
00
00
00
00
00
00
00
00
00
00
00
00
00
00
00
00
00
00
00
00
00
00
00
00
00
00
00
00
00
00
00
00
00
00
00
00
00
00
00
00
00
00
00
00
00
00
00
00
00
00
00
00
00
00
00
00
00
00
00
00
00
00
00
00
00
00
00
00
00
00
00
00
00
00
00
00
00
00
00
00
00
00
00
00
00
00
00
00
00
00
00
00
00
00
00
00
00
00
00
00
00
00
00
00
00
00
00
00
00
00
00
00
00
00
00
00
00
00
00
00
00
00
00
00
00
00
00
00
00
00
00
00
00
00
00
00
00
00
00
00
00
00
00
00
00
00
00
00
00
00
00
00
00
00
00
00
00
00
00
00
00
00
00
00
00
00
00
00
00
00
00
00
00
00
00
00
00
00
00
00
00
00
00
00
00
00
00
00
00
00
00
00
00
00
00
00
00
00
00
00
00
00
00
00
00
00
00
00
00
00
00
00
00
00
00
00
00
00
00
00
00
00
00
00
00
00
00
00
00
00
00
00
00
00
00
00
00
00
00
00
00
00
00
00
00
00
00
00
00
00
00
00
00
00
00
00
00
00
00
00
00
00
00
00
00
00
00
00
00
00
00
00
00
00
00
00
00
00
00
00
00
00
00
00
00
00
00
00
00
00
00
00
00
00
00
00
00
00
00
00
00
00
00
00
00
00
00
00
00
00
00
00
00
00
00
00
00
00
00
00
00
00
00
00
00
00
00
00
00
00
00
00
00
00
00
00
00
00
00
00
00
00
00
00
00
00
00
00
00
00
00
00
00
00
00
00
00
00
00
00
00
00
00
00
00
00
00
00
00
00
00
00
00
00
00
00
00
00
00
00
00
00
00
00
00
00
00
00
00
00
00
00
00
00
00
00
00
00
00
00
00
00
00
00
00
00
00
00
00
00
00
00
00
00
00
00
00
00
00
00
00
00
00
00
00
00
00
00
00
00
ff
ff
fe
fe
ff
ff
ff
03
03
ff
02
fe
02
fe
fd
fd
fc
fb
fe
fd
fd
ff
fd
ff
00
00
02
03
00
ff
00
fe
fb
fe
05
ff
f8
f3
f2
fb
f1
fb
01
fc
fc
fe
fb
fd
06
01
ff
06
08
04
fc
ff
f1
f2
f3
f4
fd
08
0a
05
03
fe
01
fc
ff
04
f7
fc
ff
fa
fd
09
02
00
04
fe
01
ff
00
ff
fd
fe
fc
ff
fd
03
04
08
07
06
05
03
06
07
08
03
00
01
01
f7
ff
06
0c
05
fc
01
fd
f7
00
04
03
10
0a
04
06
fc
ff
f6
fa
02
fe
ff
01
ff
03
04
03
02
03
ff
fd
01
ff
02
04
ff
fe
00
ff
fc
f8
f4
f5
f9
f8
fb
ff
fb
ff
ff
ff
fd
fc
04
05
04
04
01
ff
fe
f9
f9
f7
fa
00
ff
01
03
fe
00
04
ff
01
07
07
0c
03
0e
09
03
05
04
07
fc
fa
f8
f5
f0
f9
f1
f7
01
01
07
03
04
09
06
04
05
01
01
ff
fe
00
fa
fb
ff
fc
ff
04
04
f9
00
f9
f8
fc
f8
fd
fd
fb
00
00
ff
01
00
01
02
fe
fe
ff
01
ff
ff
02
02
00
fc
fa
fc
f5
f3
00
fa
ff
02
02
07
06
05
07
06
02
03
06
fd
fe
00
fe
00
fe
01
00
00
00
01
fe
f8
f5
f9
f6
fa
00
fa
01
05
03
06
06
05
04
02
fe
fa
fc
fc
fd
00
fd
02
05
fa
fe
02
ff
00
00
fb
fc
04
0d
0a
04
0a
fe
fe
fa
01
03
fd
fc
fd
fc
fa
00
00
03
05
fc
fb
fb
fc
fa
ff
00
01
05
fd
fd
fe
01
ff
fe
fe
ff
ff
ff
ff
fb
f9
f7
f9
fa
fb
01
fd
fc
00
03
04
02
07
04
02
fa
fd
ff
fd
fc
fb
03
00
fd
fe
01
fe
04
fe
fc
fc
f7
fa
02
fc
fd
f7
f5
fa
f2
fd
08
03
02
03
fb
f4
f4
f8
ee
fa
fe
ff
fa
fb
f9
fa
fe
ff
05
02
01
ff
05
04
02
06
07
05
fd
00
03
02
08
03
09
07
04
fd
fe
fe
fe
fc
fe
05
02
04
00
f9
fa
f8
f6
01
ff
fe
06
09
05
ff
03
fb
fb
fe
fa
fc
09
0e
03
04
03
fe
fe
00
ff
00
01
ff
ff
fe
ff
fe
ff
ff
f5
f5
fb
f4
f8
fb
fd
fd
ff
01
02
02
03
02
01
04
04
02
fd
fd
fd
ff
fc
fc
00
ff
fe
02
04
04
fc
fc
ff
fb
ff
ff
fa
fc
ff
fc
ff
fe
00
00
04
ff
00
fe
f9
f9
fe
f6
f9
03
07
07
03
00
fc
fa
f7
f9
ff
04
00
ff
fd
f9
fe
f7
fc
00
03
00
f8
fd
f4
f6
fd
f7
fb
01
00
04
ff
01
06
02
02
07
01
00
00
00
fe
00
02
02
02
fe
fc
f7
f8
f1
f7
fd
fc
00
00
00
00
00
00
00
00
00
00
00
00
00
00
00
00
00
00
00
00
00
00
00
00
00
00
00
00
00
00
00
00
00
00
00
00
00
00
00
00
00
00
00
00
00
00
00
00
00
00
00
00
00
00
00
00
00
00
00
00
00
00
00
00
00
00
00
00
00
00
00
00
00
00
00
00
00
00
00
00
00
00
00
00
00
00
00
00
00
00
00
00
00
00
00
00
00
00
00
00
00
00
00
00
00
00
00
00
00
00
00
00
00
00
00
00
00
00
00
00
00
00
00
00
00
00
00
00
00
00
00
00
00
00
00
00
00
00
00
00
00
00
00
00
00
00
00
00
00
00
00
00
00
00
00
00
00
00
00
00
00
00
00
00
00
00
00
00
00
00
00
00
00
00
00
00
00
00
00
00
00
00
00
00
00
00
00
00
00
00
00
00
00
00
00
00
00
00
00
00
00
00
00
00
00
00
00
00
00
00
00
00
00
00
00
00
00
00
00
00
00
00
00
00
00
00
00
00
00
00
00
00
00
00
00
00
00
00
00
00
00
00
00
00
00
00
00
00
00
00
00
00
00
00
00
00
00
00
00
00
00
00
00
00
00
00
00
00
00
00
00
00
00
00
00
00
00
00
00
00
00
00
00
00
00
00
00
00
00
00
00
00
00
00
00
00
00
00
00
00
00
00
00
00
00
00
00
00
00
00
00
00
00
00
00
00
00
00
00
00
00
00
00
00
00
00
00
00
00
00
00
00
00
00
00
00
00
00
00
00
00
00
00
00
00
00
00
00
00
00
00
00
00
00
00
00
00
00
00
00
00
00
00
00
00
00
00
00
00
00
00
00
00
00
00
00
00
00
00
00
00
00
00
00
00
00
00
00
00
00
00
00
00
00
00
00
00
00
00
00
00
00
00
00
00
00
00
00
00
00
00
00
00
00
00
00
00
00
00
00
00
00
00
00
00
00
00
00
00
00
00
00
00
00
00
00
00
00
00
00
00
00
00
00
00
00
00
00
00
00
00
00
00
00
00
00
00
00
00
00
00
00
00
00
00
00
00
00
00
00
00
00
00
00
00
00
00
00
00
00
00
00
00
00
00
00
00
00
00
00
00
00
00
00
00
00
00
00
00
00
00
00
00
00
00
00
00
00
00
00
00
00
00
00
00
00
00
00
00
00
00
00
00
00
00
00
00
00
00
00
00
00
00
00
00
00
00
00
00
00
00
00
00
00
00
00
00
00
00
00
00
00
00
00
00
00
00
00
00
00
00
00
00
00
00
00
00
00
00
00
00
00
00
00
00
00
00
00
00
ff
00
00
ff
00
00
ff
01
fd
fe
01
fe
fc
05
ff
f8
00
00
00
01
ff
00
03
00
00
fe
ff
00
ff
00
ff
fc
fd
fe
fb
fd
01
01
ff
00
01
05
02
fc
02
00
f7
fa
03
fc
fa
fc
fe
01
06
00
03
07
00
04
06
f7
fb
00
f7
f8
04
f6
01
06
04
05
01
ff
04
0a
08
07
04
fd
00
04
fb
fb
fe
fb
fc
ff
00
00
00
ff
ff
01
00
fe
fd
fd
ff
03
fc
00
01
03
06
fe
02
fb
ff
fe
f7
05
12
04
fa
01
f9
fb
07
00
00
0c
0b
00
03
02
00
03
03
03
fd
ff
02
07
02
00
00
02
ff
01
01
ff
ff
02
01
03
09
03
fc
01
02
fb
fe
fc
07
fd
fa
ff
fc
fc
00
03
05
fd
00
04
fd
ff
01
fe
00
01
fe
fd
ff
fc
fe
02
02
fd
00
06
fc
fe
fe
06
fd
fd
05
0a
fc
01
06
f7
fc
00
09
00
f9
11
02
f5
07
01
fc
fe
fc
fd
00
fe
fd
00
00
00
02
00
fc
03
02
fd
01
02
03
00
02
03
ff
01
03
00
01
00
00
ff
ff
01
fe
00
00
ff
01
fd
fe
ff
03
02
00
02
02
05
02
00
01
00
00
03
fc
fe
02
03
02
02
fe
01
04
fd
ff
06
fd
ff
01
fa
fd
03
f8
fb
02
fe
01
02
fe
ff
02
01
01
ff
f9
fc
00
f7
fe
ff
fb
00
04
02
ff
00
08
fa
f9
06
00
fd
01
fc
00
ff
ff
fc
01
07
04
fb
fa
fb
05
fb
fb
0e
01
fb
00
02
ff
03
07
05
fb
fb
fe
ff
00
00
01
00
ff
02
00
00
01
04
03
fe
0a
08
fd
02
04
00
fe
03
08
00
ff
ff
fd
fc
00
01
fe
01
02
02
00
fe
00
ff
00
00
02
00
00
02
06
02
fe
ff
02
fa
fd
01
fb
fc
fd
f9
fc
03
ff
fc
fc
02
f9
fa
f9
fd
00
f6
fb
04
fd
fb
fd
ff
fe
fd
01
ff
fe
fe
fd
fd
fe
01
04
fc
fb
03
f5
f9
00
fe
fe
01
fa
fc
00
ff
fa
fe
00
fb
f6
07
07
f5
05
06
04
03
fb
01
08
fe
fa
04
01
04
f5
f3
ef
fe
ff
ed
12
14
fa
02
01
00
01
01
00
ff
ff
fe
fc
00
04
fa
fb
03
00
fc
fe
ff
ff
fe
01
fe
fe
01
fe
ff
fe
ff
ff
01
ff
ff
02
ff
fe
f7
f6
fc
fc
fa
fc
02
ff
02
03
05
02
01
07
03
fc
01
03
fe
ff
03
fc
fe
00
fc
00
03
fd
fa
fd
00
ff
f9
04
07
04
fe
00
00
01
03
00
00
03
02
fc
ff
fb
01
ff
fb
04
fd
01
fd
f7
fe
09
ed
f4
08
f6
f8
ff
fd
fc
ff
fb
fb
00
fc
fb
fb
fa
01
fa
fa
fa
fe
f8
f8
00
00
00
00
00
ff
ff
ff
ff
fd
fe
ff
ff
ff
fe
03
fd
fe
00
00
00
01
00
ff
00
01
00
01
01
00
00
00
00
fe
00
00
03
00
02
04
01
02
02
00
fe
fc
fe
00
f7
fe
ff
fd
fe
fd
fb
00
03
00
01
01
05
00
01
fd
02
04
fc
fe
00
fc
fc
ff
fc
fc
00
f9
fc
00
f7
fb
01
00
01
01
ff
00
00
ff
ff
fe
fe
fe
ff
fa
fb
fc
fc
fc
fd
03
03
03
04
02
01
02
00
00
03
05
06
00
fe
00
fc
fb
fe
01
04
02
00
04
00
01
fd
01
07
05
00
02
01
fe
00
01
01
01
00
ff
fe
ff
ff
fd
fc
fe
03
03
01
ff
03
04
fe
02
04
ff
f9
f9
f9
fa
fe
fb
f9
fe
01
05
02
00
01
01
00
ff
00
ff
fa
fc
fc
fd
fe
fc
fe
ff
02
08
01
fd
00
ff
ff
fe
01
fa
fc
ff
fb
fd
00
fb
fb
fc
05
03
fd
fe
ff
fb
fb
fb
fd
01
fe
ff
00
ff
ff
fe
fe
ff
01
ff
fe
01
02
00
01
ff
fe
00
ff
00
fe
ff
00
ff
00
01
02
00
00
00
00
ff
ff
fe
ff
05
01
00
04
01
00
ff
ff
fc
07
09
01
02
03
00
01
01
01
04
06
01
01
02
02
fe
00
02
04
ff
00
01
01
00
00
01
ff
fd
fd
ff
fb
fb
fe
fb
fc
fe
ff
ff
00
ff
fe
00
01
00
00
06
05
02
00
ff
fb
00
fd
fd
06
03
ff
03
ff
ff
06
ff
03
fe
fe
01
00
00
ff
01
00
ff
07
06
ff
01
04
02
01
02
03
00
00
ff
01
00
ff
00
ff
00
04
00
fd
fc
01
02
fc
03
05
ff
fb
fa
fc
fe
fd
fb
fe
fe
06
05
02
02
00
ff
ff
fe
ff
fd
fe
ff
fe
01
fe
fe
ff
fd
01
03
05
03
02
04
ff
fe
fd
ff
04
04
00
03
01
05
fe
fd
fa
02
04
f8
fc
ff
f9
fb
fd
03
01
00
fe
fd
fe
fd
fd
fd
fc
fe
fe
f9
f9
fc
f8
fa
fc
00
01
01
fd
fe
ff
fc
fc
fd
08
fe
ff
03
fd
fb
ff
fe
fe
07
fe
fc
02
01
01
ff
01
02
04
ff
01
02
01
01
01
03
01
00
00
01
00
ff
00
00
ff
fe
00
00
01
fe
fe
00
fc
fd
01
02
01
00
01
ff
ff
00
fe
ff
01
00
ff
01
00
ff
00
00
ff
02
03
03
00
00
01
00
fe
ff
08
08
01
01
04
01
ff
01
05
01
fe
ff
00
00
ff
ff
ff
ff
09
02
00
01
ff
01
01
01
00
04
01
04
02
03
02
02
03
00
01
ff
fe
01
01
ff
01
ff
fe
03
05
01
01
01
fc
01
fc
f9
02
02
01
00
ff
00
ff
fe
ff
ff
01
01
fc
01
04
fb
ff
02
01
01
02
01
01
02
01
01
02
05
01
ff
fc
00
00
fd
03
01
00
fe
fc
00
fe
fb
00
fe
fa
01
01
00
fe
ff
fd
f3
f1
f5
fe
04
07
fd
02
01
fb
f6
fe
14
0d
07
ff
fe
fc
fb
fa
f8
fe
08
0a
fa
fb
fe
04
fe
f8
06
05
03
06
07
03
f6
f8
f9
f1
ef
f2
03
fb
f6
00
07
02
02
ff
01
00
00
02
fd
fb
fc
02
fd
fc
f4
f8
fd
ff
06
03
fc
fe
01
f9
f9
fd
00
f9
fc
f6
f6
f5
02
09
03
0e
11
04
f8
f4
f9
f9
03
06
fb
05
fe
f8
f6
fd
fc
fc
fa
01
01
fe
fd
fc
fa
ff
02
fe
fe
ff
ff
f8
fb
01
ff
fd
fc
fe
01
ff
f8
f8
ff
0a
01
f8
0e
0f
08
ff
04
07
ff
03
02
02
00
fe
04
07
04
fe
03
04
fc
00
00
f6
f2
fc
f8
fa
fc
06
08
07
fe
03
05
02
04
fe
fe
fe
fe
f1
ec
f4
06
0a
05
09
14
11
01
01
00
fe
00
ff
00
fd
f8
03
00
02
f9
fc
03
00
fe
01
03
03
03
ff
ff
fd
ff
fa
fa
ff
fe
ff
ff
ff
fe
fd
fd
fd
09
03
03
00
fd
fd
f7
f4
fa
f6
f7
fd
ff
02
00
03
03
00
fb
f3
fa
05
05
00
fd
00
00
01
00
ff
fd
ff
fd
fc
fd
fa
f9
f4
f7
ff
02
fe
fa
fe
04
ff
fe
fc
0a
09
fd
f3
f2
ef
f9
ff
03
f6
f9
fe
fc
fe
ff
ff
fe
02
fe
fc
fc
01
fd
ff
01
01
03
fe
03
03
fc
ff
fd
f3
f8
00
03
fd
f6
04
06
02
fe
00
fd
fd
ff
fc
fd
fd
fb
01
04
02
00
fc
fa
03
00
fc
f6
f7
ff
05
05
02
00
08
04
fd
fd
ff
fe
fc
fc
ff
fd
fb
07
07
05
fc
ff
03
fe
fe
ff
05
03
03
02
04
04
f8
fa
ff
05
06
04
04
fe
03
01
fc
fd
00
02
04
02
03
ff
01
02
ff
00
01
ff
ff
fe
fe
fe
fd
fd
ff
f4
f3
04
04
ff
ff
01
04
02
02
01
01
ff
fd
ff
fc
fc
00
fd
f9
08
07
f9
00
03
01
f4
fe
07
04
0f
05
02
06
01
01
03
fd
fe
fd
fa
fd
00
fe
00
ff
00
00
00
00
fd
fe
fe
02
00
07
fe
fe
fe
f9
fa
fe
01
00
01
01
01
01
00
02
00
ff
fd
fc
ff
fc
fb
ff
fe
fb
05
05
03
01
02
fe
fc
f9
fa
f4
ec
fb
07
fe
f4
fd
00
ff
04
02
01
fd
01
03
ff
fc
fb
fd
f3
fa
00
fc
fe
0a
0a
07
03
05
ff
02
06
00
fd
04
00
03
02
07
fc
fe
02
fe
fc
fe
fc
fa
00
00
01
00
fb
02
00
01
00
02
00
00
01
00
01
01
fc
fd
07
04
f9
f7
08
0d
0a
00
00
00
00
00
00
00
00
00
00
00
00
00
00
00
00
00
00
00
00
00
00
00
00
00
00
00
00
00
00
00
00
00
00
00
00
00
00
00
00
00
00
00
00
00
00
00
00
00
00
00
00
00
00
00
00
00
00
00
00
00
00
00
00
00
00
00
00
00
00
00
00
00
00
00
00
00
00
00
00
00
00
00
00
00
00
00
00
00
00
00
00
00
00
00
00
00
00
00
00
00
00
00
00
00
00
00
00
00
00
00
00
00
00
00
00
00
00
00
00
00
00
00
00
00
00
00
00
00
00
00
00
00
00
00
00
00
00
00
00
00
00
00
00
00
00
00
00
00
00
00
00
00
00
00
00
00
00
00
00
00
00
00
00
00
00
00
00
00
00
00
00
00
00
00
00
00
00
00
00
00
00
00
00
00
00
00
00
00
00
00
00
00
00
00
00
00
00
00
00
00
00
00
00
00
00
00
00
00
00
00
00
00
00
00
00
00
00
00
00
00
00
00
00
00
00
00
00
00
00
00
00
00
00
00
00
00
00
00
00
00
00
00
00
00
00
00
00
00
00
00
00
00
00
00
00
00
00
00
00
00
00
00
00
00
00
00
00
00
00
00
00
00
00
00
00
00
00
00
00
00
00
00
00
00
00
00
00
00
00
00
00
00
00
00
00
00
00
00
00
00
00
00
00
00
00
00
00
00
00
00
00
00
00
00
00
00
00
00
00
00
00
00
00
00
00
00
00
00
00
00
00
00
00
00
00
00
00
00
00
00
00
00
00
00
00
00
00
00
00
00
00
00
00
00
00
00
00
00
00
00
00
00
00
00
00
00
00
00
00
00
00
00
00
00
00
00
00
00
00
00
00
00
00
00
00
00
00
00
00
00
00
00
00
00
00
00
00
00
00
00
00
00
00
00
00
00
00
00
00
00
00
00
00
00
00
00
00
00
00
00
00
00
00
00
00
00
00
00
00
00
00
00
00
00
00
00
00
00
00
00
00
00
00
00
00
00
00
00
00
00
00
00
00
00
00
00
00
00
00
00
00
00
00
00
00
00
00
00
00
00
00
00
00
00
00
00
00
00
00
00
00
00
00
00
00
00
00
00
00
00
00
00
00
00
00
00
00
00
00
00
00
00
00
00
00
00
00
00
00
00
00
00
00
00
00
00
00
00
00
00
00
00
00
00
00
00
00
00
00
00
00
00
00
00
00
00
00
00
00
00
00
00
00
00
00
00
00
00
00
00
00
00
00
00
00
00
00
00
00
00
00
00
00
00
00
00
00
00
00
00
00
00
00
00
00
00
00
00
00
00
00
00
00
00
00
00
01
00
01
00
01
01
00
00
00
00
00
00
00
00
00
00
00
00
00
00
00
00
00
00
00
00
00
00
00
00
00
00
00
00
00
00
00
00
00
00
00
00
00
00
00
00
00
00
00
01
00
00
01
00
00
00
00
00
01
00
00
00
01
01
00
00
01
01
01
01
00
00
00
00
00
00
00
00
00
00
00
01
ff
00
00
00
00
00
00
00
00
00
00
00
00
00
00
01
01
00
01
01
01
02
01
01
00
01
00
00
00
01
01
00
00
00
00
00
00
00
00
00
00
00
00
00
00
00
00
00
01
00
00
00
00
00
00
00
00
00
00
00
00
01
01
01
00
01
01
00
00
00
00
00
00
00
00
00
00
00
ff
00
00
00
00
00
00
00
00
01
01
01
00
00
01
00
00
01
00
00
00
00
00
00
00
00
00
01
01
01
00
00
01
01
00
00
00
00
00
00
00
00
00
00
00
00
00
01
00
00
00
00
01
01
00
00
00
00
00
00
00
00
00
00
00
00
00
00
00
00
00
00
00
00
00
00
00
00
00
01
01
00
00
00
00
00
00
00
00
00
00
00
00
00
00
00
01
00
00
00
00
00
00
00
00
00
00
00
00
00
00
00
00
00
00
00
00
00
00
00
00
00
00
00
00
00
00
00
00
00
00
00
00
00
00
00
00
00
00
00
01
01
01
01
00
ff
ff
00
00
00
00
ff
00
ff
00
00
00
00
00
00
00
00
00
00
00
00
00
00
00
00
00
00
00
00
00
00
00
00
00
00
00
00
00
00
00
00
00
00
00
00
00
00
00
00
00
00
00
01
00
00
01
00
00
00
01
00
00
00
00
00
00
00
00
00
00
00
00
01
00
00
01
00
00
00
00
00
00
00
00
00
00
00
00
00
00
00
00
00
00
00
00
00
00
00
00
01
00
00
00
01
00
00
00
00
00
00
00
00
00
00
00
00
01
01
00
01
01
00
00
00
ff
01
01
01
01
01
00
01
01
00
00
00
00
00
01
00
00
01
00
00
00
00
00
00
00
00
00
01
01
01
00
01
00
01
00
00
00
00
00
00
00
00
00
00
00
00
00
00
00
00
00
00
00
00
01
00
00
01
00
00
01
01
01
00
00
01
00
01
00
00
00
01
00
00
00
00
00
00
00
00
00
00
00
01
00
00
01
00
01
01
00
00
00
00
00
00
ff
00
00
00
00
00
00
00
00
00
00
00
01
00
00
00
00
00
00
00
00
00
00
00
00
00
00
00
00
00
00
01
02
00
01
01
01
01
01
01
01
01
01
01
00
00
00
00
f8
fd
04
fc
fe
00
fd
fe
01
ff
ff
fe
00
00
ff
ff
ff
ff
fd
fd
00
ff
01
02
03
02
01
fe
fe
03
01
01
01
03
00
04
00
01
05
ff
fd
fe
fc
fd
fe
ff
00
02
ff
ff
fe
00
02
03
ff
00
03
fd
fd
ff
00
fe
fd
03
07
0a
00
00
ff
ff
fd
fa
00
ff
fe
02
01
01
00
00
ff
04
05
07
01
01
fe
ff
ff
fc
ff
ff
ff
02
00
00
01
01
fe
06
05
05
0b
01
fa
03
fa
f5
05
00
fe
00
01
02
05
04
02
00
01
01
fe
02
03
00
01
01
fe
01
02
ff
01
02
01
00
02
01
ff
00
00
fd
ff
01
fe
00
fd
fe
fb
fd
fb
fa
fe
fd
00
00
ff
01
01
00
ff
02
02
ff
00
03
03
01
00
fd
ff
fc
fc
01
03
ff
fc
fb
01
fb
01
01
ff
ff
03
00
ff
01
02
01
00
fd
f8
f8
f8
fd
01
00
01
01
ff
fe
ff
ff
00
00
ff
ff
ff
02
01
00
02
00
ff
01
03
00
01
00
01
01
03
03
00
01
01
00
00
00
00
00
ff
00
00
ff
fe
fd
ff
00
01
01
01
01
01
ff
ff
ff
fe
03
04
03
04
03
ff
01
00
fe
00
02
01
02
01
00
01
01
01
ff
01
00
fd
fe
00
05
05
01
01
01
01
00
fe
01
ff
00
01
01
00
02
02
02
02
fd
fd
00
02
01
03
03
00
00
fc
fb
03
05
04
04
04
00
02
02
00
02
01
00
01
01
02
02
ff
fd
ff
02
05
00
02
03
00
ff
ff
01
01
00
00
ff
fe
01
01
fe
02
ff
ff
01
fe
00
ff
fe
fe
fd
03
03
00
01
01
fe
ff
ff
fe
ff
00
fe
fd
fd
fe
fc
fc
fe
fc
fc
fd
fe
fb
00
00
04
01
fe
00
01
ff
ff
00
00
ff
01
fc
fb
01
04
01
01
fe
00
fe
fb
ff
00
fd
fc
fd
ff
00
ff
ff
ff
ff
ff
fe
fe
04
05
00
00
00
00
00
fe
00
01
02
01
00
02
00
ff
01
fe
fc
fc
fd
fa
fd
02
fd
04
00
01
fc
04
04
02
05
00
01
00
fd
fa
fd
fc
fc
fd
f9
f8
00
02
02
01
01
02
01
00
00
03
03
04
ff
fe
01
ff
ff
ff
fe
ff
ff
ff
ff
ff
ff
ff
ff
ff
ff
ff
00
00
ff
ff
ff
fe
ff
00
ff
fb
fd
fe
fc
fe
fd
ff
ff
ff
fe
02
04
00
02
03
01
01
ff
01
00
fe
01
fd
fd
ff
fd
fd
00
fc
fc
01
fd
fe
00
00
02
00
ff
00
00
fe
01
01
01
ff
02
01
ff
01
04
ff
06
00
ff
fe
00
00
04
07
ff
fe
fc
fd
fd
fb
fc
fc
fd
fe
00
00
fe
ff
fd
fd
01
fd
fd
ff
fe
fe
ff
fe
fd
00
fe
fd
02
fc
01
f9
01
06
ff
fd
fb
03
03
03
02
02
00
02
01
ff
fd
ff
ff
fc
fd
ff
01
fe
fb
fd
f7
fb
07
0a
f6
04
fa
f7
05
fa
02
fb
fb
06
fd
00
fe
fa
fb
f2
fe
0c
f8
fe
0c
f6
05
fc
fe
05
00
f5
09
00
f1
00
00
03
ee
03
02
f3
08
08
ff
ff
fd
01
00
f6
02
fd
f6
01
00
ff
fe
07
01
f3
fd
01
ff
03
00
05
10
00
03
f9
fd
00
fd
10
f1
05
0e
f6
fc
03
02
09
07
00
10
06
fc
01
fc
03
fd
ff
fb
fc
fe
f9
fa
fc
00
00
05
f5
fb
02
fd
fb
02
fc
f6
ff
fe
ff
02
06
04
01
02
01
fc
04
01
03
06
04
07
fd
ff
fb
04
0b
fa
07
05
fa
fe
fe
00
04
ff
00
fc
f8
ff
07
00
fe
fe
02
09
f8
f9
04
f6
f5
fa
fd
04
fb
02
08
f7
fc
00
10
ee
fa
06
f4
fc
0b
02
04
07
03
08
01
08
07
01
fd
fd
ff
03
0b
02
02
fc
f7
fe
01
fd
02
04
fe
01
00
fd
01
01
fd
01
00
fb
01
ff
fc
04
fd
ff
05
02
fa
06
f6
f9
03
01
03
fc
02
fe
fc
fc
fe
02
fb
03
f7
f8
05
fd
ff
ff
fd
fb
fd
01
ff
fc
03
fa
f8
00
ff
01
fb
fe
ff
f6
05
05
04
06
0c
05
05
01
07
02
00
ff
ff
fd
02
01
fb
fc
fb
f8
06
08
02
ff
10
03
fe
f9
fc
01
01
fe
03
03
fa
03
04
f4
fd
f9
04
f6
fa
05
00
04
05
02
03
02
01
02
fe
01
00
ff
fe
f9
02
00
fb
00
08
08
07
fc
02
08
f8
fd
02
f9
07
06
01
ff
ff
01
00
00
fe
01
fb
01
fe
fd
03
00
02
00
f9
fc
f7
f6
01
02
03
fb
03
fa
f6
fc
fa
f9
03
00
00
0b
07
f9
f3
f2
f7
f5
fe
fa
01
0a
01
01
00
00
fd
00
fe
fe
02
00
01
fb
ff
fc
f6
02
f5
fa
0a
01
f9
f9
00
fa
f6
04
01
f6
ff
f8
05
fb
f3
02
f9
0a
07
fa
04
00
ff
0b
ff
00
fb
05
00
07
ff
00
01
fc
02
05
f3
ff
ff
fe
02
00
fd
03
00
fd
03
fd
fa
fc
fa
01
02
06
fe
01
00
ff
01
01
00
01
02
00
01
03
04
01
04
01
04
04
01
04
01
fc
08
04
f4
0a
01
f2
fb
fb
02
f0
f4
00
fd
02
03
fe
fd
ff
03
01
fc
02
fa
f9
fb
01
00
02
14
fe
01
03
05
00
fd
00
04
ff
fc
06
ff
ff
fb
f7
fe
ff
04
fb
03
fc
f4
01
04
00
08
05
fb
02
fe
fa
fe
fd
fc
00
ff
fd
01
02
ff
fd
f4
f6
fb
f9
fe
04
01
07
00
00
00
01
00
00
01
00
00
fd
f9
f6
00
fe
fe
03
04
fe
01
00
00
02
01
00
01
00
00
ff
00
00
01
01
00
02
02
02
fd
fc
ff
ff
fc
fb
02
01
ff
00
01
fe
ff
ff
03
fe
ff
fc
07
00
01
07
ff
fe
04
02
fe
ff
fc
fd
00
ff
ff
fe
ff
ff
00
05
05
f8
f9
fd
fe
fc
00
01
ff
ff
04
01
00
04
02
01
00
fd
fe
00
fe
03
03
00
00
ff
ff
ff
00
ff
fe
01
03
02
00
01
fd
fe
00
00
04
03
01
ff
fb
02
ff
fb
fd
02
ff
fc
02
01
fe
00
01
01
01
03
03
00
fd
fa
ff
ff
ff
03
04
00
01
02
fd
fe
fc
02
ff
fe
00
09
0f
08
fd
04
01
fb
fe
fd
fe
ff
01
02
ff
fe
04
02
00
fe
fa
fe
ff
f9
ff
01
fd
01
02
01
02
fc
fb
01
fe
fd
f5
02
02
02
01
fd
fd
01
00
ff
00
04
05
f7
f7
ff
f9
fa
f9
ff
ff
fe
ff
00
ff
00
ff
ff
00
fc
fe
00
fc
fc
01
fd
fe
00
ff
fd
01
01
01
00
00
01
00
00
ff
00
00
00
ff
00
00
01
01
02
ff
fd
ff
03
ff
fd
ff
00
02
01
01
02
05
07
05
ff
02
00
fe
ff
00
02
04
04
02
00
ff
01
fe
00
01
00
01
fe
ff
01
ff
fe
ff
03
02
01
fe
01
00
01
00
01
02
01
00
ff
fe
ff
02
02
03
01
03
04
ff
03
ff
fb
fa
fc
fb
fc
f9
00
02
02
03
02
02
03
02
03
04
08
02
fc
02
08
ff
00
03
ff
ff
00
00
00
00
00
ff
ff
03
09
02
fe
ff
04
00
fd
01
01
01
ff
ff
00
00
01
ff
fd
fe
00
fa
ff
01
ff
ff
00
00
fb
f8
fa
02
00
00
02
00
ff
fb
fd
01
fc
fa
fd
02
fe
fe
04
02
fd
00
00
fb
01
00
fe
ff
05
08
fc
fc
01
fe
fc
fd
fe
fe
fd
fe
ff
ff
ff
ff
ff
00
00
02
fe
fd
fd
02
02
ff
03
04
ff
03
02
01
ff
00
00
06
01
09
00
fd
02
03
fd
fa
00
02
05
fc
f8
fc
fe
f8
fb
ff
fa
f9
00
fe
fa
04
04
fe
01
00
00
01
00
00
00
01
01
00
03
02
fd
01
03
fd
00
00
fe
00
ff
fe
fe
fe
fe
fe
fe
01
01
00
01
01
01
00
00
00
ff
fb
f9
00
fe
fc
04
04
02
00
08
02
fb
fe
04
ff
03
01
fd
fb
fe
ff
fa
fe
01
fd
ff
02
06
02
fc
fd
fb
fa
f8
f6
ff
fd
00
00
fd
00
00
ff
01
00
fe
fd
02
fd
fc
04
00
fe
fc
fc
fc
fc
fc
fd
fe
fb
fc
ff
ff
00
ff
fe
ff
fe
fe
fe
08
09
07
f8
f9
00
fb
f5
fb
01
01
01
01
01
00
01
01
00
00
01
fd
01
01
fd
00
ff
fd
fe
ff
ff
fe
ff
ff
fe
ff
ff
ff
00
ff
00
00
00
00
00
ff
02
fd
fe
04
fd
ff
ff
ff
ff
ff
00
ff
fe
fd
00
fc
fb
fd
01
01
fc
01
01
fc
fe
fc
fd
02
02
02
01
00
03
ff
ff
01
03
ff
01
00
fd
fd
03
02
fd
ff
00
00
00
00
00
fe
ff
00
01
03
01
ff
00
fd
ff
fd
fd
02
fe
00
03
fd
01
fe
fd
02
01
fc
f8
04
fe
fb
00
ff
ff
03
fe
fb
01
fd
fc
ff
fb
01
01
01
01
00
ff
01
00
01
02
fe
ff
ff
fd
ff
00
fe
ff
00
00
ff
fd
04
00
fb
01
01
fd
ff
02
fd
00
ff
fd
03
02
fd
01
fd
fd
02
fc
00
fe
fd
01
01
01
ff
05
00
fd
01
fd
fa
06
02
ff
06
fe
fa
01
f8
fe
02
fe
ff
03
fd
fe
ff
fb
fd
00
fb
fc
01
fb
fd
05
fd
fe
ff
00
00
fe
fe
ff
fe
ff
00
01
03
fc
01
06
fa
00
02
fb
fe
00
00
fe
00
00
ff
00
ff
02
01
00
02
02
00
01
01
00
00
01
fe
ff
01
fb
fe
01
fd
00
fd
fe
00
fe
01
ff
00
04
00
ff
00
ff
00
02
01
02
03
ff
ff
ff
03
00
fe
00
fe
fd
00
04
03
fe
00
00
ff
00
ff
fe
ff
00
fe
fe
00
fc
fe
01
fd
fe
fe
ff
ff
01
00
00
01
06
fe
fc
07
02
ff
00
00
fd
fd
01
00
fb
fd
ff
fd
ff
01
fe
fd
fe
05
00
ff
03
03
03
fe
ff
ff
fd
ff
ff
fd
ff
00
fc
fd
fc
03
03
fc
fe
03
fd
00
fe
ff
ff
fd
ff
01
ff
ff
02
02
01
03
01
00
03
03
00
ff
fe
fe
ff
fe
fd
ff
ff
fe
01
fd
fd
03
fb
ff
fe
fd
01
06
05
00
0a
03
fc
07
02
fa
02
00
00
03
00
02
01
01
01
02
02
01
01
02
01
00
01
00
02
05
02
01
01
ff
01
00
fd
01
00
ff
01
01
fe
ff
00
fe
04
fb
fb
02
ff
fd
03
fd
fc
02
fd
fd
09
fc
fd
04
ff
fe
07
08
04
00
ff
ff
02
fe
fe
fe
ff
00
fe
ff
00
fe
ff
00
01
00
ff
01
02
01
00
02
02
01
01
00
01
02
00
01
01
00
fe
ff
ff
fd
ff
ff
fd
ff
ff
01
01
00
ff
ff
ff
01
01
00
fd
fd
ff
02
02
01
01
04
04
00
01
ff
04
01
fe
00
ff
fe
01
01
00
03
02
ff
ff
02
fe
fc
ff
ff
fe
fe
fe
fd
fd
fe
00
09
fd
02
0b
fa
02
05
fa
fe
07
02
fc
02
fe
ff
03
00
ff
01
01
00
01
01
00
01
01
06
fd
fb
07
fd
fb
01
00
fd
00
00
00
00
00
00
00
00
00
00
00
00
00
00
00
00
00
00
00
00
00
00
00
00
00
00
00
00
00
00
00
00
00
00
00
00
00
00
00
00
00
00
00
00
00
00
00
00
00
00
00
00
00
00
00
00
00
00
00
00
00
00
00
00
00
00
00
00
00
00
00
00
00
00
00
00
00
00
00
00
00
00
00
00
00
00
00
00
00
00
00
00
00
00
00
00
00
00
00
00
00
00
00
00
00
00
00
00
00
00
00
00
00
00
00
00
00
00
00
00
00
00
00
00
00
00
00
00
00
00
00
00
00
00
00
00
00
00
00
00
00
00
00
00
00
00
00
00
00
00
00
00
00
00
00
00
00
00
00
00
00
00
00
00
00
00
00
00
00
00
00
00
00
00
00
00
00
00
00
00
00
00
00
00
00
00
00
00
00
00
00
00
00
00
00
00
00
00
00
00
00
00
00
00
00
00
00
00
00
00
00
00
00
00
00
00
00
00
00
00
00
00
00
00
00
00
00
00
00
00
00
00
00
00
00
00
00
00
00
00
00
00
00
00
00
00
00
00
00
00
00
00
00
00
00
00
00
00
00
00
00
00
00
00
00
00
00
00
00
00
00
00
00
00
00
00
00
00
00
00
00
00
00
00
00
00
00
00
00
00
00
00
00
00
00
00
00
00
00
00
00
00
00
00
00
00
00
00
00
00
00
00
00
00
00
00
00
00
00
00
00
00
00
00
00
00
00
00
00
00
00
00
00
00
00
00
00
00
00
00
00
00
00
00
00
00
00
00
00
00
00
00
00
00
00
00
00
00
00
00
00
00
00
00
00
00
00
00
00
00
00
00
00
00
00
00
00
00
00
00
00
00
00
00
00
00
00
00
00
00
00
00
00
00
00
00
00
00
00
00
00
00
00
00
00
00
00
00
00
00
00
00
00
00
00
00
00
00
00
00
00
00
00
00
00
00
00
00
00
00
00
00
00
00
00
00
00
00
00
00
00
00
00
00
00
00
00
00
00
00
00
00
00
00
00
00
00
00
00
00
00
00
00
00
00
00
00
00
00
00
00
00
00
00
00
00
00
00
00
00
00
00
00
00
00
00
00
00
00
00
00
00
00
00
00
00
00
00
00
00
00
