fd
fe
fe
fe
ff
fe
fe
ff
fe
fe
ff
ff
ff
ff
ff
ff
fe
ff
02
03
02
03
03
02
02
01
02
ff
ea
0c
0e
11
0d
f3
f3
fc
ff
f2
f6
14
f7
18
f2
e1
03
f9
fd
f0
17
0a
13
0e
0a
e8
03
01
fe
03
01
fd
02
01
fc
02
00
00
00
00
fe
00
ff
ff
fc
fe
fe
fc
fe
ff
fb
fe
ff
01
fd
fd
02
fb
fb
05
02
01
fe
fe
fe
01
fd
ff
05
03
04
fb
fc
fd
02
fc
fd
07
03
04
07
ff
f3
07
14
f0
ff
06
f4
f4
05
03
08
08
02
02
0b
dd
f1
16
ff
ed
0b
f7
f8
0e
0b
09
e9
f0
0c
0e
10
e3
05
e9
ff
0b
ed
fc
15
02
08
0b
1e
e7
13
ee
01
14
10
f8
f8
de
22
ef
eb
0f
0a
0c
00
ed
f3
f8
f2
04
08
f2
f3
16
f5
12
04
f8
0d
07
ec
09
0d
f1
05
00
ec
dd
06
ea
f1
02
f9
11
12
13
00
07
0b
0b
fd
01
0c
fb
03
06
f3
0a
08
fd
0f
f0
1c
07
11
f7
10
df
fc
e2
0a
e9
f5
07
00
03
e0
f2
2d
11
eb
db
f4
14
06
df
16
04
38
fe
01
f9
f9
f8
fb
00
ff
0c
f6
07
05
01
04
07
fe
09
ff
03
fb
04
fb
01
05
ff
fe
fd
f6
00
fc
fd
f9
12
03
09
03
06
eb
f2
fb
00
04
09
05
00
03
fb
f1
01
01
14
f2
08
06
0e
0e
01
00
04
05
02
f1
ee
de
fc
0e
05
14
e7
0b
f6
0f
0b
07
f1
04
04
f4
03
03
fc
22
3c
2e
ff
05
05
d1
bc
e3
0d
fe
11
25
d4
e2
e6
1b
04
d3
d4
a8
e1
06
36
41
4a
0d
04
0d
ff
22
ef
f9
eb
f9
0f
06
0b
fc
13
d5
fb
ea
fa
09
12
06
dc
f5
ee
00
06
fe
2a
02
04
06
04
fd
ff
fc
04
fb
08
fe
02
f9
fd
ff
00
f7
ff
02
08
08
01
07
fc
fb
ff
fc
f3
f8
02
13
0f
fc
00
fa
fa
fd
fb
07
07
0d
09
f8
f7
f5
03
f9
f4
0f
01
14
f6
fa
fd
f2
0f
fb
0d
f9
0c
02
ef
0e
03
ff
01
f8
fa
08
fc
01
f1
f7
11
ff
f1
fb
0d
01
fa
0f
df
f9
fc
14
01
ec
15
07
1a
e0
04
3b
fd
d8
03
0a
e8
e7
f7
ff
04
23
f4
f2
11
10
f6
03
08
fc
05
fe
fd
01
fe
fa
05
04
ff
03
02
f8
03
ff
fb
05
f8
fd
05
fe
ff
01
03
ff
fd
fd
04
f4
fd
04
00
09
0a
f8
f6
07
07
fd
04
04
f9
06
fb
fe
fe
01
fb
08
00
f5
0c
18
e8
03
ff
c6
f0
fd
30
1a
1c
d2
e1
d2
18
37
05
ee
16
2d
48
e5
e6
e6
10
fd
01
d0
ff
fb
ef
07
0b
f4
0c
04
01
03
fa
fd
08
fe
f0
04
08
fd
08
fc
09
f6
00
f8
03
08
fe
c2
ed
f8
28
34
d5
04
0e
16
fc
ec
39
16
1f
da
e8
d8
0a
06
07
f2
36
1d
05
d5
c3
15
06
f3
fd
00
fb
fd
ee
06
07
0d
f8
00
05
fc
fc
fc
05
00
fe
ff
ff
01
04
f7
00
0c
f9
f6
fc
04
e9
16
07
fa
12
f7
0f
f8
0a
fa
09
f9
f6
0f
f1
f9
ef
09
f1
0e
fc
04
07
06
fc
ff
03
02
f9
fa
05
fc
fd
05
05
06
0c
ff
01
05
ff
fd
02
00
06
f7
f8
fa
00
fa
fe
ff
fc
00
fb
01
03
f9
01
05
ff
fe
ff
01
03
02
fe
03
05
02
00
ff
03
03
00
01
02
00
07
0b
f9
f3
f1
f6
ff
0e
02
f7
08
07
ec
18
f0
f8
26
f8
ff
f7
0f
fb
10
01
00
05
e9
05
0d
02
06
fc
02
f6
fa
fa
0a
04
01
05
06
f8
f8
f6
f7
04
05
02
fe
fc
02
09
fb
fa
ff
03
01
0a
08
00
f3
f8
00
09
03
02
fa
02
08
f8
f7
fa
fe
ff
f8
06
09
fd
fa
04
05
fa
fd
14
f6
01
02
fa
f6
00
02
f8
06
03
fc
01
00
02
04
06
ff
fe
01
fb
08
f9
01
05
fa
fd
f9
06
fe
04
0c
04
05
ff
f7
f3
f8
fa
01
fe
09
01
fd
fd
0b
f9
f9
fc
0b
06
09
f1
fb
eb
00
fa
f3
08
f7
f1
17
11
19
fb
19
13
ff
e1
1d
f4
ec
05
fe
05
09
09
f2
e3
f3
08
00
03
03
15
fd
02
04
f6
02
07
0c
fb
eb
0c
04
f6
05
17
09
13
fd
e5
f7
f5
f3
ec
21
09
04
ea
f3
0f
ec
fd
e0
18
f7
07
04
08
1c
f5
fd
d9
19
0b
23
1d
eb
0a
ce
f8
fa
fe
0c
11
01
0a
ff
02
ff
07
f8
f8
07
fd
fb
04
fc
fa
00
f8
f8
f4
ef
f7
fd
08
02
f7
12
0e
f6
03
06
02
ee
01
0b
04
06
fc
e0
0c
04
06
ec
04
04
07
f3
fa
04
0c
f7
fc
02
fc
02
fb
fa
00
fd
04
0e
ff
fe
fe
fe
fd
00
fc
fe
01
03
03
fd
03
00
fc
01
fd
fa
ee
0d
0b
fc
ff
0c
05
f8
ed
f5
02
09
02
f6
07
06
00
07
f3
14
06
f2
f6
ff
ff
02
03
f5
02
01
00
ee
f7
00
17
0b
08
05
03
fc
f2
f3
05
06
06
02
10
0f
fc
f4
f6
ff
fe
fc
04
03
08
fa
ff
fe
fe
fc
fe
fe
06
06
fb
fc
fe
fd
fe
00
04
05
02
07
00
02
06
03
03
0b
f9
f6
f7
04
04
fd
05
f4
f9
f4
02
f0
fb
01
05
05
fb
f6
fd
fb
00
06
15
01
08
0d
17
13
f3
01
f9
f7
fe
00
f3
13
09
fe
e3
0d
f5
00
0f
ff
e7
f3
04
00
11
e7
0a
06
09
e5
f6
4a
e0
ff
05
ef
ef
1b
01
cc
13
0f
f0
fc
0d
f6
0f
4e
f3
ce
0e
04
f2
1f
0d
db
19
f8
e7
09
0c
eb
f9
11
0a
01
f4
02
03
0d
f8
f7
04
0b
00
01
02
0c
03
f7
ee
04
fd
ff
02
01
06
03
01
01
03
fc
f8
fe
fe
02
04
04
01
02
01
fb
fe
ff
00
05
ff
01
03
01
f6
ee
01
f7
0a
01
0f
0a
01
fd
00
02
fd
fa
fa
08
04
01
ed
07
fd
f8
ff
04
18
fc
02
00
fe
fc
fd
02
00
fd
f7
fe
09
0b
fe
02
0a
0d
04
05
08
f7
0a
f8
f6
fc
06
f7
fc
03
ec
dd
89
4b
3a
ed
39
0d
f3
1f
d4
4b
02
ef
17
af
03
0e
f4
28
42
ed
cb
0a
da
1a
ee
f6
02
0a
d5
16
f9
1a
f6
08
02
03
f2
2f
e5
30
24
15
8e
e2
de
43
e8
ec
16
eb
23
06
36
ee
00
61
da
1b
dc
08
fd
b5
e6
c5
99
fb
0c
0b
06
24
0a
40
45
1a
14
dd
09
02
d4
fe
01
02
fb
ff
04
fd
00
03
fd
04
02
fe
02
00
fe
fd
00
00
03
03
ff
00
00
ff
ff
fd
13
fa
f5
f9
13
00
ed
01
07
07
fe
08
f6
0d
f9
f3
f0
0e
07
f6
e5
08
12
01
fa
01
08
00
00
01
00
01
00
01
01
01
02
02
01
01
01
01
01
01
00
01
01
00
01
00
00
00
00
ff
00
fd
02
02
00
fb
01
03
ff
fb
fd
ff
fe
fe
fd
fa
ff
fc
03
00
fd
01
ff
fc
05
02
fe
f6
00
f2
f2
01
f9
f7
01
f5
fb
03
05
02
fc
02
0d
f9
fd
04
11
07
0e
03
03
04
08
fd
02
07
fe
fe
fe
13
ff
f3
fa
fb
0f
02
ed
03
13
02
f3
f3
04
1c
f7
04
fa
08
fe
f3
f7
fe
fb
05
ff
f3
0e
00
fc
04
ff
fc
07
fd
fd
04
fa
08
06
ff
fc
00
fd
f8
09
00
05
fe
df
13
07
1c
17
c4
0e
01
00
d1
16
28
0e
1b
f3
ef
e3
0a
f7
02
fd
f9
0c
eb
0d
ff
0d
09
f5
02
0c
f9
02
03
04
f4
fd
f0
01
f5
0f
03
06
ec
03
f8
0c
12
fd
f3
02
f8
f8
14
e8
14
05
f1
11
f9
e0
14
1b
00
fa
fc
f6
12
f7
ff
06
f2
02
04
02
01
f7
06
00
0e
f1
e8
e8
0d
fa
1f
10
d6
0f
20
df
1b
13
f6
fb
d9
03
0e
19
3b
27
e1
1d
b5
e5
18
ff
e6
01
03
03
01
04
02
00
02
00
01
06
00
02
04
02
ff
02
00
fe
fe
fb
00
fd
fd
01
fe
ff
18
f2
12
0d
00
f0
d3
1d
04
f0
df
2b
0d
03
e3
ec
28
ea
0c
c1
0e
29
19
d9
f7
23
f5
