fd
ff
02
ff
02
07
ff
02
00
01
0e
02
04
02
06
00
04
0d
00
00
00
00
00
00
00
00
00
00
fd
fe
ff
fc
05
07
00
05
ff
02
08
09
00
02
0b
03
fd
03
05
04
ff
ff
02
fd
02
03
00
02
04
fd
03
01
fc
fd
fd
06
02
fd
00
ff
f3
ff
fe
f9
05
04
01
ff
f5
06
fa
fa
09
02
05
ff
fd
ff
07
ff
fc
06
00
00
00
00
00
00
00
00
00
fe
fb
f9
01
f4
f9
f8
f8
02
01
00
06
04
01
fe
f8
f5
f9
05
ff
00
01
04
08
fa
fc
01
00
fe
fd
fc
f9
fa
ff
fa
fe
01
f4
ee
f5
ef
f9
fb
fa
fe
fe
fa
fe
ff
fd
02
ff
00
04
00
01
01
fb
04
00
fd
03
02
00
03
08
ff
04
05
fd
06
0d
00
00
00
00
00
00
00
00
00
f1
f8
fe
f5
05
0a
0b
0e
04
09
07
05
fe
fd
fa
f9
f6
00
04
04
fb
fc
fb
00
fd
ff
01
f4
f6
f3
f5
fb
fe
f6
03
03
00
00
00
00
00
00
00
00
01
09
05
01
06
01
00
0a
02
05
09
03
01
03
f9
f8
ff
fb
f7
03
03
0a
ff
f8
fc
fb
f6
00
03
fd
f8
f5
fd
02
fe
04
05
fb
03
0a
06
02
04
0d
0a
05
fb
f7
fc
f9
f4
f6
f8
fe
ff
fb
fa
fc
f7
fa
f5
fe
fb
fc
06
fb
03
0a
fc
f8
08
fd
ff
fd
f7
f5
fc
f1
f8
f4
f5
0e
f6
fb
02
f6
00
07
06
08
fa
0e
0c
07
fe
02
04
f8
fd
02
fd
05
09
01
03
09
02
05
04
fd
ff
05
f1
fb
04
f6
fa
f9
fb
08
ff
06
04
fd
05
01
fb
00
00
00
00
00
00
00
00
00
0d
01
fc
11
00
fe
06
fb
fd
fe
01
09
01
fb
fa
06
fb
f7
fb
f2
ef
03
fe
00
f1
f9
05
0f
09
02
10
fc
f9
0a
fe
f2
fa
f9
f5
01
fb
00
fb
04
00
00
00
00
00
00
00
00
00
00
06
08
10
09
08
17
03
0a
0e
00
00
00
00
00
00
00
00
00
f8
ff
00
f3
ff
ff
f9
06
02
fb
f2
ef
02
fe
01
fb
fb
08
fe
fe
05
00
00
00
fd
fd
f7
00
00
00
00
00
00
00
00
00
00
01
00
01
01
00
01
02
02
fd
fd
fa
00
00
03
fa
fd
00
f7
fb
fc
fb
03
ff
04
01
f8
fc
02
ff
02
02
00
06
02
ff
ff
f6
f2
fa
f5
fe
f9
00
07
00
00
00
00
00
00
00
00
00
01
03
03
01
04
02
06
03
01
00
00
00
00
00
00
00
00
00
f8
f3
f5
f8
fc
fe
ff
f8
01
00
00
00
00
00
00
00
00
00
fb
05
12
0a
04
06
0d
04
f8
ff
f9
fe
04
f9
03
f9
00
fe
fa
00
03
fc
f8
02
03
ff
03
03
0a
02
00
03
00
f8
fb
ff
fc
fa
fc
fb
f9
fd
f4
fd
04
06
05
07
ff
ff
f9
fc
f8
f8
00
00
00
00
00
00
00
00
00
09
04
00
fe
fc
01
f7
f8
03
f8
f8
fa
fa
f5
f7
f4
f5
ff
01
f8
f8
fc
f4
f4
00
f7
03
00
00
00
00
00
00
00
00
00
00
00
00
00
00
00
00
00
00
fc
fd
03
04
0a
07
08
08
fb
03
05
04
05
02
00
01
fc
00
04
03
fe
03
fe
fa
03
fc
fd
00
00
00
00
00
00
00
00
00
00
00
00
00
00
00
00
00
00
00
f8
f9
00
f9
fc
00
fe
08
0c
04
fd
09
ff
f8
04
01
ff
03
03
05
01
fc
fc
fc
f9
fc
f7
f7
fb
fa
f5
f7
fb
fa
ff
00
00
00
00
00
00
00
00
00
00
00
00
00
00
00
00
00
00
00
02
f8
fe
00
fa
fa
ff
ff
08
fa
f8
04
f7
f8
f5
f3
f7
02
03
00
05
03
01
05
ff
01
04
fc
fe
fa
00
03
02
05
09
fd
ff
fe
01
fe
ff
fc
f8
fc
fb
fb
fc
f9
f9
fe
f2
fb
0d
f9
f8
f6
02
fe
fe
0e
06
fb
00
00
00
00
00
00
00
00
00
00
06
0a
07
06
fb
fc
fe
f6
00
00
00
00
00
00
00
00
00
00
00
00
00
00
00
00
00
00
fe
02
0b
03
ff
07
02
00
01
0a
03
00
fb
02
f8
fd
01
f7
00
00
00
00
00
00
00
00
00
00
00
00
00
00
00
00
00
00
06
fe
fc
01
00
f8
fa
01
fc
00
00
00
00
00
00
00
00
00
04
01
08
fb
f9
02
f7
fc
00
f8
fe
09
f9
f9
04
f3
f8
fe
01
0c
08
02
fd
fa
05
02
09
fe
fb
fc
05
fe
fd
07
03
fc
01
fe
fa
f2
f1
f8
f6
f9
01
05
01
08
07
f6
fb
07
fb
04
0a
0c
fe
fa
ff
f1
f4
f8
01
04
09
08
06
07
05
08
00
fd
06
10
13
02
08
06
02
ff
02
ff
03
01
fd
fc
f9
fe
fa
fa
0d
01
fe
08
fd
fb
03
05
01
01
fe
01
fa
fb
05
fd
0a
09
f7
fe
fe
00
03
01
0c
05
05
fe
00
04
fb
ff
00
fa
ff
fe
01
06
04
06
00
ff
ff
fc
f4
00
00
00
00
00
00
00
00
00
fd
fb
fc
fe
ff
ff
f9
f4
f9
fc
ff
fb
05
fc
f8
f7
f5
f8
08
01
ff
02
01
fb
f9
fa
f7
06
06
07
03
04
01
fe
fd
fa
fd
ff
04
fc
fd
04
fb
00
07
02
02
02
02
06
07
04
08
04
00
00
00
00
00
00
00
00
00
01
fd
f7
07
00
fa
06
05
0b
06
04
02
fe
f6
fc
f5
f4
01
0a
fc
fa
00
f3
f8
02
02
fd
ff
03
05
ff
fd
fc
fd
fb
fb
10
fb
fc
04
f5
f5
fa
02
0b
fb
f8
fd
f3
fa
fc
01
ff
05
02
fd
00
f6
f9
03
01
0b
09
ff
00
00
02
00
fc
fd
01
fa
02
01
fc
fb
00
01
fd
09
0a
07
0b
04
fd
03
fd
fa
fe
04
fe
06
0f
01
06
07
fd
fe
fe
fe
f4
fa
fe
f8
fe
fc
fd
00
00
04
08
00
00
07
02
03
03
fe
04
03
ff
ff
01
f8
fb
fd
00
00
00
00
00
00
00
00
00
00
00
00
00
00
00
00
00
00
06
01
04
f8
01
03
05
0d
fd
03
fb
02
ff
f9
fd
00
ff
01
fc
02
04
ff
00
fc
f8
fc
fa
f7
fe
f9
fa
fa
f8
01
fd
07
06
fe
fe
fd
04
08
fe
0a
06
ec
fb
fa
f9
0f
0d
12
1a
08
00
00
00
00
00
00
00
00
00
fe
02
f4
f6
fd
f1
02
f7
f7
f9
f9
f2
00
fc
f5
fc
fd
03
01
06
ff
ff
fc
fb
fb
f4
03
00
04
fd
fd
00
fd
03
04
05
00
00
00
00
00
00
00
00
00
06
00
ff
01
fb
fb
06
01
ff
09
08
09
04
ff
fb
01
ff
ff
02
0c
09
fc
ff
fe
fe
f7
04
f6
03
09
0a
fe
05
05
06
08
00
00
00
00
00
00
00
00
00
ff
00
02
fe
ff
01
fc
fe
03
00
00
00
00
00
00
00
00
00
fe
04
04
ff
00
fb
fd
fd
fe
00
00
00
00
00
00
00
00
00
f7
ff
fc
f6
fd
02
f8
fc
02
03
02
fb
04
fc
f4
00
01
02
07
09
07
02
04
01
02
0b
0f
00
00
00
00
00
00
00
00
00
fe
00
fc
fe
01
08
01
07
07
06
04
fc
fc
fe
fd
fe
03
00
09
08
07
08
04
ff
ff
fa
f9
00
00
00
00
00
00
00
00
00
0e
05
fe
02
fd
f7
fb
fc
03
f9
03
0d
f9
f8
04
f0
f4
02
fe
ff
02
ff
02
05
f9
ff
04
f0
ef
ef
f7
fd
fa
fd
0b
09
fa
fc
ff
f6
f9
fd
f7
03
06
f9
f9
f1
fd
ff
fc
fd
fb
07
fb
f3
fc
f8
fb
fb
ff
fb
07
00
00
00
00
00
00
00
00
00
02
01
fe
f8
f8
f9
f0
ef
fa
00
00
00
00
00
00
00
00
00
fd
fe
fe
04
fd
02
05
05
01
00
00
00
ff
00
00
00
00
ff
f7
f9
f7
03
f6
fc
0a
f7
fb
ff
01
fd
05
05
05
06
05
02
ed
f9
f3
ff
01
fa
01
09
05
f2
f0
f6
f6
f6
00
fd
ff
06
00
00
00
00
00
00
00
00
00
06
ff
05
00
fe
ff
ff
00
04
00
00
00
00
00
00
00
00
00
ff
08
08
fc
01
06
fb
ff
fa
03
05
05
01
fe
04
ff
02
08
fd
fa
fe
03
01
05
ff
fb
04
00
00
00
00
00
00
00
00
00
00
00
00
00
00
00
00
00
00
00
00
00
00
00
00
00
00
00
00
00
00
00
00
00
00
00
00
00
00
00
00
00
00
00
00
00
00
00
00
00
00
00
00
00
00
00
00
00
00
00
00
00
00
00
00
00
00
00
00
00
00
00
00
00
00
00
00
00
00
00
00
00
00
00
00
00
00
00
00
00
00
00
00
00
00
00
00
00
00
00
00
00
00
00
00
00
00
00
00
00
00
00
00
00
00
00
00
00
00
00
00
00
00
00
00
00
00
00
00
00
00
00
00
00
00
00
00
00
00
00
00
00
00
00
00
00
00
00
00
00
00
00
00
00
00
00
00
00
00
00
00
00
00
00
00
00
00
00
00
00
00
00
00
00
00
00
00
00
00
00
00
00
00
00
00
00
00
00
00
00
00
00
00
00
00
00
00
00
00
00
00
00
00
00
00
00
00
00
00
00
00
00
00
00
00
00
00
00
00
00
00
00
00
00
00
00
00
00
00
00
00
00
00
00
00
00
00
00
00
00
00
00
00
00
00
00
00
00
00
00
00
00
00
00
00
00
00
00
00
00
00
00
00
00
00
00
00
00
00
00
00
00
00
00
00
00
00
00
00
00
00
00
00
00
00
00
00
00
00
00
00
00
00
00
00
00
00
00
00
00
00
00
00
00
00
00
00
00
00
00
00
00
00
00
00
00
00
00
00
00
00
00
00
00
00
00
00
00
00
00
00
00
00
00
00
00
00
00
00
00
00
00
00
00
00
00
00
00
00
00
00
00
00
00
00
00
00
00
00
00
00
00
00
00
00
00
00
00
00
00
00
00
00
00
00
00
00
00
00
00
00
00
00
00
00
00
00
00
00
00
00
00
00
00
00
00
00
00
00
00
00
00
00
00
00
00
00
00
00
00
00
00
00
00
00
00
00
00
00
00
00
00
00
00
00
00
00
00
00
00
00
00
00
00
00
00
00
00
00
00
00
00
00
00
00
00
00
00
00
00
00
00
00
00
00
00
00
00
00
00
00
00
00
00
00
00
00
00
00
00
00
00
00
00
00
00
00
00
00
00
00
00
00
00
00
00
00
00
00
00
00
00
00
00
00
00
00
00
00
00
00
00
00
00
00
00
00
00
00
00
00
00
00
00
00
00
00
00
00
00
00
00
00
00
00
00
00
00
00
00
00
00
00
00
00
00
00
00
00
00
00
00
00
00
00
00
00
00
00
00
00
00
00
00
00
00
00
00
00
00
00
00
00
00
00
00
00
00
00
00
00
00
00
00
00
00
00
00
00
00
00
00
00
00
00
00
00
00
00
00
00
00
00
00
00
00
00
00
00
00
00
00
00
00
00
00
00
00
00
00
00
00
00
00
00
00
00
00
00
00
00
00
00
00
00
00
00
00
00
00
00
00
00
00
00
00
00
00
00
00
00
00
00
00
00
00
00
00
00
00
00
00
00
00
00
00
00
00
00
00
00
00
00
00
00
00
00
00
00
00
00
00
00
00
00
00
00
00
00
00
00
00
00
00
00
00
00
00
00
00
00
00
00
00
00
00
00
00
00
00
00
00
00
00
00
00
00
00
00
00
00
00
00
00
00
00
00
00
00
00
00
00
00
00
00
00
00
00
00
00
00
00
00
00
00
00
00
00
00
00
00
00
00
00
00
00
00
00
00
00
00
00
00
00
00
00
00
00
00
00
00
00
00
00
00
00
00
00
00
00
00
00
00
00
00
00
00
00
00
00
00
00
00
00
00
00
00
00
00
00
00
00
00
00
00
00
00
00
00
00
00
00
00
00
00
00
00
00
00
00
00
00
00
00
00
00
00
00
00
00
00
00
00
00
00
00
00
00
00
00
00
00
00
00
00
00
00
00
00
00
00
00
00
00
00
00
00
00
00
00
00
00
00
00
00
00
00
00
00
00
00
00
00
00
00
00
00
00
00
00
00
00
00
00
00
00
00
00
00
00
00
00
00
00
00
00
00
00
00
00
00
00
00
00
00
00
00
00
00
00
00
00
00
00
00
00
00
00
00
00
00
00
00
00
00
00
00
00
00
00
00
00
00
00
00
00
00
00
00
00
00
00
00
00
00
00
00
00
00
00
00
00
00
00
00
00
00
00
00
00
00
00
00
00
00
00
00
00
00
00
00
00
00
00
00
00
00
00
00
00
00
00
00
00
00
00
00
00
00
00
00
00
00
00
00
00
00
00
00
00
00
00
00
00
00
00
00
00
00
00
00
00
00
00
00
00
00
00
00
00
00
00
00
00
00
00
00
00
00
00
00
00
00
00
00
00
00
00
00
00
00
00
00
00
00
00
00
00
00
00
00
00
00
00
00
00
00
00
00
00
00
00
00
00
00
00
00
00
00
00
00
00
00
00
00
00
00
00
00
00
00
00
00
00
00
00
00
00
00
00
00
00
00
00
00
00
00
00
00
00
00
00
00
00
00
00
00
00
00
00
00
00
00
00
00
00
00
00
00
00
00
00
00
00
00
00
00
00
00
00
00
00
00
00
00
00
00
00
00
00
00
00
00
00
00
00
00
00
00
00
00
00
00
00
00
00
00
00
00
00
00
00
00
00
00
00
00
00
00
00
00
00
00
00
00
00
00
00
00
00
00
00
00
00
00
00
00
00
00
00
00
00
00
00
00
00
00
00
00
00
00
00
00
00
00
00
00
00
00
00
00
00
00
00
00
00
00
00
00
00
00
00
00
00
00
00
00
00
00
00
00
00
00
00
00
00
00
00
00
00
00
00
00
00
00
00
00
00
00
00
00
00
00
00
00
00
00
00
00
00
00
00
00
00
00
00
00
00
00
00
00
00
00
00
00
00
00
00
00
00
00
00
00
00
00
00
00
00
00
00
00
00
00
00
00
00
00
00
00
00
00
00
00
00
00
00
00
00
00
00
00
00
00
00
00
00
00
00
00
00
00
00
00
00
00
00
00
00
00
00
00
00
00
00
00
00
00
00
00
00
00
00
00
00
00
00
00
00
00
00
00
00
00
00
00
00
00
00
00
00
00
00
00
00
00
00
00
00
00
00
00
00
00
00
00
00
00
00
00
00
00
00
00
00
00
00
00
00
00
00
00
00
00
00
00
00
00
00
00
00
00
00
00
00
00
00
00
00
00
00
00
00
00
00
00
00
00
00
00
00
00
00
00
00
00
00
00
00
00
00
00
00
00
00
00
00
00
00
00
00
00
00
00
00
00
00
00
00
00
00
00
00
00
00
00
00
00
00
00
00
00
00
00
00
00
00
00
00
00
00
00
00
00
00
00
00
00
00
00
00
00
00
00
00
00
00
00
00
00
00
00
00
00
00
00
00
00
00
00
00
00
00
00
00
00
00
00
00
00
00
00
00
00
00
00
00
00
00
00
00
00
00
00
00
00
00
00
00
00
00
00
00
00
00
00
00
00
00
00
00
00
00
00
00
00
00
00
00
00
00
00
00
00
00
00
00
00
00
00
00
00
00
00
00
00
00
00
00
00
00
00
00
00
00
00
00
00
00
00
00
00
00
00
00
00
00
00
00
00
00
00
00
00
00
00
00
00
00
00
00
00
00
00
00
00
00
00
00
00
00
00
00
00
00
00
00
00
00
00
00
00
00
00
00
00
00
00
00
00
00
00
00
00
00
00
00
00
00
00
00
00
00
00
00
00
00
00
00
00
00
00
00
00
00
00
00
00
00
00
00
00
00
00
00
00
00
00
00
00
00
00
00
00
00
00
00
00
00
00
00
00
00
00
00
00
00
00
00
00
00
00
00
00
00
00
00
00
00
00
00
00
00
00
00
00
00
00
00
00
00
00
00
00
00
00
00
00
00
00
00
00
00
00
00
00
00
00
00
00
00
00
00
00
00
00
00
00
00
00
00
00
00
00
00
00
00
00
00
00
00
00
00
00
00
00
00
00
00
00
00
00
00
00
00
00
00
00
00
00
00
00
00
00
00
00
00
00
00
00
00
00
00
00
00
00
00
00
00
00
00
00
00
00
00
00
00
00
00
00
00
00
00
00
00
00
00
00
00
00
00
00
00
00
00
00
00
00
00
00
00
00
00
00
00
00
00
00
00
00
00
00
00
00
00
00
00
00
00
00
00
00
00
00
00
00
00
00
00
00
00
00
00
00
00
00
00
00
00
00
00
00
00
00
00
00
00
00
00
00
00
00
00
00
00
00
00
00
00
00
00
00
00
00
00
00
00
00
00
00
00
00
00
00
00
00
00
00
00
00
00
00
00
00
00
00
00
00
00
00
00
00
00
00
00
00
00
00
00
00
00
00
00
00
00
00
00
00
00
00
00
00
00
00
00
00
00
00
00
00
00
00
00
00
00
00
00
00
00
00
00
00
00
00
00
00
00
00
00
00
00
00
00
00
00
00
00
00
00
00
00
00
00
00
00
00
00
00
00
00
00
00
00
00
00
00
00
00
00
00
00
00
00
00
00
00
00
00
00
00
00
00
00
00
00
00
00
00
00
00
00
00
00
00
00
00
00
00
00
00
00
00
00
00
00
00
00
00
00
00
00
00
00
00
00
00
00
00
00
00
00
00
00
00
00
00
00
00
00
00
00
00
00
00
00
00
00
00
00
00
00
00
00
00
00
00
00
00
00
00
00
00
00
00
00
00
00
00
00
00
00
00
00
00
00
00
00
00
00
00
00
00
00
00
00
00
00
00
00
00
00
00
00
00
00
00
00
00
00
00
00
00
00
00
00
00
00
00
00
00
00
00
00
00
00
00
00
00
00
00
00
00
00
00
00
00
00
00
00
00
00
00
00
00
00
00
00
00
00
00
00
00
00
00
00
00
00
00
00
00
00
00
00
00
00
00
00
00
00
00
00
00
00
00
00
00
00
00
00
00
00
00
00
00
00
00
00
00
00
00
00
00
00
00
00
00
00
00
00
00
00
00
00
00
00
00
00
00
00
00
00
00
00
00
00
00
00
00
00
00
00
00
00
00
00
00
00
00
00
00
00
00
00
00
00
00
00
00
00
00
00
00
00
00
00
00
00
00
00
00
00
00
00
00
00
00
00
00
00
00
00
00
00
00
00
00
00
00
00
00
00
00
00
00
00
00
00
00
00
00
00
00
00
00
00
00
00
00
00
00
00
00
00
00
00
00
00
00
00
00
00
00
00
00
00
00
00
00
00
00
00
00
00
00
00
00
00
00
00
00
00
00
00
00
00
00
00
00
00
00
00
00
00
00
00
00
00
00
00
00
00
00
00
00
00
00
00
00
00
00
00
00
00
00
00
00
00
00
00
00
00
00
00
00
00
00
00
00
00
00
00
00
00
00
00
00
00
00
00
00
00
00
00
00
00
00
00
00
00
00
00
00
00
00
00
00
00
00
00
00
00
00
00
00
00
00
00
00
00
00
00
00
00
00
00
00
00
00
00
00
00
00
00
00
00
00
00
00
00
00
00
00
00
00
00
00
00
00
00
00
00
00
00
00
00
00
00
00
00
00
00
00
00
00
00
00
00
00
00
00
00
00
00
00
00
00
00
00
00
00
00
00
00
00
00
00
00
00
00
00
00
00
00
00
00
00
00
00
00
00
00
00
00
00
00
00
00
00
00
00
00
00
00
00
00
00
00
00
00
00
00
00
00
00
00
00
00
00
00
00
00
00
00
00
00
00
00
00
00
00
00
00
00
00
00
00
00
00
00
00
00
00
00
00
00
00
00
00
00
00
00
00
00
00
00
00
00
00
00
00
00
00
00
00
00
00
00
00
00
00
00
00
00
00
00
00
00
00
00
00
00
00
00
00
00
00
00
00
00
00
00
00
00
00
00
00
00
00
00
00
00
00
00
00
00
00
00
00
00
00
00
00
00
00
00
00
00
00
00
00
00
00
00
00
00
00
00
00
00
00
00
00
00
00
00
00
00
00
00
00
00
00
00
00
00
00
00
00
00
00
00
00
00
00
00
00
00
00
00
00
00
00
00
00
00
00
00
00
00
00
00
00
00
00
00
00
00
00
00
00
00
00
00
00
00
00
00
00
00
00
00
00
00
00
00
00
00
00
00
00
00
00
00
00
00
00
00
00
00
00
00
00
00
00
00
00
00
00
00
00
00
00
00
00
00
00
00
00
00
00
00
00
00
00
00
00
00
00
00
00
00
00
00
00
00
00
00
00
00
00
00
00
00
00
00
00
00
00
00
00
00
00
00
00
00
00
00
00
00
00
00
00
00
00
00
00
00
00
00
00
00
00
00
00
00
00
00
00
00
00
00
00
00
00
00
00
00
00
00
00
00
00
00
00
00
00
00
00
00
00
00
00
00
00
00
00
00
00
00
00
00
00
00
00
00
00
00
00
00
00
00
00
00
00
00
00
00
00
00
00
00
00
00
00
00
00
00
00
00
00
00
00
00
00
00
00
00
00
00
00
00
00
00
00
00
00
00
00
00
00
00
00
00
00
00
00
00
00
00
00
00
00
00
00
00
00
00
00
00
00
00
00
00
00
00
00
00
00
00
00
00
00
00
00
00
00
00
00
00
00
00
00
00
00
00
00
00
00
00
00
00
00
00
00
00
00
00
00
00
00
00
00
00
00
00
00
00
00
00
00
00
00
00
00
00
00
00
00
00
00
00
00
00
00
00
00
00
00
00
00
00
00
00
00
00
00
00
00
00
00
00
00
00
00
00
00
00
00
00
00
00
00
00
00
00
00
00
00
00
00
00
00
00
00
00
00
00
00
00
00
00
00
00
00
00
00
00
00
00
00
00
00
00
00
00
00
00
00
00
00
00
00
00
00
00
00
00
00
00
00
00
00
00
00
00
00
00
00
00
00
00
00
00
00
00
00
00
00
00
00
00
00
00
00
00
00
00
00
00
00
00
00
00
00
00
00
00
00
00
00
00
00
00
00
00
00
00
00
00
00
00
00
00
00
00
00
00
00
00
00
00
00
00
00
00
00
00
00
00
00
00
00
00
00
00
00
00
00
00
00
00
00
00
00
00
00
00
00
00
00
00
00
00
00
00
00
00
00
00
00
00
00
00
00
00
00
00
00
00
00
00
00
00
00
00
00
00
00
00
00
00
00
00
00
00
00
00
00
00
00
00
00
00
00
00
00
00
00
00
00
00
00
00
00
00
00
00
00
00
00
00
00
00
00
00
00
00
00
00
00
00
00
00
00
00
00
00
00
00
00
00
00
00
00
00
00
00
00
00
00
00
00
00
00
00
00
00
00
00
00
00
00
00
00
00
00
00
00
00
00
00
00
00
00
00
00
00
00
00
00
00
00
00
00
00
00
00
00
00
00
00
00
00
00
00
00
00
00
00
00
00
00
00
00
00
00
00
00
00
00
00
00
00
00
00
00
00
00
00
00
00
00
00
00
00
00
00
00
00
00
00
00
00
00
00
00
00
00
00
00
00
00
00
00
00
00
00
00
00
00
00
00
00
00
00
00
00
00
00
00
00
00
00
00
00
00
00
00
00
00
00
00
00
00
00
00
00
00
00
00
00
00
00
00
00
00
00
00
00
00
00
00
00
00
00
00
00
00
00
00
00
00
00
00
00
00
00
00
00
00
00
00
00
00
00
00
00
00
00
00
00
00
00
00
00
00
00
00
00
00
00
00
00
00
00
00
00
00
00
00
00
00
00
00
00
00
00
00
00
00
00
00
00
00
00
00
00
00
00
00
00
00
00
00
00
00
00
00
00
00
00
00
00
00
00
00
00
00
00
00
00
00
00
00
00
00
00
00
00
00
00
00
00
00
00
00
00
00
00
00
00
00
00
00
00
00
00
00
07
04
fb
fd
ff
ff
fd
f2
fc
0a
0d
11
06
02
fa
0e
09
fa
00
00
00
00
00
00
00
00
00
ff
04
08
06
08
08
08
0e
04
17
0b
01
08
00
ff
ff
fe
06
05
0a
07
04
05
0b
09
0c
10
fc
07
ff
fa
04
00
ff
03
05
fe
fe
fc
ef
f8
fb
ff
fc
ff
04
f6
05
06
f9
fe
04
01
00
fb
01
03
01
fd
f1
00
03
00
00
00
00
00
00
00
00
00
00
f7
ff
07
fb
f3
00
fb
eb
f2
f8
fa
f5
fa
02
f9
03
10
03
05
06
02
fb
fd
fc
f2
fa
f9
0b
05
03
0a
03
05
ff
fc
01
fd
05
00
02
08
02
01
03
0d
02
00
02
02
ff
03
01
03
03
fa
0a
fd
fc
03
03
f5
ff
0b
0e
0e
08
01
f2
fc
04
f5
f3
00
00
00
00
00
00
00
00
00
08
09
04
09
fd
f8
03
fd
f9
fb
04
ff
04
fa
fa
f8
f5
f5
fc
03
08
fe
04
07
f8
04
04
02
f7
f6
10
06
f9
01
01
07
ff
00
00
00
00
00
00
00
00
07
04
01
06
fc
fd
03
f5
ff
00
01
fb
fa
ff
06
00
f8
05
fb
f6
f4
0e
fe
fa
08
fb
f7
02
04
02
09
06
0c
01
0c
00
f0
f2
fb
07
fb
f7
02
15
15
f8
07
09
07
09
05
15
04
0a
f9
fa
fb
04
f9
fc
09
f8
f3
f9
02
05
f8
f9
05
01
fb
0a
f7
f0
0f
f9
fe
10
f6
f9
fb
0e
07
02
0a
0a
07
04
06
05
04
01
fd
09
fe
f3
00
03
fd
03
fb
fe
03
fb
ff
ff
02
05
0c
06
fd
01
00
01
fd
04
07
01
01
fa
ff
04
fe
04
05
02
00
00
00
00
00
00
00
00
00
07
0e
ff
0c
01
fa
ff
08
04
0d
10
04
0d
15
09
fe
04
03
fb
fe
0d
01
08
00
f1
f5
fa
fd
f7
fa
f0
f6
ff
f9
ff
0d
01
09
02
fb
fe
f6
fb
fd
f8
00
00
00
00
00
00
00
00
00
f9
f0
e5
fd
f9
f0
fe
0b
0f
00
00
00
00
00
00
00
00
00
f1
fb
fa
fe
fc
fe
0b
ff
fb
ff
f7
05
03
fd
02
fd
fa
fd
04
07
fe
19
1f
0d
fc
f9
01
00
00
00
00
00
00
00
00
00
ff
00
02
ff
ff
00
00
00
00
05
03
03
05
04
05
01
07
09
02
fe
0c
03
f3
fa
f9
05
fd
00
ff
07
03
02
03
f5
fb
00
f8
fc
08
00
06
08
04
00
fe
00
00
00
00
00
00
00
00
00
fd
fb
fd
fc
fc
ff
f9
fd
ff
00
00
00
00
00
00
00
00
00
f8
fc
ff
05
ff
fa
04
f8
fc
00
00
00
00
00
00
00
00
00
01
00
0c
fe
f4
02
0a
f8
fe
01
06
fa
f0
06
fc
fc
01
09
fd
f2
02
04
00
0d
06
03
09
f9
fa
01
00
fe
ff
08
02
fb
f3
f5
fd
06
fc
ff
12
0b
fc
fa
f8
ff
00
f9
00
00
02
06
00
00
00
00
00
00
00
00
00
f8
fd
ff
f8
01
01
fc
04
03
03
05
04
05
03
fc
f6
f3
04
fa
fd
00
06
fe
fd
00
fd
f7
00
00
00
00
00
00
00
00
00
00
00
00
00
00
00
00
00
00
f8
03
f7
00
06
fe
02
07
05
ff
02
02
04
04
04
fd
fb
01
00
02
06
00
01
03
fd
ff
ff
00
00
00
00
00
00
00
00
00
00
00
00
00
00
00
00
00
00
02
08
09
f7
fb
00
00
f8
f7
03
0c
03
03
0d
06
fa
00
02
02
01
02
f9
f9
03
03
fc
00
02
03
00
04
08
0b
05
06
09
00
00
00
00
00
00
00
00
00
00
00
00
00
00
00
00
00
00
0b
15
02
03
03
02
f8
f0
ee
01
05
f4
ef
f8
00
ef
fa
0c
fc
fc
ff
ff
fc
fd
00
fe
01
04
03
f5
06
fd
05
04
fe
06
06
fe
f5
0c
ff
ea
fa
06
03
fa
00
fc
01
fd
01
08
03
03
0f
0f
06
19
0e
01
01
07
00
00
00
00
00
00
00
00
00
00
02
07
fa
f9
f4
f5
f9
f9
02
00
00
00
00
00
00
00
00
00
00
00
00
00
00
00
00
00
00
fe
0c
03
fe
05
fd
fc
ff
05
f7
fc
ed
fb
f7
f8
f2
f6
f4
00
00
00
00
00
00
00
00
00
00
00
00
00
00
00
00
00
00
0c
10
03
02
f5
f6
fd
ee
ee
00
00
00
00
00
00
00
00
00
07
02
05
f9
fe
02
01
fd
00
ff
fa
00
fc
f8
05
01
f6
02
03
fc
f8
ff
00
fe
fa
03
04
f8
f7
fc
fa
fa
fc
fd
ff
ff
02
06
05
03
0d
0e
fa
04
0c
08
15
01
f1
fd
09
f3
e7
f2
e9
f8
0b
04
fb
fe
fb
07
03
fb
fc
f2
02
01
fb
fc
00
04
ff
f7
f3
fd
f2
f3
fc
fd
fe
01
ff
03
fe
f7
fa
00
f8
fc
fc
04
fc
fa
06
ff
f8
fc
03
f5
f9
fb
09
fe
00
01
07
0d
fe
f3
fa
ff
f7
fb
f7
f1
f9
00
04
ff
01
02
fb
04
00
ff
fa
06
f9
fc
f8
f9
f9
fd
05
00
00
00
00
00
00
00
00
00
fa
fa
fe
fe
f6
02
00
f9
01
0a
0c
12
f6
f9
fa
ed
f4
fb
fb
00
05
f9
01
10
ff
ff
02
0a
0b
05
07
0f
07
01
09
fa
00
03
01
fe
02
fc
ff
08
01
fe
01
fa
02
fa
fc
01
fd
02
00
00
00
00
00
00
00
00
00
02
ff
fc
02
04
fd
0c
01
03
09
07
0b
0b
06
06
0d
0b
08
fb
00
07
02
0c
04
03
02
02
ff
fd
fe
fb
fc
03
fe
00
02
03
08
fd
f3
fb
09
f9
ee
f6
ee
f6
00
fd
ff
06
09
04
0a
06
0b
05
00
02
fe
02
f8
f3
03
03
06
02
02
fe
fe
01
fb
0a
0a
01
00
f9
ee
03
f5
01
04
01
04
f9
ed
f7
01
ff
fb
05
02
06
04
fb
fd
fc
ea
f9
02
06
05
00
0a
05
fd
08
01
ff
01
02
02
00
00
05
03
02
ff
fe
f9
fd
fc
fa
05
fe
03
00
00
00
00
00
00
00
00
00
00
00
00
00
00
00
00
00
00
fc
fb
fe
fd
00
04
fd
00
fb
03
06
fb
02
02
fb
00
04
0a
fb
fb
fb
fd
ff
04
fc
02
06
08
fe
fc
03
08
02
01
fe
05
fc
f9
04
02
f8
fa
f7
f2
f0
f7
03
00
04
0a
08
fe
fb
09
00
00
00
00
00
00
00
00
00
fc
03
05
f8
fc
f7
f8
f7
f1
02
08
0b
04
fd
ff
01
fa
fd
f9
fd
06
01
f6
f4
fb
fc
ff
fc
fd
fb
03
fd
fc
f7
fa
ff
00
00
00
00
00
00
00
00
00
fc
01
fe
fe
fe
fa
04
02
ff
fc
f9
fd
fa
f3
02
f9
ef
03
05
f5
f8
03
f2
ef
f3
f0
fd
0b
18
0c
08
0c
fd
f2
f8
01
00
00
00
00
00
00
00
00
00
fd
ff
02
ff
fb
ff
00
fc
fa
00
00
00
00
00
00
00
00
00
0a
17
10
f9
fb
03
fb
f0
f3
00
00
00
00
00
00
00
00
00
eb
f3
fe
fa
02
02
06
05
f2
f6
f3
00
0a
04
10
14
06
06
f8
02
0b
09
04
03
ff
03
05
00
00
00
00
00
00
00
00
00
03
0b
08
06
06
08
fc
fd
fe
01
00
04
01
01
07
fc
fd
fe
fe
00
05
f8
f5
ff
00
fe
fc
00
00
00
00
00
00
00
00
00
fb
06
09
f8
f9
00
02
f5
ee
04
04
04
05
ff
08
03
ff
03
ff
fb
ff
00
f6
fe
00
00
06
f9
fa
fe
fe
07
05
f7
ff
f9
fa
fc
09
07
00
02
0f
f2
fa
f9
02
05
ff
f7
fa
fb
f5
f8
04
04
fe
fe
02
07
fb
00
11
00
00
00
00
00
00
00
00
00
00
fc
f2
00
fd
fb
0d
10
f3
00
00
00
00
00
00
00
00
00
ff
01
fd
f8
fa
fc
f7
fb
f8
ff
00
00
00
00
00
00
01
00
05
01
f7
05
08
fe
07
07
04
07
03
fd
04
05
00
05
05
04
f9
fa
01
0a
0c
0a
05
f5
f5
0e
15
0d
01
01
08
f8
eb
00
00
00
00
00
00
00
00
00
00
0a
02
f8
07
00
f8
f4
0a
fe
00
00
00
00
00
00
00
00
00
03
05
fa
fd
03
fc
ff
05
00
fc
fe
fa
ff
07
00
ef
0b
09
fa
ff
fc
01
fc
f5
ff
02
05
0a
03
01
02
01
fe
fb
06
08
fd
02
fc
f9
00
f8
fd
ff
fe
00
00
00
00
00
00
00
00
00
f9
01
fc
00
03
01
04
fd
fe
ff
fe
02
fa
f5
f7
01
fa
02
02
01
0a
fd
ff
00
fe
fb
fb
04
ff
06
06
fd
03
0b
02
04
ff
fa
04
01
fe
04
ff
fd
0c
ff
f8
fb
ff
f5
fa
fe
fa
f7
04
09
02
fc
fe
f7
fb
07
05
00
00
00
00
00
00
00
00
00
f6
00
09
f9
00
0b
f3
fa
01
0e
03
fb
f9
fc
f2
07
04
04
0a
00
f7
06
fe
fc
fe
01
07
06
06
04
03
06
03
ff
00
03
02
ff
02
fd
06
07
fd
04
03
01
00
fe
01
fc
fc
02
03
06
02
ff
0b
0b
03
09
04
02
0a
ff
ff
0a
f5
f0
fe
f9
fa
fa
00
00
00
00
00
00
00
00
00
03
fe
05
01
f8
02
ff
fd
00
fe
ff
00
fa
f7
fd
04
fd
02
f4
03
03
f1
00
ff
f6
fb
f7
05
fd
fe
f8
f4
fb
03
03
05
00
00
00
00
00
00
00
00
00
00
01
fe
00
fd
fa
ff
00
ff
fd
fa
02
04
f8
03
06
01
02
01
ff
0f
05
f9
fa
1b
07
00
fe
f5
ff
ff
fb
f7
f9
f8
f7
0a
11
f5
04
13
ef
00
02
f2
fe
f4
00
f6
f7
07
04
00
09
0d
0a
0d
0b
02
fc
0a
07
fd
fe
01
03
ff
fa
fe
08
02
fe
fb
f9
f0
02
f4
f7
fd
f7
fc
fe
fc
fc
02
00
fc
05
02
fc
ff
fa
fc
fd
fc
ff
01
07
06
03
08
0c
fb
fc
00
04
08
01
0d
1a
08
10
0f
ff
06
08
02
f1
f9
05
fb
f5
fa
07
fe
06
00
00
00
00
00
00
00
00
00
ff
fd
f9
09
00
fe
06
01
fb
fe
05
0c
f9
ff
02
00
00
fe
03
0c
0a
fb
fe
fd
fc
f8
03
0f
ff
f2
08
fe
ff
fe
fd
03
fb
fa
f4
fd
ff
00
f7
00
00
00
00
00
00
00
00
00
00
00
0f
0f
03
06
01
00
0c
03
10
00
00
00
00
00
00
00
00
00
04
fd
fe
07
fd
fe
0e
04
fc
00
03
01
fc
ff
ff
fa
f5
03
0b
09
0d
fa
f6
ff
04
01
f3
00
00
00
00
00
00
00
00
00
01
02
02
00
01
02
01
01
01
00
fa
fc
ff
f8
ff
04
00
01
05
09
04
0c
06
fd
05
fe
f8
fe
01
02
f8
f9
fd
f8
fb
03
fb
00
f7
fa
f8
f9
f7
fa
fa
00
00
00
00
00
00
00
00
00
02
01
01
01
02
02
04
02
02
00
00
00
00
00
00
00
00
00
04
05
00
02
ff
f6
ff
05
05
00
00
00
00
00
00
00
00
00
0a
05
f0
0f
0e
06
03
02
0a
0c
0f
00
02
fe
07
0d
08
11
02
fa
08
08
f8
fd
fb
00
05
02
07
05
02
00
fd
04
03
ff
f8
f5
f2
08
fd
fb
fd
fe
fd
06
0a
07
07
06
01
0c
0d
04
00
00
00
00
00
00
00
00
00
fa
ff
f8
01
ff
ff
03
02
fb
05
00
05
07
f6
fc
00
fd
0b
fd
09
04
f7
05
01
ff
07
07
00
00
00
00
00
00
00
00
00
00
00
00
00
00
00
00
00
00
fa
fa
fe
03
fa
fc
00
f7
f4
00
05
04
02
03
ff
04
02
00
fd
fe
00
fd
01
01
fe
04
03
00
00
00
00
00
00
00
00
00
00
00
00
00
00
00
00
00
00
ff
fe
05
04
fc
04
0a
fd
08
fe
f5
ff
00
f5
fd
01
f8
fb
02
fb
02
fa
f4
f9
f7
fb
fe
0d
09
01
0b
07
01
03
07
08
00
00
00
00
00
00
00
00
00
00
00
00
00
00
00
00
00
00
fc
f0
01
fe
f6
f5
01
01
03
f7
f7
01
f6
f9
fb
f8
f5
0a
01
02
05
02
ff
04
00
fd
fe
ff
ff
07
02
09
0a
04
08
08
0a
0c
06
03
0b
f6
fe
09
03
fb
0b
0f
02
fe
03
12
05
fb
fd
06
06
01
02
07
09
04
03
00
00
00
00
00
00
00
00
00
fa
fa
0a
f5
fe
07
fd
f8
05
00
00
00
00
00
00
00
00
00
00
00
00
00
00
00
00
00
00
00
f9
09
fe
fa
06
04
02
0f
fd
04
02
00
01
fe
16
ff
f6
00
00
00
00
00
00
00
00
00
00
00
00
00
00
00
00
00
00
f7
f8
04
fb
fa
fb
ff
f1
f5
00
00
00
00
00
00
00
00
00
0e
05
04
0d
05
09
06
09
05
f6
f9
04
fa
f7
02
03
fd
fc
04
06
0a
09
01
fb
0a
05
fd
fd
fd
00
00
fe
02
01
ff
fe
0a
02
f8
0e
f6
fb
03
f8
fa
02
f8
02
03
f5
ff
fd
fd
fe
fd
09
15
07
02
ff
0e
02
f2
ff
fd
01
fc
f1
ff
01
f7
f9
06
0a
09
05
f7
f7
0e
ff
01
05
06
0c
03
03
02
05
06
05
05
00
fe
fe
fc
fd
fe
f9
f8
07
01
01
06
fe
fe
04
00
fe
fe
00
07
fa
f8
fa
ff
f6
02
02
ff
02
02
02
04
02
02
02
ff
f5
04
f6
f5
04
f9
f8
05
00
00
00
00
00
00
00
00
00
02
00
fd
05
f8
01
02
fd
05
f6
fa
fa
f9
f2
ed
fe
ff
03
0d
fe
f9
0d
04
f7
04
09
ff
f6
03
f8
f5
fc
f4
f8
fd
fc
01
01
fd
05
ff
fd
04
fe
fe
09
00
f9
01
f9
f9
05
01
fe
00
00
00
00
00
00
00
00
00
07
03
00
00
03
04
fa
02
09
ff
09
0f
fb
fe
fe
f3
02
03
05
01
f7
06
01
01
fc
fb
06
f8
fc
fe
fc
fc
fc
01
00
fd
fd
f9
05
ff
03
15
03
05
0a
ff
fc
09
01
fd
0a
01
fd
07
fe
fd
04
03
05
02
02
05
00
ed
fb
f4
ef
fb
f0
f2
01
f3
09
01
0c
fd
01
0b
fd
03
04
09
04
fc
0f
0b
01
0b
01
fd
03
f9
0f
00
f6
04
01
fd
fa
ff
fe
01
00
02
fd
00
00
01
00
ff
ff
01
01
fc
00
fd
fd
04
fc
04
02
fe
00
03
fd
fd
00
00
00
00
00
00
00
00
00
00
00
00
00
00
00
00
00
00
08
03
06
fc
f4
02
f9
fc
08
04
04
fb
fc
01
f6
0b
02
ff
00
fe
02
02
00
01
01
fd
00
f1
f5
02
f5
f8
01
fa
fa
08
11
fd
f7
14
fe
f8
06
fd
02
03
03
03
ff
00
f3
f9
f2
ea
00
00
00
00
00
00
00
00
00
08
f9
f4
05
fc
01
04
ff
03
f5
f8
01
fd
f9
01
f3
f9
03
fd
05
05
01
fd
fe
02
fa
fa
fe
07
0a
05
02
fe
02
03
f8
00
00
00
00
00
00
00
00
00
03
03
fc
04
03
fc
ff
11
03
fd
05
04
ff
f9
f4
00
ff
00
01
06
09
01
fd
ff
07
fc
03
f8
f5
05
f3
f7
08
f2
fe
11
00
00
00
00
00
00
00
00
00
02
02
00
03
01
fe
04
fe
fd
00
00
00
00
00
00
00
00
00
fa
fa
08
ff
fc
fe
ff
01
03
00
00
00
00
00
00
00
00
00
fd
ff
fb
07
f6
fc
14
05
01
fc
0a
0f
08
09
0c
07
02
f8
fb
fb
fe
f4
01
05
02
06
04
00
00
00
00
00
00
00
00
00
f9
02
13
f5
fa
0e
f4
fa
03
fe
02
04
0a
04
00
00
06
00
02
00
fe
0b
04
00
06
06
04
00
00
00
00
00
00
00
00
00
fa
fc
06
04
fc
07
fa
fe
ff
00
05
05
08
03
fd
0a
01
f9
ff
fb
fe
fd
ff
02
fe
fa
fb
fb
f4
ff
01
ef
00
f7
f6
0a
03
fb
07
f9
f4
fb
f5
f3
f7
fa
f9
f9
f8
ef
f4
ff
fa
fc
02
04
fc
0e
01
f8
05
ff
fd
00
00
00
00
00
00
00
00
00
f9
f4
f4
04
f8
f3
fd
02
f6
00
00
00
00
00
00
00
00
00
fd
00
00
f9
fb
fc
f9
f8
00
00
00
ff
01
00
ff
01
00
00
00
0a
fe
f2
02
05
ff
fe
01
01
03
00
f9
f8
fb
fc
00
02
00
f8
0e
ff
f8
04
fb
fc
fb
fc
fd
01
f6
f2
f2
fa
fa
fb
00
00
00
00
00
00
00
00
00
ff
fb
f2
fc
f6
f2
fb
fd
fd
00
00
00
00
00
00
00
00
00
06
01
02
00
fe
f9
00
04
09
0f
0f
04
ff
09
fe
01
09
03
05
00
02
fd
f3
f7
03
00
01
00
00
00
00
00
00
00
00
00
00
00
00
00
00
00
00
00
00
00
00
00
00
00
00
00
00
00
00
00
00
00
00
00
00
00
00
00
00
00
00
00
00
00
00
00
00
00
00
00
00
00
00
00
00
00
00
00
00
00
00
00
00
00
00
00
00
00
00
00
00
00
00
00
00
00
00
00
00
00
00
00
00
00
00
00
00
00
00
00
00
00
00
00
00
00
00
00
00
00
00
00
00
00
00
00
00
00
00
00
00
00
00
00
00
00
00
00
00
00
00
00
00
00
00
00
00
00
00
00
00
00
00
00
00
00
00
00
00
00
00
00
00
00
00
00
00
00
00
00
00
00
00
00
00
00
00
00
00
00
00
00
00
00
00
00
00
00
00
00
00
00
00
00
00
00
00
00
00
00
00
00
00
00
00
00
00
00
00
00
00
00
00
00
00
00
00
00
00
00
00
00
00
00
00
00
00
00
00
00
00
00
00
00
00
00
00
00
00
00
00
00
00
00
00
00
00
00
00
00
00
00
00
00
00
00
00
00
00
00
00
00
00
00
00
00
00
00
00
00
00
00
00
00
00
00
00
00
00
00
00
00
00
00
00
00
00
00
00
00
00
00
00
00
00
00
00
00
00
00
00
00
00
00
00
00
00
00
00
00
00
00
00
00
00
00
00
00
00
00
00
00
00
00
00
00
00
00
00
00
00
00
00
00
00
00
00
00
00
00
00
00
00
00
00
00
00
00
00
00
00
00
00
00
00
00
00
00
00
00
00
00
00
00
00
00
00
00
00
00
00
00
00
00
00
00
00
00
00
00
00
00
00
00
00
00
00
00
00
00
00
00
00
00
00
00
00
00
00
00
00
00
00
00
00
00
00
00
00
00
00
00
00
00
00
00
00
00
00
00
00
00
00
00
00
00
00
00
00
00
00
00
00
00
00
00
00
00
00
00
00
00
00
00
00
00
00
00
00
00
00
00
00
00
00
00
00
00
00
00
00
00
00
00
00
00
00
00
00
00
00
00
00
00
00
00
00
00
00
00
00
00
00
00
00
00
00
00
00
00
00
00
00
00
00
00
00
00
00
00
00
00
00
00
00
00
00
00
00
00
00
00
00
00
00
00
00
00
00
00
00
00
00
00
00
00
00
00
00
00
00
00
00
00
00
00
00
00
00
00
00
00
00
00
00
00
00
00
00
00
00
00
00
00
00
00
00
00
00
00
00
00
00
00
00
00
00
00
00
00
00
00
00
00
00
00
00
00
00
00
00
00
00
00
00
00
00
00
00
00
00
00
00
00
00
00
00
00
00
00
00
00
00
00
00
00
00
00
00
00
00
00
00
00
00
00
00
00
00
00
00
00
00
00
00
00
00
00
00
00
00
00
00
00
00
00
00
00
00
00
00
00
00
00
00
00
00
00
00
00
00
00
00
00
00
00
00
00
00
00
00
00
00
00
00
00
00
00
00
00
00
00
00
00
00
00
00
00
00
00
00
00
00
00
00
00
00
00
00
00
00
00
00
00
00
00
00
00
00
00
00
00
00
00
00
00
00
00
00
00
00
00
00
00
00
00
00
00
00
00
00
00
00
00
00
00
00
00
00
00
00
00
00
00
00
00
00
00
00
00
00
00
00
00
00
00
00
00
00
00
00
00
00
00
00
00
00
00
00
00
00
00
00
00
00
00
00
00
00
00
00
00
00
00
00
00
00
00
00
00
00
00
00
00
00
00
00
00
00
00
00
00
00
00
00
00
00
00
00
00
00
00
00
00
00
00
00
00
00
00
00
00
00
00
00
00
00
00
00
00
00
00
00
00
00
00
00
00
00
00
00
00
00
00
00
00
00
00
00
00
00
00
00
00
00
00
00
00
00
00
00
00
00
00
00
00
00
00
00
00
00
00
00
00
00
00
00
00
00
00
00
00
00
00
00
00
00
00
00
00
00
00
00
00
00
00
00
00
00
00
00
00
00
00
00
00
00
00
00
00
00
00
00
00
00
00
00
00
00
00
00
00
00
00
00
00
00
00
00
00
00
00
00
00
00
00
00
00
00
00
00
00
00
00
00
00
00
00
00
00
00
00
00
00
00
00
00
00
00
00
00
00
00
00
00
00
00
00
00
00
00
00
00
00
00
00
00
00
00
00
00
00
00
00
00
00
00
00
00
00
00
00
00
00
00
00
00
00
00
00
00
00
00
00
00
00
00
00
00
00
00
00
00
00
00
00
00
00
00
00
00
00
00
00
00
00
00
00
00
00
00
00
00
00
00
00
00
00
00
00
00
00
00
00
00
00
00
00
00
00
00
00
00
00
00
00
00
00
00
00
00
00
00
00
00
00
00
00
00
00
00
00
00
00
00
00
00
00
00
00
00
00
00
00
00
00
00
00
00
00
00
00
00
00
00
00
00
00
00
00
00
00
00
00
00
00
00
00
00
00
00
00
00
00
00
00
00
00
00
00
00
00
00
00
00
00
00
00
00
00
00
00
00
00
00
00
00
00
00
00
00
00
00
00
00
00
00
00
00
00
00
00
00
00
00
00
00
00
00
00
00
00
00
00
00
00
00
00
00
00
00
00
00
00
00
00
00
00
00
00
00
00
00
00
00
00
00
00
00
00
00
00
00
00
00
00
00
00
00
00
00
00
00
00
00
00
00
00
00
00
00
00
00
00
00
00
00
00
00
00
00
00
00
00
00
00
00
00
00
00
00
00
00
00
00
00
00
00
00
00
00
00
00
00
00
00
00
00
00
00
00
00
00
00
00
00
00
00
00
00
00
00
00
00
00
00
00
00
00
00
00
00
00
00
00
00
00
00
00
00
00
00
00
00
00
00
00
00
00
00
00
00
00
00
00
00
00
00
00
00
00
00
00
00
00
00
00
00
00
00
00
00
00
00
00
00
00
00
00
00
00
00
00
00
00
00
00
00
00
00
00
00
00
00
00
00
00
00
00
00
00
00
00
00
00
00
00
00
00
00
00
00
00
00
00
00
00
00
00
00
00
00
00
00
00
00
00
00
00
00
00
00
00
00
00
00
00
00
00
00
00
00
00
00
00
00
00
00
00
00
00
00
00
00
00
00
00
00
00
00
00
00
00
00
00
00
00
00
00
00
00
00
00
00
00
00
00
00
00
00
00
00
00
00
00
00
00
00
00
00
00
00
00
00
00
00
00
00
00
00
00
00
00
00
00
00
00
00
00
00
00
00
00
00
00
00
00
00
00
00
00
00
00
00
00
00
00
00
00
00
00
00
00
00
00
00
00
00
00
00
00
00
00
00
00
00
00
00
00
00
00
00
00
00
00
00
00
00
00
00
00
00
00
00
00
00
00
00
00
00
00
00
00
00
00
00
00
00
00
00
00
00
00
00
00
00
00
00
00
00
00
00
00
00
00
00
00
00
00
00
00
00
00
00
00
00
00
00
00
00
00
00
00
00
00
00
00
00
00
00
00
00
00
00
00
00
00
00
00
00
00
00
00
00
00
00
00
00
00
00
00
00
00
00
00
00
00
00
00
00
00
00
00
00
00
00
00
00
00
00
00
00
00
00
00
00
00
00
00
00
00
00
00
00
00
00
00
00
00
00
00
00
00
00
00
00
00
00
00
00
00
00
00
00
00
00
00
00
00
00
00
00
00
00
00
00
00
00
00
00
00
00
00
00
00
00
00
00
00
00
00
00
00
00
00
00
00
00
00
00
00
00
00
00
00
00
00
00
00
00
00
00
00
00
00
00
00
00
00
00
00
00
00
00
00
00
00
00
00
00
00
00
00
00
00
00
00
00
00
00
00
00
00
00
00
00
00
00
00
00
00
00
00
00
00
00
00
00
00
00
00
00
00
00
00
00
00
00
00
00
00
00
00
00
00
00
00
00
00
00
00
00
00
00
00
00
00
00
00
00
00
00
00
00
00
00
00
00
00
00
00
00
00
00
00
00
00
00
00
00
00
00
00
00
00
00
00
00
00
00
00
00
00
00
00
00
00
00
00
00
00
00
00
00
00
00
00
00
00
00
00
00
00
00
00
00
00
00
00
00
00
00
00
00
00
00
00
00
00
00
00
00
00
00
00
00
00
00
00
00
00
00
00
00
00
00
00
00
00
00
00
00
00
00
00
00
00
00
00
00
00
00
00
00
00
00
00
00
00
00
00
00
00
00
00
00
00
00
00
00
00
00
00
00
00
00
00
00
00
00
00
00
00
00
00
00
00
00
00
00
00
00
00
00
00
00
00
00
00
00
00
00
00
00
00
00
00
00
00
00
00
00
00
00
00
00
00
00
00
00
00
00
00
00
00
00
00
00
00
00
00
00
00
00
00
00
00
00
00
00
00
00
00
00
00
00
00
00
00
00
00
00
00
00
00
00
00
00
00
00
00
00
00
00
00
00
00
00
00
00
00
00
00
00
00
00
00
00
00
00
00
00
00
00
00
00
00
00
00
00
00
00
00
00
00
00
00
00
00
00
00
00
00
00
00
00
00
00
00
00
00
00
00
00
00
00
00
00
00
00
00
00
00
00
00
00
00
00
00
00
00
00
00
00
00
00
00
00
00
00
00
00
00
00
00
00
00
00
00
00
00
00
00
00
00
00
00
00
00
00
00
00
00
00
00
00
00
00
00
00
00
00
00
00
00
00
00
00
00
00
00
00
00
00
00
00
00
00
00
00
00
00
00
00
00
00
00
00
00
00
00
00
00
00
00
00
00
00
00
00
00
00
00
00
00
00
00
00
00
00
00
00
00
00
00
00
00
00
00
00
00
00
00
00
00
00
00
00
00
00
00
00
00
00
00
00
00
00
00
00
00
00
00
00
00
00
00
00
00
00
00
00
00
00
00
00
00
00
00
00
00
00
00
00
00
00
00
00
00
00
00
00
00
00
00
00
00
00
00
00
00
00
00
00
00
00
00
00
00
00
00
00
00
00
00
00
00
00
00
00
00
00
00
00
00
00
00
00
00
00
00
00
00
00
00
00
00
00
00
00
00
00
00
00
00
00
00
00
00
00
00
00
00
00
00
00
00
00
00
00
00
00
00
00
00
00
00
00
00
00
00
00
00
00
00
00
00
00
00
00
00
00
00
00
00
00
00
00
00
00
00
00
00
00
00
00
00
00
00
00
00
00
00
00
00
00
00
00
00
00
00
00
00
00
00
00
00
00
00
00
00
00
00
00
00
00
00
00
00
00
00
00
00
00
00
00
00
00
00
00
00
00
00
00
00
00
00
00
00
00
00
00
00
00
00
00
00
00
00
00
00
00
00
00
00
00
00
00
00
00
00
00
00
00
00
00
00
00
00
00
00
00
00
00
00
00
00
00
00
00
00
00
00
00
00
00
00
00
00
00
00
00
00
00
00
00
00
00
00
00
00
00
00
00
00
00
00
00
00
00
00
00
00
00
00
00
00
00
00
00
00
00
00
00
00
00
00
00
00
00
00
00
00
00
00
00
00
00
00
00
00
00
00
00
00
00
00
00
00
00
00
00
00
00
00
00
00
00
00
00
00
00
00
00
00
00
00
00
00
00
00
00
00
00
00
00
00
00
00
00
00
00
00
00
00
00
00
00
00
00
00
00
00
00
00
00
00
00
00
00
00
00
00
00
00
00
00
00
00
00
00
00
00
00
00
00
00
00
00
00
00
00
00
00
00
00
00
00
00
00
00
00
00
00
00
00
00
00
00
00
00
00
00
00
00
00
00
00
00
00
00
00
00
00
00
00
00
00
00
00
00
00
00
00
00
00
00
00
00
00
00
00
00
00
00
00
00
00
00
00
00
00
00
00
00
00
00
00
00
00
00
00
00
00
00
00
00
00
00
00
00
00
00
00
00
00
00
00
00
00
00
00
00
00
00
00
00
00
00
00
00
00
00
00
00
00
00
00
00
00
00
00
00
00
00
00
00
00
00
00
00
00
00
00
00
00
00
00
00
00
00
00
00
00
00
00
00
00
00
00
00
00
00
00
00
00
00
00
00
00
00
00
00
00
00
00
00
00
00
00
00
00
00
00
00
00
00
00
00
00
00
00
00
00
00
00
00
00
00
00
00
00
00
00
00
00
00
00
00
00
00
00
00
00
00
00
00
00
00
00
00
00
00
00
00
00
00
00
00
00
00
00
00
00
00
00
00
00
00
00
00
00
00
00
00
00
00
00
00
00
00
00
00
00
00
00
00
00
00
00
00
00
00
00
00
00
00
00
00
00
00
00
00
00
00
00
00
00
00
00
00
00
00
00
00
00
00
00
00
00
00
00
00
00
00
00
00
00
00
00
00
00
00
00
00
00
00
00
00
00
00
00
00
00
00
00
00
00
00
00
00
00
00
00
00
00
00
00
00
00
00
00
00
00
00
00
00
00
00
00
00
00
00
00
00
00
00
00
00
00
00
00
00
00
00
00
00
00
00
00
00
00
00
00
00
00
00
00
00
00
00
00
00
00
00
00
00
00
00
00
00
00
00
00
00
00
00
00
00
00
00
00
00
00
00
00
00
00
00
00
00
00
00
00
00
00
00
00
00
00
00
00
00
00
00
00
00
00
00
00
00
00
00
00
00
00
00
00
00
00
00
00
00
00
00
00
00
00
00
00
00
00
00
00
00
00
00
00
00
00
00
00
00
00
00
00
00
00
00
00
00
00
00
00
00
00
00
00
00
00
00
00
00
00
00
00
00
00
00
00
00
00
00
00
00
00
00
00
00
00
00
00
00
00
00
00
00
00
00
00
00
00
00
00
00
00
00
00
00
00
00
00
00
00
00
00
00
00
00
00
00
00
00
00
00
00
00
00
00
00
00
00
00
00
00
00
00
00
00
00
00
00
00
00
00
00
00
00
00
00
00
00
00
00
00
00
00
00
00
00
00
00
00
00
00
00
00
00
00
00
00
00
00
00
00
00
00
00
00
00
00
00
00
00
00
00
00
00
00
00
00
00
00
00
00
00
00
00
00
00
00
00
00
00
00
00
00
00
00
00
00
00
00
00
00
00
00
00
00
00
00
00
00
00
00
00
00
00
00
00
00
00
00
00
00
00
00
00
00
00
00
00
00
00
00
00
00
00
00
00
00
00
00
00
00
00
00
00
00
00
00
00
00
00
00
00
00
00
00
00
00
00
00
00
00
00
00
00
00
00
00
00
00
00
00
00
00
00
00
00
00
00
00
00
00
00
00
00
00
00
00
00
00
00
00
00
00
00
00
00
00
00
00
00
00
00
00
00
00
00
00
00
00
00
00
00
00
00
00
00
00
00
00
00
00
00
00
00
00
00
00
00
00
00
00
00
00
00
00
00
00
00
00
00
00
00
00
00
00
00
00
00
00
00
00
00
00
00
00
00
00
00
00
00
00
00
00
00
00
00
00
00
00
00
00
00
00
00
00
00
00
00
00
00
00
00
00
00
00
00
00
00
00
00
00
00
00
00
00
00
00
00
00
00
00
00
00
00
00
00
00
00
00
00
00
00
00
00
00
00
00
00
00
00
00
00
00
00
00
00
00
00
00
00
00
00
00
00
00
00
00
00
00
00
00
00
00
00
00
00
00
00
00
00
00
00
00
00
00
00
00
00
00
00
00
00
00
00
00
00
00
00
00
00
00
00
00
00
00
00
00
00
00
00
00
00
00
00
00
00
00
00
00
00
00
00
00
00
00
00
00
00
00
00
00
00
00
00
00
00
00
00
00
00
00
00
00
00
00
00
00
00
00
00
00
00
00
00
00
00
00
00
00
00
00
00
00
00
00
00
00
00
00
00
00
00
00
00
00
00
00
00
00
00
00
00
00
00
00
00
00
00
00
00
00
00
00
00
00
00
00
00
00
00
00
00
00
00
00
00
00
00
00
00
00
00
00
00
00
00
00
00
00
00
00
00
00
00
00
00
00
00
00
00
00
00
00
00
00
00
00
00
00
00
00
00
00
00
00
00
00
00
00
00
00
00
00
00
00
00
00
00
00
00
00
00
00
00
00
00
00
00
00
00
00
00
00
00
00
00
00
00
00
00
00
00
00
00
00
00
00
00
00
00
00
00
00
00
00
00
00
00
00
00
00
00
00
00
00
00
00
00
00
00
00
00
00
00
00
00
00
00
00
00
00
00
00
00
00
00
00
00
00
00
00
00
00
00
00
00
00
00
00
00
00
00
00
00
00
00
00
00
00
00
00
00
00
00
00
00
00
00
00
00
00
00
00
00
00
00
00
00
00
00
00
00
00
00
00
00
00
00
00
00
00
00
00
00
00
00
00
00
00
00
00
00
00
00
00
00
00
00
00
00
00
00
00
00
00
00
00
00
00
00
00
00
00
00
00
00
00
00
00
00
00
00
00
00
00
00
00
00
00
00
00
00
00
00
00
00
00
00
00
00
00
00
00
00
00
00
00
00
00
00
00
00
00
00
00
00
00
00
00
00
00
00
00
00
00
00
00
00
00
00
00
00
00
00
00
00
00
00
00
00
00
00
00
00
00
00
00
00
00
00
00
00
00
00
00
00
00
00
00
00
00
00
00
00
00
00
00
00
00
00
00
00
00
00
00
00
00
00
00
00
00
00
00
00
00
00
00
00
00
00
00
00
00
00
00
00
00
00
00
00
00
00
00
00
00
00
00
00
00
00
00
00
00
00
00
00
00
00
00
00
00
00
00
00
00
00
00
00
00
00
00
00
00
00
00
00
00
00
00
00
00
00
00
00
00
00
00
00
00
00
00
00
00
00
00
00
00
00
00
00
00
00
00
00
00
00
00
00
00
00
00
00
00
00
00
00
00
00
00
00
00
00
00
00
00
00
00
00
00
00
00
00
00
00
00
00
00
00
00
00
00
00
00
00
00
00
00
00
00
00
00
00
00
00
00
00
00
00
00
00
00
00
00
00
00
00
00
00
00
00
00
00
00
00
00
00
00
00
00
00
00
00
00
00
00
00
00
00
00
00
00
00
00
00
00
00
00
00
00
00
00
00
00
00
00
00
00
00
00
00
00
00
00
00
00
00
00
00
00
00
00
00
00
00
00
00
00
00
00
00
00
00
00
00
00
00
00
00
00
00
00
00
00
00
00
00
00
00
00
00
00
00
00
00
00
00
00
00
00
00
00
00
00
00
00
00
00
00
00
00
00
00
00
00
00
00
00
00
00
00
00
00
00
00
00
00
00
00
00
00
00
00
00
00
00
00
00
00
00
00
00
00
00
00
00
00
00
00
00
00
00
00
00
00
00
00
00
00
00
00
00
00
00
00
00
00
00
00
00
00
00
00
00
00
00
00
00
00
00
00
00
00
00
00
00
00
00
00
00
00
00
00
00
00
00
00
00
00
00
00
00
00
00
00
00
00
00
00
00
00
00
00
00
00
00
00
00
00
00
00
00
00
00
00
00
00
00
00
00
00
00
00
00
00
00
00
00
00
00
00
00
00
00
00
00
00
00
00
00
00
00
00
00
00
00
00
00
00
00
00
00
00
00
00
00
00
00
00
00
00
00
00
00
00
00
00
00
00
00
00
00
00
00
00
00
00
00
00
00
00
00
00
00
00
00
00
00
00
00
00
00
00
00
00
00
00
00
00
00
00
00
00
00
00
00
00
00
00
00
00
00
00
00
00
00
00
00
00
00
00
00
00
00
00
00
00
00
00
00
00
00
00
00
00
00
00
00
00
00
00
00
00
00
00
00
00
00
00
00
00
00
00
00
00
00
00
00
00
00
00
00
00
00
00
00
00
00
00
00
00
00
00
00
00
00
00
00
00
00
00
00
00
00
00
00
00
00
00
00
00
00
00
00
00
00
00
00
00
00
00
00
00
00
00
00
00
00
00
00
00
00
00
00
00
00
00
00
00
00
00
00
00
00
00
00
00
00
00
00
00
00
00
00
00
00
00
00
00
00
00
00
00
00
00
00
00
00
00
00
00
00
00
00
00
00
00
00
00
00
00
00
00
00
00
00
00
00
00
00
00
00
00
00
00
00
00
00
00
00
00
00
00
00
00
00
00
00
00
00
00
00
00
00
00
00
00
00
00
00
00
00
00
00
00
00
00
00
00
00
00
00
00
00
00
00
00
00
00
00
00
00
00
00
00
00
00
00
00
00
00
00
00
00
00
00
00
00
00
00
00
00
00
00
00
00
00
00
00
00
00
00
00
00
00
00
00
00
00
00
00
00
00
00
00
00
00
00
00
00
00
00
00
00
00
00
00
00
00
00
00
00
00
00
00
00
00
00
00
00
00
00
00
00
00
00
00
00
00
00
00
00
00
00
00
00
00
00
00
00
00
00
00
00
00
00
00
00
00
00
00
00
00
00
00
00
00
00
00
00
00
00
00
00
00
00
00
00
00
00
00
00
00
00
00
00
00
00
00
00
00
00
00
00
00
00
00
00
00
00
00
00
00
00
00
00
00
00
00
00
00
00
00
00
00
00
00
00
00
00
00
00
00
00
00
00
00
00
00
00
00
00
00
00
00
00
00
00
00
00
00
00
00
00
00
00
00
00
00
00
00
00
00
00
00
00
00
00
00
00
00
00
00
00
00
00
00
00
00
00
00
00
00
00
00
00
00
00
00
00
00
00
00
00
00
00
00
00
00
00
00
00
00
00
00
00
00
00
00
00
00
00
00
00
00
00
00
00
00
00
00
00
00
00
00
00
00
00
00
00
00
00
00
00
00
00
00
00
00
00
00
00
00
00
00
00
00
00
00
00
00
00
00
00
00
00
00
00
00
00
00
00
00
00
00
00
00
00
00
00
00
00
00
00
00
00
00
00
00
00
00
00
00
00
00
00
00
00
00
00
00
00
00
00
00
00
00
00
00
00
00
00
00
00
00
00
00
00
00
00
00
00
00
00
00
00
00
00
00
00
00
00
00
00
00
00
00
00
00
00
00
00
00
00
00
00
00
00
00
00
00
00
00
00
00
00
00
00
00
00
00
00
00
00
00
00
00
00
00
00
00
00
00
00
00
00
00
00
00
00
00
00
00
00
00
00
00
00
00
00
00
00
00
00
00
00
00
00
00
00
00
00
00
00
00
00
00
00
00
00
00
00
00
00
00
00
00
00
00
00
00
00
00
00
00
00
00
00
00
00
00
00
00
00
00
00
00
00
00
00
00
00
00
00
00
00
00
00
00
00
00
00
00
00
00
00
00
00
00
00
00
00
00
00
00
00
00
00
00
00
00
00
00
00
00
00
00
00
00
00
00
00
00
00
00
00
00
00
00
00
00
00
00
00
00
00
00
00
00
00
00
00
00
00
00
00
00
00
00
00
00
00
00
00
00
00
00
00
00
00
00
00
00
00
00
00
00
00
00
00
00
00
00
00
00
00
00
00
00
00
00
00
00
00
00
00
00
00
00
00
00
00
00
00
00
00
00
00
00
00
00
00
00
00
00
00
00
00
00
00
00
00
00
00
00
00
00
00
00
00
00
00
00
00
00
00
00
00
00
00
00
00
00
00
00
00
00
00
00
00
00
00
00
00
00
00
00
00
00
00
00
00
00
00
00
00
00
00
00
00
00
00
00
00
00
00
00
00
00
00
00
00
00
00
00
00
00
00
00
00
00
00
00
00
00
00
00
00
00
00
00
00
00
00
00
00
00
00
00
00
00
00
00
00
00
00
00
00
00
00
00
00
00
00
00
00
00
00
00
00
00
00
00
00
00
00
00
00
00
00
00
00
00
00
00
00
00
00
00
00
00
00
00
00
00
00
00
00
00
00
00
00
f8
fd
fc
ee
f9
f8
fe
01
04
03
09
04
03
fd
fb
02
f3
f5
00
00
00
00
00
00
00
00
00
fa
fd
06
fd
00
01
f6
f9
fc
0c
07
fd
01
01
f3
03
08
05
fe
f8
fb
03
fe
fa
ff
06
02
00
fe
05
00
00
00
03
04
ff
fd
03
01
fa
02
05
f7
fc
01
03
fd
04
01
fe
05
fd
f9
fd
0e
00
f6
09
08
fc
fc
03
fd
00
00
00
00
00
00
00
00
00
fa
fc
f7
f9
f9
fa
fc
f5
03
f6
fa
ff
f9
f7
f5
fa
00
ff
00
03
12
fa
fa
ff
03
fa
fb
02
07
07
ff
05
07
03
04
02
09
09
07
00
01
06
f6
ef
fd
01
02
03
fe
fe
fe
fc
f9
fd
01
fe
00
00
04
00
08
0f
07
07
fb
fd
0a
fe
f8
03
fc
fb
00
00
00
00
00
00
00
00
00
fd
00
fd
fd
02
00
fc
03
06
fb
fb
f3
f5
fc
f7
00
03
fc
02
06
f8
f5
f6
f5
f6
f7
f9
fb
f8
03
f7
f1
f7
fd
00
f5
00
00
00
00
00
00
00
ff
00
fd
00
fc
03
fc
fa
08
03
00
01
fa
fc
0b
02
04
0a
0a
0e
f9
f2
fb
06
ff
fd
10
10
0d
01
f8
fe
fc
f4
03
0c
07
02
fa
f9
fe
ff
f7
06
04
ff
0a
03
fa
f2
0a
01
f7
0f
06
03
f6
f1
f2
fc
f7
f7
02
03
fe
03
02
04
05
01
f9
03
05
fd
00
00
fb
02
fe
00
00
fe
06
0b
05
fe
0a
fc
fc
fe
fa
02
08
04
fe
04
fd
f6
0b
02
fd
f7
f9
fc
05
00
00
07
06
03
02
fa
f8
f9
f2
02
fa
05
09
03
f9
fb
03
fe
f9
fa
fd
f8
00
00
00
00
00
00
00
00
00
fe
f1
fd
03
f6
f7
03
fe
fd
fb
fe
03
02
06
ff
03
06
00
fa
fb
04
fb
fc
ff
08
0a
fc
13
0d
09
00
f9
04
f7
ed
fe
f9
04
06
f5
fd
fc
f8
fa
f5
00
00
00
00
00
00
00
00
00
fc
f6
fc
00
f8
08
09
f5
f5
00
00
00
00
00
00
00
00
00
f9
fa
fd
02
f9
06
00
00
03
fd
fe
02
ff
fb
0b
05
f4
fe
fd
fc
06
04
05
fd
fc
03
fc
00
00
00
00
00
00
00
00
00
00
00
fe
00
00
fe
00
ff
fe
03
ff
01
02
00
01
0b
05
02
03
06
0e
fd
fe
01
fa
fa
00
ff
00
fd
fb
ff
fd
fe
ff
fe
f8
f4
f2
00
fd
00
f3
fa
fb
00
00
00
00
00
00
00
00
00
02
02
01
02
03
02
ff
01
00
00
00
00
00
00
00
00
00
00
fe
02
fd
fd
fe
e8
01
07
ff
00
00
00
00
00
00
00
00
00
01
04
00
02
08
08
07
00
06
08
fa
10
0e
f4
00
fc
fa
fd
01
f6
ff
02
03
03
0c
06
0d
fd
fa
ff
04
fc
ff
05
03
04
05
fc
ff
02
03
07
07
0a
09
ff
02
02
fe
06
09
fe
05
09
00
00
00
00
00
00
00
00
00
06
04
0a
04
09
0c
fc
02
04
fe
fc
fc
ff
fb
fd
f7
f9
f3
f7
01
08
f9
03
0c
00
fe
05
00
00
00
00
00
00
00
00
00
00
00
00
00
00
00
00
00
00
00
f8
f7
fe
00
fc
02
11
08
01
03
fc
01
00
ff
fc
fe
01
fe
fa
fc
00
ff
02
00
03
04
00
00
00
00
00
00
00
00
00
00
00
00
00
00
00
00
00
00
fa
fd
01
fb
02
02
fc
04
fd
fb
fc
fe
fe
00
05
04
04
05
fc
fa
fb
01
ff
fb
fb
fc
00
07
03
03
02
01
04
01
fb
00
00
00
00
00
00
00
00
00
00
00
00
00
00
00
00
00
00
00
f4
fc
fa
fd
02
f7
fc
06
05
ff
fe
fc
f4
f8
f9
f5
f9
fa
fe
fc
fd
01
fd
fd
fd
f8
fd
0f
07
03
03
02
04
fe
f7
fc
f9
f1
00
fd
ff
09
f8
fc
06
fd
fa
06
08
08
04
07
0d
07
05
03
06
00
f9
fc
fc
fe
fd
00
00
00
00
00
00
00
00
00
fb
fd
03
f8
f7
04
05
05
06
00
00
00
00
00
00
00
00
00
00
00
00
00
00
00
00
00
00
06
fd
fd
ff
fb
f7
ff
04
fd
e8
e6
f3
f5
fb
0a
08
07
fe
00
00
00
00
00
00
00
00
00
00
00
00
00
00
00
00
00
00
fc
f9
fe
f9
f2
fa
07
00
fc
00
00
00
00
00
00
00
00
00
04
fc
fc
09
fd
01
fe
ff
04
f8
00
08
fd
06
06
fd
fc
00
02
01
04
03
03
0d
04
09
0f
05
fe
02
06
fc
00
07
ff
fc
08
01
f5
0e
00
f4
00
fd
fb
02
fb
f4
04
f5
f2
02
f7
f5
f7
ed
fb
07
09
11
ff
06
01
fb
00
02
fb
fa
04
fc
fd
fe
f8
f7
fa
06
fd
f8
07
08
01
06
03
04
01
fd
04
02
ff
07
fd
fa
ff
ff
fc
fd
02
ff
0a
01
00
fd
04
fc
fe
f7
f8
fb
f2
fb
fc
fe
04
00
fe
fe
00
fe
02
02
ff
02
02
00
02
01
fa
00
00
f7
fa
03
f6
fe
04
00
00
00
00
00
00
00
00
00
f7
fc
fe
00
01
fb
05
06
fd
00
05
ff
fe
fe
f8
06
05
fc
07
ff
fe
00
ff
00
f5
f8
fe
07
02
fb
fc
fc
ec
05
0c
00
f8
f5
f8
01
fc
03
04
fd
00
06
03
05
fd
fb
fc
fe
f9
fa
00
00
00
00
00
00
00
00
00
00
01
05
f8
01
04
f9
fb
fb
00
03
fb
fe
ff
fc
fe
08
0d
02
fc
02
08
f3
fe
f2
ef
fe
00
fc
fc
03
04
ff
02
06
04
ff
00
06
f5
f2
f1
f7
f0
f5
ff
fa
f8
05
02
fa
05
0a
0b
fe
fa
ff
f4
f5
fa
fb
ff
fd
07
0d
ff
02
06
fb
ff
01
fe
06
f3
fd
fa
f4
06
fd
03
11
02
04
06
04
05
07
02
f9
f6
f8
fd
f8
00
fa
f2
0e
06
f5
f9
fe
03
f9
ff
05
fe
ff
03
ff
02
03
ff
02
03
00
01
05
fe
03
03
f5
ff
00
fb
fc
00
00
00
00
00
00
00
00
00
00
00
00
00
00
00
00
00
00
00
fc
04
fd
ff
fb
fc
fc
fc
04
01
02
04
00
05
04
02
0a
07
02
03
03
03
02
fe
01
02
00
fa
fd
fc
f9
fc
02
00
06
0a
0a
06
fe
0f
0b
05
fa
fe
05
03
11
0a
ee
05
05
e3
fc
01
00
00
00
00
00
00
00
00
00
fe
fe
01
f6
04
07
f5
fd
00
07
fc
f1
fe
f0
e7
fc
f9
f2
06
fe
fa
f3
f2
f9
fa
f6
fc
03
04
fd
06
0a
0a
fe
03
07
00
00
00
00
00
00
00
00
00
02
01
04
06
00
fc
ff
01
04
fb
fb
fb
fd
ff
ff
fd
02
fd
ff
05
04
fb
07
0d
00
0d
0e
01
10
09
f2
01
06
f6
fc
04
00
00
00
00
00
00
00
00
00
fc
fc
02
00
02
03
ff
01
03
00
00
00
00
00
00
00
00
00
00
03
fa
fa
f9
f5
01
02
02
00
00
00
00
00
00
00
00
00
00
f1
f3
04
02
04
0b
10
fb
03
f3
fd
0e
fa
f6
0c
0b
07
05
01
f8
11
0a
00
07
01
f9
00
00
00
00
00
00
00
00
00
f9
fa
f8
f8
fa
f4
02
f6
f7
04
00
fa
07
09
00
fe
03
fe
f8
f8
fc
01
02
06
01
04
08
00
00
00
00
00
00
00
00
00
f6
f6
00
ef
f0
04
f9
02
0f
02
03
04
04
fe
fd
05
fa
02
0a
05
09
05
fd
0c
01
ff
00
0f
0a
fb
0c
04
f5
f8
fb
ec
f2
e9
f9
fd
f2
03
f5
f9
fe
01
fb
f8
08
f6
f0
07
fd
f6
09
00
05
05
fb
fb
03
fe
fd
00
00
00
00
00
00
00
00
00
fa
03
ff
f5
fe
03
f7
ff
00
00
00
00
00
00
00
00
00
00
fb
ff
fe
fd
ff
02
02
ff
fc
ff
ff
00
00
ff
00
ff
ff
00
03
fc
ff
fd
fa
fa
ff
f9
fe
fb
fc
03
fa
00
02
05
00
f8
fa
f7
fb
fb
f7
01
ff
fe
01
05
fa
05
03
f5
f2
00
f4
f7
00
00
00
00
00
00
00
00
00
03
ff
03
f8
fc
0a
fc
04
fe
00
00
00
00
00
00
00
00
00
05
fe
ff
0d
01
fe
fc
f8
fe
12
0c
0e
08
0a
07
fd
01
fa
fe
fc
04
07
fb
ec
0b
fd
f2
00
00
00
00
00
00
00
00
00
00
00
00
00
00
00
00
00
00
00
00
00
00
00
00
00
00
00
00
00
00
00
00
00
00
00
00
00
00
00
00
00
00
00
00
00
00
00
00
00
00
00
00
00
00
00
00
00
00
00
00
00
00
00
00
00
00
00
00
00
00
00
00
00
00
00
00
00
00
00
00
00
00
00
00
00
00
00
00
00
00
00
00
00
00
00
00
00
00
00
00
00
00
00
00
00
00
00
00
00
00
00
00
00
00
00
00
00
00
00
00
00
00
00
00
00
00
00
00
00
00
00
00
00
00
00
00
00
00
00
00
00
00
00
00
00
00
00
00
00
00
00
00
00
00
00
00
00
00
00
00
00
00
00
00
00
00
00
00
00
00
00
00
00
00
00
00
00
00
00
00
00
00
00
00
00
00
00
00
00
00
00
00
00
00
00
00
00
00
00
00
00
00
00
00
00
00
00
00
00
00
00
00
00
00
00
00
00
00
00
00
00
00
00
00
00
00
00
00
00
00
00
00
00
00
00
00
00
00
00
00
00
00
00
00
00
00
00
00
00
00
00
00
00
00
00
00
00
00
00
00
00
00
00
00
00
00
00
00
00
00
00
00
00
00
00
00
00
00
00
00
00
00
00
00
00
00
00
00
00
00
00
00
00
00
00
00
00
00
00
00
00
00
00
00
00
00
00
00
00
00
00
00
00
00
00
00
00
00
00
00
00
00
00
00
00
00
00
00
00
00
00
00
00
00
00
00
00
00
00
00
00
00
00
00
00
00
00
00
00
00
00
00
00
00
00
00
00
00
00
00
00
00
00
00
00
00
00
00
00
00
00
00
00
00
00
00
00
00
00
00
00
00
00
00
00
00
00
00
00
00
00
00
00
00
00
00
00
00
00
00
00
00
00
00
00
00
00
00
00
00
00
00
00
00
00
00
00
00
00
00
00
00
00
00
00
00
00
00
00
00
00
00
00
00
00
00
00
00
00
00
00
00
00
00
00
00
00
00
00
00
00
00
00
00
00
00
00
00
00
00
00
00
00
00
00
00
00
00
00
00
00
00
00
00
00
00
00
00
00
00
00
00
00
00
00
00
00
00
00
00
00
00
00
00
00
00
00
00
00
00
00
00
00
00
00
00
00
00
00
00
00
00
00
00
00
00
00
00
00
00
00
00
00
00
00
00
00
00
00
00
00
00
00
00
00
00
00
00
00
00
00
00
00
00
00
00
00
00
00
00
00
00
00
00
00
00
00
00
00
00
00
00
00
00
00
00
00
00
00
00
00
00
00
00
00
00
00
00
00
00
00
00
00
00
00
00
00
00
00
00
00
00
00
00
00
00
00
00
00
00
00
00
00
00
00
00
00
00
00
00
00
00
00
00
00
00
00
00
00
00
00
00
00
00
00
00
00
00
00
00
00
00
00
00
00
00
00
00
00
00
00
00
00
00
00
00
00
00
00
00
00
00
00
00
00
00
00
00
00
00
00
00
00
00
00
00
00
00
00
00
00
00
00
00
00
00
00
00
00
00
00
00
00
00
00
00
00
00
00
00
00
00
00
00
00
00
00
00
00
00
00
00
00
00
00
00
00
00
00
00
00
00
00
00
00
00
00
00
00
00
00
00
00
00
00
00
00
00
00
00
00
00
00
00
00
00
00
00
00
00
00
00
00
00
00
00
00
00
00
00
00
00
00
00
00
00
00
00
00
00
00
00
00
00
00
00
00
00
00
00
00
00
00
00
00
00
00
00
00
00
00
00
00
00
00
00
00
00
00
00
00
00
00
00
00
00
00
00
00
00
00
00
00
00
00
00
00
00
00
00
00
00
00
00
00
00
00
00
00
00
00
00
00
00
00
00
00
00
00
00
00
00
00
00
00
00
00
00
00
00
00
00
00
00
00
00
00
00
00
00
00
00
00
00
00
00
00
00
00
00
00
00
00
00
00
00
00
00
00
00
00
00
00
00
00
00
00
00
00
00
00
00
00
00
00
00
00
00
00
00
00
00
00
00
00
00
00
00
00
00
00
00
00
00
00
00
00
00
00
00
00
00
00
00
00
00
00
00
00
00
00
00
00
00
00
00
00
00
00
00
00
00
00
00
00
00
00
00
00
00
00
00
00
00
00
00
00
00
00
00
00
00
00
00
00
00
00
00
00
00
00
00
00
00
00
00
00
00
00
00
00
00
00
00
00
00
00
00
00
00
00
00
00
00
00
00
00
00
00
00
00
00
00
00
00
00
00
00
00
00
00
00
00
00
00
00
00
00
00
00
00
00
00
00
00
00
00
00
00
00
00
00
00
00
00
00
00
00
00
00
00
00
00
00
00
00
00
00
00
00
00
00
00
00
00
00
00
00
00
00
00
00
00
00
00
00
00
00
00
00
00
00
00
00
00
00
00
00
00
00
00
00
00
00
00
00
00
00
00
00
00
00
00
00
00
00
00
00
00
00
00
00
00
00
00
00
00
00
00
00
00
00
00
00
00
00
00
00
00
00
00
00
00
00
00
00
00
00
00
00
00
00
00
00
00
00
00
00
00
00
00
00
00
00
00
00
00
00
00
00
00
00
00
00
00
00
00
00
00
00
00
00
00
00
00
00
00
00
00
00
00
00
00
00
00
00
00
00
00
00
00
00
00
00
00
00
00
00
00
00
00
00
00
00
00
00
00
00
00
00
00
00
00
00
00
00
00
00
00
00
00
00
00
00
00
00
00
00
00
00
00
00
00
00
00
00
00
00
00
00
00
00
00
00
00
00
00
00
00
00
00
00
00
00
00
00
00
00
00
00
00
00
00
00
00
00
00
00
00
00
00
00
00
00
00
00
00
00
00
00
00
00
00
00
00
00
00
00
00
00
00
00
00
00
00
00
00
00
00
00
00
00
00
00
00
00
00
00
00
00
00
00
00
00
00
00
00
00
00
00
00
00
00
00
00
00
00
00
00
00
00
00
00
00
00
00
00
00
00
00
00
00
00
00
00
00
00
00
00
00
00
00
00
00
00
00
00
00
00
00
00
00
00
00
00
00
00
00
00
00
00
00
00
00
00
00
00
00
00
00
00
00
00
00
00
00
00
00
00
00
00
00
00
00
00
00
00
00
00
00
00
00
00
00
00
00
00
00
00
00
00
00
00
00
00
00
00
00
00
00
00
00
00
00
00
00
00
00
00
00
00
00
00
00
00
00
00
00
00
00
00
00
00
00
00
00
00
00
00
00
00
00
00
00
00
00
00
00
00
00
00
00
00
00
00
00
00
00
00
00
00
00
00
00
00
00
00
00
00
00
00
00
00
00
00
00
00
00
00
00
00
00
00
00
00
00
00
00
00
00
00
00
00
00
00
00
00
00
00
00
00
00
00
00
00
00
00
00
00
00
00
00
00
00
00
00
00
00
00
00
00
00
00
00
00
00
00
00
00
00
00
00
00
00
00
00
00
00
00
00
00
00
00
00
00
00
00
00
00
00
00
00
00
00
00
00
00
00
00
00
00
00
00
00
00
00
00
00
00
00
00
00
00
00
00
00
00
00
00
00
00
00
00
00
00
00
00
00
00
00
00
00
00
00
00
00
00
00
00
00
00
00
00
00
00
00
00
00
00
00
00
00
00
00
00
00
00
00
00
00
00
00
00
00
00
00
00
00
00
00
00
00
00
00
00
00
00
00
00
00
00
00
00
00
00
00
00
00
00
00
00
00
00
00
00
00
00
00
00
00
00
00
00
00
00
00
00
00
00
00
00
00
00
00
00
00
00
00
00
00
00
00
00
00
00
00
00
00
00
00
00
00
00
00
00
00
00
00
00
00
00
00
00
00
00
00
00
00
00
00
00
00
00
00
00
00
00
00
00
00
00
00
00
00
00
00
00
00
00
00
00
00
00
00
00
00
00
00
00
00
00
00
00
00
00
00
00
00
00
00
00
00
00
00
00
00
00
00
00
00
00
00
00
00
00
00
00
00
00
00
00
00
00
00
00
00
00
00
00
00
00
00
00
00
00
00
00
00
00
00
00
00
00
00
00
00
00
00
00
00
00
00
00
00
00
00
00
00
00
00
00
00
00
00
00
00
00
00
00
00
00
00
00
00
00
00
00
00
00
00
00
00
00
00
00
00
00
00
00
00
00
00
00
00
00
00
00
00
00
00
00
00
00
00
00
00
00
00
00
00
00
00
00
00
00
00
00
00
00
00
00
00
00
00
00
00
00
00
00
00
00
00
00
00
00
00
00
00
00
00
00
00
00
00
00
00
00
00
00
00
00
00
00
00
00
00
00
00
00
00
00
00
00
00
00
00
00
00
00
00
00
00
00
00
00
00
00
00
00
00
00
00
00
00
00
00
00
00
00
00
00
00
00
00
00
00
00
00
00
00
00
00
00
00
00
00
00
00
00
00
00
00
00
00
00
00
00
00
00
00
00
00
00
00
00
00
00
00
00
00
00
00
00
00
00
00
00
00
00
00
00
00
00
00
00
00
00
00
00
00
00
00
00
00
00
00
00
00
00
00
00
00
00
00
00
00
00
00
00
00
00
00
00
00
00
00
00
00
00
00
00
00
00
00
00
00
00
00
00
00
00
00
00
00
00
00
00
00
00
00
00
00
00
00
00
00
00
00
00
00
00
00
00
00
00
00
00
00
00
00
00
00
00
00
00
00
00
00
00
00
00
00
00
00
00
00
00
00
00
00
00
00
00
00
00
00
00
00
00
00
00
00
00
00
00
00
00
00
00
00
00
00
00
00
00
00
00
00
00
00
00
00
00
00
00
00
00
00
00
00
00
00
00
00
00
00
00
00
00
00
00
00
00
00
00
00
00
00
00
00
00
00
00
00
00
00
00
00
00
00
00
00
00
00
00
00
00
00
00
00
00
00
00
00
00
00
00
00
00
00
00
00
00
00
00
00
00
00
00
00
00
00
00
00
00
00
00
00
00
00
00
00
00
00
00
00
00
00
00
00
00
00
00
00
00
00
00
00
00
00
00
00
00
00
00
00
00
00
00
00
00
00
00
00
00
00
00
00
00
00
00
00
00
00
00
00
00
00
00
00
00
00
00
00
00
00
00
00
00
00
00
00
00
00
00
00
00
00
00
00
00
00
00
00
00
00
00
00
00
00
00
00
00
00
00
00
00
00
00
00
00
00
00
00
00
00
00
00
00
00
00
00
00
00
00
00
00
00
00
00
00
00
00
00
00
00
00
00
00
00
00
00
00
00
00
00
00
00
00
00
00
00
00
00
00
00
00
00
00
00
00
00
00
00
00
00
00
00
00
00
00
00
00
00
00
00
00
00
00
00
00
00
00
00
00
00
00
00
00
00
00
00
00
00
00
00
00
00
00
00
00
00
00
00
00
00
00
00
00
00
00
00
00
00
00
00
00
00
00
00
00
00
00
00
00
00
00
00
00
00
00
00
00
00
00
00
00
00
00
00
00
00
00
00
00
00
00
00
00
00
00
00
00
00
00
00
00
00
00
00
00
00
00
00
00
00
00
00
00
00
00
00
00
00
00
00
00
00
00
00
00
00
00
00
00
00
00
00
00
00
00
00
00
00
00
00
00
00
00
00
00
00
00
00
00
00
00
00
00
00
00
00
00
00
00
00
00
00
00
00
00
00
00
00
00
00
00
00
00
00
00
00
00
00
00
00
00
00
00
00
00
00
00
00
00
00
00
00
00
00
00
00
00
00
00
00
00
00
00
00
00
00
00
00
00
00
00
00
00
00
00
00
00
00
00
00
00
00
00
00
00
00
00
00
00
00
00
00
00
00
00
00
00
00
00
00
00
00
00
00
00
00
00
00
00
00
00
00
00
00
00
00
00
00
00
00
00
00
00
00
00
00
00
00
00
00
00
00
00
00
00
00
00
00
00
00
00
00
00
00
00
00
00
00
00
00
00
00
00
00
00
00
00
00
00
00
00
00
00
00
00
00
00
00
00
00
00
00
00
00
00
00
00
00
00
00
00
00
00
00
00
00
00
00
00
00
00
00
00
00
00
00
00
00
00
00
00
00
00
00
00
00
00
00
00
00
00
00
00
00
00
00
00
00
00
00
00
00
00
00
00
00
00
00
00
00
00
00
00
00
00
00
00
00
00
00
00
00
00
00
00
00
00
00
00
00
00
00
00
00
00
00
00
00
00
00
00
00
00
00
00
00
00
00
00
00
00
00
00
00
00
00
00
00
00
00
00
00
00
00
00
00
00
00
00
00
00
00
00
00
00
00
00
00
00
00
00
00
00
00
00
00
00
00
00
00
00
00
00
00
00
00
00
00
00
00
00
00
00
00
00
00
00
00
00
00
00
00
00
00
00
00
00
00
00
00
00
00
00
00
00
00
00
00
00
00
00
00
00
00
00
00
00
00
00
00
00
00
00
00
00
00
00
00
00
00
00
00
00
00
00
00
00
00
00
00
00
00
00
00
00
00
00
00
00
00
00
00
00
00
00
00
00
00
00
00
00
00
00
00
00
00
00
00
00
00
00
00
00
00
00
00
00
00
00
00
00
00
00
00
00
00
00
00
00
00
00
00
00
00
00
00
00
00
00
00
00
00
00
00
00
00
00
00
00
00
00
00
00
00
00
00
00
00
00
00
00
00
00
00
00
00
00
00
00
00
00
00
00
00
00
00
00
00
00
00
00
00
00
00
00
00
00
00
00
00
00
00
00
00
00
00
00
00
00
00
00
00
00
00
00
00
00
00
00
00
00
00
00
00
00
00
00
00
00
00
00
00
00
00
00
00
00
00
00
00
00
00
00
00
00
00
00
00
00
00
00
00
00
00
00
00
00
00
00
00
00
00
00
00
00
00
00
00
00
00
00
00
00
00
00
00
00
00
00
00
00
00
00
00
00
00
00
00
00
00
00
00
00
00
00
00
00
00
00
00
00
00
00
00
00
00
00
00
00
00
00
00
00
00
00
00
00
00
00
00
00
00
00
00
00
00
00
00
00
00
00
00
00
00
00
00
00
00
00
00
00
00
00
00
00
00
00
00
00
00
00
00
00
00
00
00
00
00
00
00
00
00
00
00
00
00
00
00
00
00
00
00
00
00
00
00
00
00
00
00
00
00
00
00
00
00
00
00
00
00
00
00
00
00
00
00
00
00
00
00
00
00
00
00
00
00
00
00
00
00
00
00
00
00
00
00
00
00
00
00
00
00
00
00
00
00
00
00
00
00
00
00
00
00
00
00
00
00
00
00
00
00
00
00
00
00
00
00
00
00
00
00
00
00
00
00
00
00
00
00
00
00
00
00
00
00
00
00
00
00
00
00
00
00
00
00
00
00
00
00
00
00
00
00
00
00
00
00
00
00
00
00
00
00
00
00
00
00
00
00
00
00
00
00
00
00
00
00
00
00
00
00
00
00
00
00
00
00
00
00
00
00
00
00
00
00
00
00
00
00
00
00
00
00
00
00
00
00
00
00
00
00
00
00
00
00
00
00
00
00
00
00
00
00
00
00
00
00
00
00
00
00
00
00
00
00
00
00
00
00
00
00
00
00
00
00
00
00
00
00
00
00
00
00
00
00
00
00
00
00
00
00
00
00
00
00
00
00
00
00
00
00
00
00
00
00
00
00
00
00
00
00
00
00
00
00
00
00
00
00
00
00
00
00
00
00
00
00
00
00
00
00
00
00
00
00
00
00
00
00
00
00
00
00
00
00
00
00
00
00
00
00
00
00
00
00
00
00
00
00
00
00
00
00
00
00
00
00
00
00
00
00
00
00
00
00
00
00
00
00
00
00
00
00
00
00
00
00
00
00
00
00
00
00
00
00
00
00
00
00
00
00
00
00
00
00
00
00
00
00
00
00
00
00
00
00
00
00
00
00
00
00
00
00
00
00
00
00
00
00
00
00
00
00
00
00
00
00
00
00
00
00
00
00
00
00
00
00
00
00
00
00
00
00
00
00
00
00
00
00
00
00
00
00
00
00
00
00
00
00
00
00
00
00
00
00
00
00
00
00
00
00
00
00
00
00
00
00
00
00
00
00
00
00
00
00
00
00
00
00
00
00
00
00
00
00
00
00
00
00
00
00
00
00
00
00
00
00
00
00
00
00
00
00
00
00
00
00
00
00
00
00
00
00
00
00
00
00
00
00
00
00
00
00
00
00
00
00
00
00
00
00
00
00
00
00
00
00
00
00
00
00
00
00
00
00
00
00
00
00
00
00
00
00
00
00
00
00
00
00
00
00
00
00
00
00
00
00
00
00
00
00
00
00
00
00
00
00
00
00
00
00
00
00
00
00
00
00
00
00
00
00
00
00
00
00
00
00
00
00
00
00
00
00
00
00
00
00
00
00
00
00
00
00
00
00
00
00
00
00
00
00
00
00
00
00
00
00
00
00
00
00
00
00
00
00
00
00
00
00
00
00
00
00
00
00
00
00
00
00
00
00
00
00
00
00
00
00
00
00
00
00
00
00
00
00
00
00
00
00
00
00
00
00
00
00
00
00
00
00
00
00
00
00
00
00
00
00
00
00
00
00
00
00
00
00
00
00
00
00
00
00
00
00
00
00
00
00
00
00
00
00
00
00
00
00
00
00
00
00
00
00
00
00
00
00
00
00
00
00
00
00
00
00
00
00
00
00
00
00
00
00
00
00
00
00
00
00
00
00
00
00
00
00
00
00
00
00
00
00
00
00
00
00
00
00
00
00
00
00
00
00
00
00
00
00
00
00
00
00
00
00
00
00
00
00
00
00
00
00
00
00
00
00
00
00
00
00
00
00
00
00
00
00
00
00
00
00
00
00
00
00
00
00
00
00
00
00
00
00
00
00
00
00
00
00
00
00
00
00
00
00
00
00
00
00
00
00
00
00
00
00
00
00
00
00
00
00
00
00
00
00
00
00
00
00
00
00
00
00
00
00
00
00
00
00
00
00
00
00
00
00
00
00
00
00
00
00
00
00
00
00
00
00
00
00
00
00
00
00
00
00
00
00
00
00
00
00
00
00
00
00
00
00
00
00
00
00
00
00
00
00
00
00
00
00
00
00
00
00
00
00
00
00
00
00
00
00
00
00
00
00
00
00
00
00
00
00
00
00
00
00
00
00
00
00
00
00
00
00
00
00
00
00
00
00
00
00
00
00
00
00
00
00
00
00
00
00
00
00
00
00
00
00
00
00
00
00
00
00
00
00
00
00
00
00
00
00
00
00
00
00
00
00
00
00
00
00
00
00
00
00
00
00
00
00
00
00
00
00
00
00
00
00
00
00
00
00
00
00
00
00
00
00
00
00
00
00
00
00
00
00
00
00
00
00
00
00
00
00
00
00
00
00
00
00
00
00
00
00
00
00
00
00
00
00
00
00
00
00
00
00
00
00
00
00
00
00
00
00
00
00
00
00
00
00
00
00
00
00
00
00
00
00
00
00
00
00
00
00
00
00
00
00
00
00
00
00
00
00
00
00
00
00
00
00
00
00
00
00
00
00
00
00
00
00
00
00
00
00
00
00
00
00
00
00
00
00
00
00
00
00
00
00
00
00
00
00
00
00
00
00
00
00
00
00
00
00
00
00
00
00
00
00
00
00
00
00
00
00
00
00
00
00
00
00
00
00
00
00
00
00
00
00
00
00
00
00
00
00
00
00
00
00
00
00
00
00
00
00
00
00
00
00
00
00
00
00
00
00
00
00
00
00
00
00
00
00
00
00
00
00
00
00
00
00
00
00
00
00
00
00
00
00
00
00
00
00
00
00
00
00
00
00
00
00
00
00
00
00
00
00
00
00
00
00
00
00
00
00
00
00
00
00
00
00
00
00
00
00
00
00
00
00
00
00
00
00
00
00
00
00
00
00
00
00
00
00
00
00
00
00
00
00
00
00
00
00
00
00
00
00
00
00
00
00
00
00
00
00
00
00
00
00
00
00
00
00
00
00
00
00
00
00
00
00
00
00
00
00
00
00
00
00
00
00
00
00
00
00
00
00
00
00
00
00
00
00
00
00
00
00
00
00
00
00
00
00
00
00
00
00
00
00
00
00
00
00
00
00
00
00
00
00
00
00
00
00
00
00
00
00
00
00
00
00
00
00
00
00
00
00
00
00
00
00
00
00
00
00
00
00
00
00
00
00
00
00
00
00
00
00
00
00
00
00
00
00
00
00
00
00
00
00
00
00
00
00
00
00
00
00
00
00
00
00
00
00
00
00
00
00
00
00
00
00
00
00
00
00
00
00
00
00
00
00
00
00
00
00
00
00
00
00
00
00
00
00
00
00
00
00
00
00
00
00
00
00
00
00
00
00
00
00
00
00
00
00
00
00
00
00
00
00
00
00
00
00
00
00
00
00
00
00
00
00
00
00
00
00
00
00
00
00
00
00
00
00
00
00
00
00
00
00
00
00
00
00
00
00
00
00
00
00
00
00
00
00
00
00
00
00
00
00
00
00
00
00
00
00
00
00
00
00
00
00
00
00
00
00
00
00
00
00
00
00
00
00
00
00
00
00
00
00
00
00
00
00
00
00
00
00
00
00
00
00
00
00
00
00
00
00
00
00
00
00
00
00
00
00
00
00
00
00
00
00
00
00
00
00
00
00
00
00
00
00
00
00
00
00
00
00
00
00
00
00
00
00
00
00
00
00
00
00
00
00
00
00
00
00
00
00
00
00
00
00
00
00
00
00
00
00
00
00
00
00
00
00
00
00
00
00
00
00
00
00
00
00
00
00
00
00
00
00
00
00
00
00
00
00
00
00
00
00
00
00
00
00
00
00
00
00
00
00
00
00
00
00
00
00
00
00
00
00
00
00
00
00
00
00
00
00
00
00
00
00
00
00
00
00
00
00
00
00
00
00
00
00
00
00
00
00
00
00
00
00
00
00
00
00
00
00
00
00
00
00
00
00
00
00
00
00
00
00
00
00
00
00
00
00
00
00
00
00
00
00
00
00
00
00
00
00
00
00
00
00
00
00
00
00
00
00
00
00
00
00
00
00
00
00
00
00
00
00
00
00
00
00
00
00
00
00
00
00
00
00
00
00
00
00
00
00
00
00
00
00
00
00
00
00
00
00
00
00
00
00
00
00
00
00
00
00
00
00
00
00
00
00
00
00
00
00
00
00
00
00
00
00
00
00
00
00
00
00
00
00
00
00
00
00
00
00
00
00
00
00
00
00
00
00
00
00
00
00
00
00
00
00
00
00
00
00
00
00
00
00
00
00
00
00
00
00
00
00
00
00
00
00
00
00
00
00
00
00
00
00
00
00
00
00
00
00
00
00
00
00
00
00
00
00
00
00
00
00
00
00
00
00
00
00
00
00
00
00
00
00
00
00
00
00
00
00
00
00
00
00
00
00
00
00
00
00
00
00
00
00
00
00
00
00
00
00
00
00
00
00
00
00
00
00
00
00
00
00
00
00
00
00
00
00
00
00
00
00
00
00
00
00
00
00
00
00
00
00
00
00
00
00
00
00
00
00
00
00
00
00
00
00
00
00
00
00
00
00
00
00
00
00
00
00
00
00
00
00
00
00
00
00
00
00
00
00
00
00
00
00
00
00
00
00
00
00
00
00
00
00
00
00
00
00
00
00
00
00
00
00
00
00
00
00
00
00
00
00
00
00
00
00
00
00
00
00
00
00
00
00
00
00
00
00
00
00
00
00
00
00
00
00
00
00
00
00
00
00
00
00
00
00
00
00
00
00
00
00
00
00
00
00
00
00
00
00
00
00
00
00
00
00
ff
fb
00
f0
f5
02
ff
fd
02
03
00
ee
07
f6
f2
04
04
f3
00
00
00
00
00
00
00
00
00
f8
f3
fe
f9
00
08
f9
f8
f7
00
06
07
ff
0e
16
02
01
ff
00
02
06
fc
fe
ff
0b
02
01
fd
00
ff
fa
02
ff
f4
fb
f8
ff
f5
f5
f9
f4
03
fd
0c
08
00
09
ff
f4
00
fb
fa
01
f2
06
08
02
06
0b
08
0d
0e
09
00
00
00
00
00
00
00
00
00
f6
f1
fb
0e
f7
f2
07
fd
02
f6
f7
f9
f5
f9
08
ff
fa
fe
07
0e
fd
f9
fd
fd
fe
ee
fa
fd
fc
00
05
ff
f7
02
02
fe
f6
f5
f9
fc
03
ff
fb
07
ff
fb
f9
fc
f5
f3
fd
02
ff
fe
04
f7
02
fc
f0
01
00
fa
05
03
02
f5
03
fd
00
02
05
fe
00
00
00
00
00
00
00
00
00
f5
07
0b
f1
fc
0b
fd
ed
00
00
f3
f9
05
01
f8
14
13
02
11
02
ff
0e
00
fc
11
ff
fb
f9
fb
05
07
fd
ff
0d
09
03
00
ff
00
00
00
00
00
ff
00
f6
02
fc
fb
01
07
fe
03
0e
f7
f5
f5
fb
f0
f1
fb
01
03
f9
f8
01
f6
f6
f9
f6
fa
fd
f7
f7
fd
f7
fa
fd
04
0c
f2
fa
01
fb
e5
f4
f0
fd
fc
ff
00
fe
01
f0
0f
0b
f0
fc
00
fd
fa
02
f9
00
0c
f5
fb
f6
f9
f6
fc
f8
01
05
f8
f5
06
f4
f4
fb
03
0b
fa
fc
05
04
07
fe
03
fc
fb
fd
fe
fe
ff
fd
ff
fb
fc
04
07
02
04
02
02
04
05
fa
fa
fe
0f
13
0a
f6
e9
fb
fa
fb
fb
00
fc
01
03
fa
fc
06
f0
01
05
01
fc
00
00
00
00
00
00
00
00
00
16
13
fa
03
07
fa
03
fe
fd
fe
06
01
ff
03
00
fb
01
05
f3
01
fd
01
f1
fe
05
f7
fd
06
fd
f7
ee
e6
03
fa
e2
07
0f
01
ff
0a
0b
07
08
1d
0d
00
00
00
00
00
00
00
00
00
f9
f8
f7
e7
e6
ef
f4
fa
fd
00
00
00
00
00
00
00
00
00
09
0c
0a
02
05
14
fe
f9
fe
05
06
04
0a
f5
fa
06
01
ff
f8
0e
fb
fd
11
02
ef
fd
f9
00
00
00
00
00
00
00
00
00
01
00
00
01
01
00
ff
ff
ff
fd
02
ff
fb
ff
02
04
03
00
0b
00
f8
ff
fb
ff
03
eb
00
06
00
fe
10
00
01
10
03
05
ff
fa
00
fc
fd
fb
f0
f3
f5
00
00
00
00
00
00
00
00
00
01
02
fd
03
08
00
02
00
fc
00
00
00
00
00
00
00
00
00
f6
f8
07
03
f7
12
04
f9
fd
00
00
00
00
00
00
00
00
00
03
04
f9
f0
fa
ec
f2
0a
03
09
fe
fc
f0
ee
0f
0a
fb
11
f8
fe
08
fd
fd
f9
00
fe
f9
fb
0b
02
f1
ff
03
fb
01
04
fc
f3
fd
fe
fa
fb
00
f9
ff
01
00
05
f9
ff
fa
00
05
ff
00
00
01
00
00
00
ff
00
00
f0
f3
f8
ea
ef
f5
f7
fa
01
fe
0b
01
f1
fc
ff
fc
02
08
fd
f8
01
f9
f9
03
05
05
04
00
00
00
00
00
00
00
00
00
00
00
00
00
00
00
00
00
00
0a
fe
ff
0e
fd
f8
05
f3
fa
fe
ff
fd
fe
fb
fd
01
fd
f8
03
fe
fe
ff
fe
fd
01
08
06
00
00
00
00
00
00
00
00
00
00
00
00
00
00
00
00
00
00
02
03
f8
00
fb
ff
f4
f8
fe
f8
fe
05
f7
fd
08
fa
fd
0a
02
fd
ff
04
01
03
02
fe
fa
ff
ff
06
fe
00
06
03
03
04
00
00
00
00
00
00
00
00
00
00
00
00
00
00
00
00
00
00
fd
04
03
f4
f8
eb
fc
08
ff
09
09
ff
f3
fe
08
fc
fa
09
fe
0b
06
fd
04
06
ff
00
01
f8
0a
ff
ee
00
0a
f6
f8
f7
fd
f8
01
ec
f6
0b
fe
ff
02
fc
0c
15
01
f9
05
0a
04
fd
09
20
09
02
16
09
00
f5
fe
00
00
00
00
00
00
00
00
00
06
03
fb
fd
fa
fd
03
08
fc
00
00
00
00
00
00
00
00
00
ff
00
00
00
00
00
00
00
00
07
00
08
f8
fb
09
fb
fa
03
f2
f7
15
f1
f2
02
13
0c
f6
00
00
00
00
00
00
00
00
00
00
00
00
00
00
00
00
00
00
f7
fb
f9
fd
ef
f5
09
05
07
00
00
00
00
00
00
00
00
00
01
00
10
f1
f9
10
fe
fe
01
04
fb
02
fb
fc
04
fd
03
01
ff
f3
fe
fb
fb
f8
03
03
07
04
02
ff
09
06
ff
08
08
01
03
03
fb
03
05
fd
fa
00
05
f5
06
03
f9
f6
0d
f7
fc
04
ee
ff
0f
f9
f6
f9
fe
05
fd
f6
fd
f5
f5
ff
f6
fc
fd
f9
02
06
0f
f3
f6
fb
0b
11
05
02
03
fe
00
fa
f9
14
0e
0a
f1
f0
f6
fe
00
ff
ff
07
01
f2
f7
f7
ee
0d
0f
fa
07
ff
07
0c
06
fb
06
01
f9
01
f9
05
00
fd
03
fc
fd
01
fd
00
03
f1
ee
fd
f2
fa
f5
fa
fc
00
00
00
00
00
00
00
00
00
fd
06
fe
08
18
16
fc
fe
09
0f
00
05
0b
00
06
0f
07
10
f7
02
fc
f4
ff
f6
03
07
fe
f7
06
09
ff
07
ff
08
02
fd
fa
fc
08
00
f9
07
05
fe
04
fa
04
00
03
0e
0a
02
0c
09
00
00
00
00
00
00
00
00
00
f8
00
03
00
09
0b
00
03
08
02
01
0d
fe
f4
04
0a
fb
03
ff
f6
f3
eb
02
11
f4
fd
09
0b
16
06
02
0b
04
00
00
fc
f5
ef
ff
04
f5
05
07
04
fd
f2
0c
fa
f3
04
03
f0
ef
eb
ff
00
fe
01
f8
10
01
07
01
0f
ff
02
0f
fc
01
11
f6
01
03
0e
0d
04
0d
18
fa
0e
f6
05
f2
f7
07
fc
fc
14
13
07
fd
01
fa
f1
fd
02
f2
ff
fc
fe
fc
fa
ff
ff
fe
fd
02
f9
04
fd
fb
fe
fb
fb
07
01
01
fc
f7
f8
fb
fe
ff
08
08
03
00
00
00
00
00
00
00
00
00
00
00
00
00
00
00
00
00
00
01
ff
02
fb
0e
22
05
fe
fe
f7
f7
04
f8
f9
04
f8
f8
09
ff
02
fa
fd
f7
04
fe
fe
fc
ff
fc
f6
f6
00
00
f1
f8
03
07
0d
fd
03
01
fa
fe
f7
ff
f6
f6
fc
fb
f6
ff
05
f7
f6
00
00
00
00
00
00
00
00
00
fa
ed
fe
07
01
fd
0b
07
fb
f1
f4
fd
f9
05
03
f9
03
ff
05
fa
ff
ff
02
fc
06
06
07
f9
fa
fe
03
fa
fa
0e
fc
f8
00
00
00
00
00
00
00
00
00
fa
07
0a
fa
09
10
04
0e
14
0d
fc
fd
05
fb
ed
0a
0a
f1
fa
f9
fa
0c
09
03
07
0d
fe
19
0d
06
fa
fb
fe
fa
f9
0c
00
00
00
00
00
00
00
00
00
03
00
fa
01
04
fe
03
08
fd
00
00
00
00
00
00
00
00
00
01
fb
fa
03
f0
ef
0f
04
fe
00
00
00
00
00
00
00
00
00
06
f7
10
fa
01
02
07
ff
ff
08
13
0f
f4
fb
04
f3
e9
f2
13
fd
f9
ff
fd
03
f6
08
0c
00
00
00
00
00
00
00
00
00
0e
0b
fb
04
05
f4
04
f8
f1
fe
01
fa
02
fb
f7
03
ff
fe
0a
07
04
08
06
ff
06
f9
f7
00
00
00
00
00
00
00
00
00
ff
f6
fe
05
f0
00
02
f5
ff
05
01
f6
03
07
01
fe
03
04
02
ff
f5
08
04
f2
ff
03
fb
f9
fd
f3
f6
f9
02
f2
f4
07
00
01
00
01
f2
01
f6
ef
f5
0f
01
fe
08
fd
08
01
04
09
fc
0b
fd
04
06
0e
07
08
08
00
00
00
00
00
00
00
00
00
0a
ea
07
03
f2
fd
0c
f9
ff
00
00
00
00
00
00
00
00
00
04
ff
f8
08
02
ff
14
02
f8
00
00
01
00
01
01
ff
00
01
ff
04
01
f1
0a
09
fd
06
0e
fd
ff
01
07
0d
0f
00
05
08
fc
fb
02
14
ff
f7
12
0b
f4
fa
f9
f4
07
02
f9
fa
01
00
00
00
00
00
00
00
00
00
00
01
e7
ed
0e
ed
fc
0c
fb
f5
00
00
00
00
00
00
00
00
00
01
07
05
f8
06
09
02
00
0b
01
08
fa
00
f7
fa
08
05
fe
f6
fb
ff
fa
f2
f6
ef
fd
fe
00
00
00
00
00
00
00
00
00
00
00
00
00
00
00
00
00
00
00
00
00
00
00
00
00
00
00
00
00
00
00
00
00
00
00
00
00
00
00
00
00
00
00
00
00
00
00
00
00
00
00
00
00
00
00
00
00
00
00
00
00
00
00
00
00
00
00
00
00
00
00
00
00
00
00
00
00
00
00
00
00
00
00
00
00
00
00
00
00
00
00
00
00
00
00
00
00
00
00
00
00
00
00
00
00
00
00
00
00
00
00
00
00
00
00
00
00
00
00
00
00
00
00
00
00
00
00
00
00
00
00
00
00
00
00
00
00
00
00
00
00
00
00
00
00
00
00
00
00
00
00
00
00
00
00
00
00
00
00
00
00
00
00
00
00
00
00
00
00
00
00
00
00
00
00
00
00
00
00
00
00
00
00
00
00
00
00
00
00
00
00
00
00
00
00
00
00
00
00
00
00
00
00
00
00
00
00
00
00
00
00
00
00
00
00
00
00
00
00
00
00
00
00
00
00
00
00
00
00
00
00
00
00
00
00
00
00
00
00
00
00
00
00
00
00
00
00
00
00
00
00
00
00
00
00
00
00
00
00
00
00
00
00
00
00
00
00
00
00
00
00
00
00
00
00
00
00
00
00
00
00
00
00
00
00
00
00
00
00
00
00
00
00
00
00
00
00
00
00
00
00
00
00
00
00
00
00
00
00
00
00
00
00
00
00
00
00
00
00
00
00
00
00
00
00
00
00
00
00
00
00
00
00
00
00
00
00
00
00
00
00
00
00
00
00
00
00
00
00
00
00
00
00
00
00
00
00
00
00
00
00
00
00
00
00
00
00
00
00
00
00
00
00
00
00
00
00
00
00
00
00
00
00
00
00
00
00
00
00
00
00
00
00
00
00
00
00
00
00
00
00
00
00
00
00
00
00
00
00
00
00
00
00
00
00
00
00
00
00
00
00
00
00
00
00
00
00
00
00
00
00
00
00
00
00
00
00
00
00
00
00
00
00
00
00
00
00
00
00
00
00
00
00
00
00
00
00
00
00
00
00
00
00
00
00
00
00
00
00
00
00
00
00
00
00
00
00
00
00
00
00
00
00
00
00
00
00
00
00
00
00
00
00
00
00
00
00
00
00
00
00
00
00
00
00
00
00
00
00
00
00
00
00
00
00
00
00
00
00
00
00
00
00
00
00
00
00
00
00
00
00
00
00
00
00
00
00
00
00
00
00
00
00
00
00
00
00
00
00
00
00
00
00
00
00
00
00
00
00
00
00
00
00
00
00
00
00
00
00
00
00
00
00
00
00
00
00
00
00
00
00
00
00
00
00
00
00
00
00
00
00
00
00
00
00
00
00
00
00
00
00
00
00
00
00
00
00
00
00
00
00
00
00
00
00
00
00
00
00
00
00
00
00
00
00
00
00
00
00
00
00
00
00
00
00
00
00
00
00
00
00
00
00
00
00
00
00
00
00
00
00
00
00
00
00
00
00
00
00
00
00
00
00
00
00
00
00
00
00
00
00
00
00
00
00
00
00
00
00
00
00
00
00
00
00
00
00
00
00
00
00
00
00
00
00
00
00
00
00
00
00
00
00
00
00
00
00
00
00
00
00
00
00
00
00
00
00
00
00
00
00
00
00
00
00
00
00
00
00
00
00
00
00
00
00
00
00
00
00
00
00
00
00
00
00
00
00
00
00
00
00
00
00
00
00
00
00
00
00
00
00
00
00
00
00
00
00
00
00
00
00
00
00
00
00
00
00
00
00
00
00
00
00
00
00
00
00
00
00
00
00
00
00
00
00
00
00
00
00
00
00
00
00
00
00
00
00
00
00
00
00
00
00
00
00
00
00
00
00
00
00
00
00
00
00
00
00
00
00
00
00
00
00
00
00
00
00
00
00
00
00
00
00
00
00
00
00
00
00
00
00
00
00
00
00
00
00
00
00
00
00
00
00
00
00
00
00
00
00
00
00
00
00
00
00
00
00
00
00
00
00
00
00
00
00
00
00
00
00
00
00
00
00
00
00
00
00
00
00
00
00
00
00
00
00
00
00
00
00
00
00
00
00
00
00
00
00
00
00
00
00
00
00
00
00
00
00
00
00
00
00
00
00
00
00
00
00
00
00
00
00
00
00
00
00
00
00
00
00
00
00
00
00
00
00
00
00
00
00
00
00
00
00
00
00
00
00
00
00
00
00
00
00
00
00
00
00
00
00
00
00
00
00
00
00
00
00
00
00
00
00
00
00
00
00
00
00
00
00
00
00
00
00
00
00
00
00
00
00
00
00
00
00
00
00
00
00
00
00
00
00
00
00
00
00
00
00
00
00
00
00
00
00
00
00
00
00
00
00
00
00
00
00
00
00
00
00
00
00
00
00
00
00
00
00
00
00
00
00
00
00
00
00
00
00
00
00
00
00
00
00
00
00
00
00
00
00
00
00
00
00
00
00
00
00
00
00
00
00
00
00
00
00
00
00
00
00
00
00
00
00
00
00
00
00
00
00
00
00
00
00
00
00
00
00
00
00
00
00
00
00
00
00
00
00
00
00
00
00
00
00
00
00
00
00
00
00
00
00
00
00
00
00
00
00
00
00
00
00
00
00
00
00
00
00
00
00
00
00
00
00
00
00
00
00
00
00
00
00
00
00
00
00
00
00
00
00
00
00
00
00
00
00
00
00
00
00
00
00
00
00
00
00
00
00
00
00
00
00
00
00
00
00
00
00
00
00
00
00
00
00
00
00
00
00
00
00
00
00
00
00
00
00
00
00
00
00
00
00
00
00
00
00
00
00
00
00
00
00
00
00
00
00
00
00
00
00
00
00
00
00
00
00
00
00
00
00
00
00
00
00
00
00
00
00
00
00
00
00
00
00
00
00
00
00
00
00
00
00
00
00
00
00
00
00
00
00
00
00
00
00
00
00
00
00
00
00
00
00
00
00
00
00
00
00
00
00
00
00
00
00
00
00
00
00
00
00
00
00
00
00
00
00
00
00
00
00
00
00
00
00
00
00
00
00
00
00
00
00
00
00
00
00
00
00
00
00
00
00
00
00
00
00
00
00
00
00
00
00
00
00
00
00
00
00
00
00
00
00
00
00
00
00
00
00
00
00
00
00
00
00
00
00
00
00
00
00
00
00
00
00
00
00
00
00
00
00
00
00
00
00
00
00
00
00
00
00
00
00
00
00
00
00
00
00
00
00
00
00
00
00
00
00
00
00
00
00
00
00
00
00
00
00
00
00
00
00
00
00
00
00
00
00
00
00
00
00
00
00
00
00
00
00
00
00
00
00
00
00
00
00
00
00
00
00
00
00
00
00
00
00
00
00
00
00
00
00
00
00
00
00
00
00
00
00
00
00
00
00
00
00
00
00
00
00
00
00
00
00
00
00
00
00
00
00
00
00
00
00
00
00
00
00
00
00
00
00
00
00
00
00
00
00
00
00
00
00
00
00
00
00
00
00
00
00
00
00
00
00
00
00
00
00
00
00
00
00
00
00
00
00
00
00
00
00
00
00
00
00
00
00
00
00
00
00
00
00
00
00
00
00
00
00
00
00
00
00
00
00
00
00
00
00
00
00
00
00
00
00
00
00
00
00
00
00
00
00
00
00
00
00
00
00
00
00
00
00
00
00
00
00
00
00
00
00
00
00
00
00
00
00
00
00
00
00
00
00
00
00
00
00
00
00
00
00
00
00
00
00
00
00
00
00
00
00
00
00
00
00
00
00
00
00
00
00
00
00
00
00
00
00
00
00
00
00
00
00
00
00
00
00
00
00
00
00
00
00
00
00
00
00
00
00
00
00
00
00
00
00
00
00
00
00
00
00
00
00
00
00
00
00
00
00
00
00
00
00
00
00
00
00
00
00
00
00
00
00
00
00
00
00
00
00
00
00
00
00
00
00
00
00
00
00
00
00
00
00
00
00
00
00
00
00
00
00
00
00
00
00
00
00
00
00
00
00
00
00
00
00
00
00
00
00
00
00
00
00
00
00
00
00
00
00
00
00
00
00
00
00
00
00
00
00
00
00
00
00
00
00
00
00
00
00
00
00
00
00
00
00
00
00
00
00
00
00
00
00
00
00
00
00
00
00
00
00
00
00
00
00
00
00
00
00
00
00
00
00
00
00
00
00
00
00
00
00
00
00
00
00
00
00
00
00
00
00
00
00
00
00
00
00
00
00
00
00
00
00
00
00
00
00
00
00
00
00
00
00
00
00
00
00
00
00
00
00
00
00
00
00
00
00
00
00
00
00
00
00
00
00
00
00
00
00
00
00
00
00
00
00
00
00
00
00
00
00
00
00
00
00
00
00
00
00
00
00
00
00
00
00
00
00
00
00
00
00
00
00
00
00
00
00
00
00
00
00
00
00
00
00
00
00
00
00
00
00
00
00
00
00
00
00
00
00
00
00
00
00
00
00
00
00
00
00
00
00
00
00
00
00
00
00
00
00
00
00
00
00
00
00
00
00
00
00
00
00
00
00
00
00
00
00
00
00
00
00
00
00
00
00
00
00
00
00
00
00
00
00
00
00
00
00
00
00
00
00
00
00
00
00
00
00
00
00
00
00
00
00
00
00
00
00
00
00
00
00
00
00
00
00
00
00
00
00
00
00
00
00
00
00
00
00
00
00
00
00
00
00
00
00
00
00
00
00
00
00
00
00
00
00
00
00
00
00
00
00
00
00
00
00
00
00
00
00
00
00
00
00
00
00
00
00
00
00
00
00
00
00
00
00
00
00
00
00
00
00
00
00
00
00
00
00
00
00
00
00
00
00
00
00
00
00
00
00
00
00
00
00
00
00
00
00
00
00
00
00
00
00
00
00
00
00
00
00
00
00
00
00
00
00
00
00
00
00
00
00
00
00
00
00
00
00
00
00
00
00
00
00
00
00
00
00
00
00
00
00
00
00
00
00
00
00
00
00
00
00
00
00
00
00
00
00
00
00
00
00
00
00
00
00
00
00
00
00
00
00
00
00
00
00
00
00
00
00
00
00
00
00
00
00
00
00
00
00
00
00
00
00
00
00
00
00
00
00
00
00
00
00
00
00
00
00
00
00
00
00
00
00
00
00
00
00
00
00
00
00
00
00
00
00
00
00
00
00
00
00
00
00
00
00
00
00
00
00
00
00
00
00
00
00
00
00
00
00
00
00
00
00
00
00
00
00
00
00
00
00
00
00
00
00
00
00
00
00
00
00
00
00
00
00
00
00
00
00
00
00
00
00
00
00
00
00
00
00
00
00
00
00
00
00
00
00
00
00
00
00
00
00
00
00
00
00
00
00
00
00
00
00
00
00
00
00
00
00
00
00
00
00
00
00
00
00
00
00
00
00
00
00
00
00
00
00
00
00
00
00
00
00
00
00
00
00
00
00
00
00
00
00
00
00
00
00
00
00
00
00
00
00
00
00
00
00
00
00
00
00
00
00
00
00
00
00
00
00
00
00
00
00
00
00
00
00
00
00
00
00
00
00
00
00
00
00
00
00
00
00
00
00
00
00
00
00
00
00
00
00
00
00
00
00
00
00
00
00
00
00
00
00
00
00
00
00
00
00
00
00
00
00
00
00
00
00
00
00
00
00
00
00
00
00
00
00
00
00
00
00
00
00
00
00
00
00
00
00
00
00
00
00
00
00
00
00
00
00
00
00
00
00
00
00
00
00
00
00
00
00
00
00
00
00
00
00
00
00
00
00
00
00
00
00
00
00
00
00
00
00
00
00
00
00
00
00
00
00
00
00
00
00
00
00
00
00
00
00
00
00
00
00
00
00
00
00
00
00
00
00
00
00
00
00
00
00
00
00
00
00
00
00
00
00
00
00
00
00
00
00
00
00
00
00
00
00
00
00
00
00
00
00
00
00
00
00
00
00
00
00
00
00
00
00
00
00
00
00
00
00
00
00
00
00
00
00
00
00
00
00
00
00
00
00
00
00
00
00
00
00
00
00
00
00
00
00
00
00
00
00
00
00
00
00
00
00
00
00
00
00
00
00
00
00
00
00
00
00
00
00
00
00
00
00
00
00
00
00
00
00
00
00
00
00
00
00
00
00
00
00
00
00
00
00
00
00
00
00
00
00
00
00
00
00
00
00
00
00
00
00
00
00
00
00
00
00
00
00
00
00
00
00
00
00
00
00
00
00
00
00
00
00
00
00
00
00
00
00
00
00
00
00
00
00
00
00
00
00
00
00
00
00
00
00
00
00
00
00
00
00
00
00
00
00
00
00
00
00
00
00
00
00
00
00
00
00
00
00
00
00
00
00
00
00
00
00
00
00
00
00
00
00
00
00
00
00
00
00
00
00
00
00
00
00
00
00
00
00
00
00
00
00
00
00
00
00
00
00
00
00
00
00
00
00
00
00
00
00
00
00
00
00
00
00
00
00
00
00
00
00
00
00
00
00
00
00
00
00
00
00
00
00
00
00
00
00
00
00
00
00
00
00
00
00
00
00
00
00
00
00
00
00
00
00
00
00
00
00
00
00
00
00
00
00
00
00
00
00
00
00
00
00
00
00
00
00
00
00
00
00
00
00
00
00
00
00
00
00
00
00
00
00
00
00
00
00
00
00
00
00
00
00
00
00
00
00
00
00
00
00
00
00
00
00
00
00
00
00
00
00
00
00
00
00
00
00
00
00
00
00
00
00
00
00
00
00
00
00
00
00
00
00
00
00
00
00
00
00
00
00
00
00
00
00
00
00
00
00
00
00
00
00
00
00
00
00
00
00
00
00
00
00
00
00
00
00
00
00
00
00
00
00
00
00
00
00
00
00
00
00
00
00
00
00
00
00
00
00
00
00
00
00
00
00
00
00
00
00
00
00
00
00
00
00
00
00
00
00
00
00
00
00
00
00
00
00
00
00
00
00
00
00
00
00
00
00
00
00
00
00
00
00
00
00
00
00
00
00
00
00
00
00
00
00
00
00
00
00
00
00
00
00
00
00
00
00
00
00
00
00
00
00
00
00
00
00
00
00
00
00
00
00
00
00
00
00
00
00
00
00
00
00
00
00
00
00
00
00
00
00
00
00
00
00
00
00
00
00
00
00
00
00
00
00
00
00
00
00
00
00
00
00
00
00
00
00
00
00
00
00
00
00
00
00
00
00
00
00
00
00
00
00
00
00
00
00
00
00
00
00
00
00
00
00
00
00
00
00
00
00
00
00
00
00
00
00
00
00
00
00
00
00
00
00
00
00
00
00
00
00
00
00
00
00
00
00
00
00
00
00
00
00
00
00
00
00
00
00
00
00
00
00
00
00
00
00
00
00
00
00
00
00
00
00
00
00
00
00
00
00
00
00
00
00
00
00
00
00
00
00
00
00
00
00
00
00
00
00
00
00
00
00
00
00
00
00
00
00
00
00
00
00
00
00
00
00
00
00
00
00
00
00
00
00
00
00
00
00
00
00
00
00
00
00
00
00
00
00
00
00
00
00
00
00
00
00
00
00
00
00
00
00
00
00
00
00
00
00
00
00
00
00
00
00
00
00
00
00
00
00
00
00
00
00
00
00
00
00
00
00
00
00
00
00
00
00
00
00
00
00
00
00
00
00
00
00
00
00
00
00
00
00
00
00
00
00
00
00
00
00
00
00
00
00
00
00
00
00
00
00
00
00
00
00
00
00
00
00
00
00
00
00
00
00
00
00
00
00
00
00
00
00
00
00
00
00
00
00
00
00
00
00
00
00
00
00
00
00
00
00
00
00
00
00
00
00
00
00
00
00
00
00
00
00
00
00
00
00
00
00
00
00
00
00
00
00
00
00
00
00
00
00
00
00
00
00
00
00
00
00
00
00
00
00
00
00
00
00
00
00
00
00
00
00
00
00
00
00
00
00
00
00
00
00
00
00
00
00
00
00
00
00
00
00
00
00
00
00
00
00
00
00
00
00
00
00
00
00
00
00
00
00
00
00
00
00
00
00
00
00
00
00
00
00
00
00
00
00
00
00
00
00
00
00
00
00
00
00
00
00
00
00
00
00
00
00
00
00
00
00
00
00
00
00
00
00
00
00
00
00
00
00
00
00
00
00
00
00
00
00
00
00
00
00
00
00
00
00
00
00
00
00
00
00
00
00
00
00
00
00
00
00
00
00
00
00
00
00
00
00
00
00
00
00
00
00
00
00
00
00
00
00
00
00
00
00
00
00
00
00
00
00
00
00
00
00
00
00
00
00
00
00
00
00
00
00
00
00
00
00
00
00
00
00
00
00
00
00
00
00
00
00
00
00
00
00
00
00
00
00
00
00
00
00
00
00
00
00
00
00
00
00
00
00
00
00
00
00
00
00
00
00
00
00
00
00
00
00
00
00
00
00
00
00
00
00
00
00
00
00
00
00
00
00
00
00
00
00
00
00
00
00
00
00
00
00
00
00
00
00
00
00
00
00
00
00
00
00
00
00
00
00
00
00
00
00
00
00
00
00
00
00
00
00
00
00
00
00
00
00
00
00
00
00
00
00
00
00
00
00
00
00
00
00
00
00
00
00
00
00
00
00
00
00
00
00
00
00
00
00
00
00
00
00
00
00
00
00
00
00
00
00
00
00
00
00
00
00
00
00
00
00
00
00
00
00
00
00
00
00
00
00
00
00
00
00
00
00
00
00
00
00
00
00
00
00
00
00
00
00
00
00
00
00
00
00
00
00
00
00
00
00
00
00
00
00
00
00
00
00
00
00
00
00
00
00
00
00
00
00
00
00
00
00
00
00
00
00
00
00
00
00
00
00
00
00
00
00
00
00
00
00
00
00
00
00
00
00
00
00
00
00
00
00
00
00
00
00
00
00
00
00
00
00
00
00
00
00
00
00
00
00
00
00
00
00
00
00
00
00
00
00
00
00
00
00
00
00
00
00
00
00
00
00
00
00
00
00
00
00
00
00
00
00
00
00
00
00
00
00
00
00
00
00
00
00
00
00
00
00
00
00
00
00
00
00
00
00
00
00
00
00
00
00
00
00
00
00
00
00
00
00
00
00
00
00
00
00
00
00
00
00
00
00
00
00
00
00
00
00
00
00
00
00
00
00
00
00
00
00
00
00
00
00
00
00
00
00
00
00
00
00
00
00
00
00
00
00
00
00
00
00
00
00
00
00
00
00
00
00
00
00
00
00
00
00
00
00
00
00
00
00
00
00
00
00
00
00
00
00
00
00
00
00
00
00
00
00
00
00
00
00
00
00
00
00
00
00
00
00
00
00
00
00
00
00
00
00
00
00
00
00
00
00
00
00
00
00
00
00
00
00
00
00
00
00
00
00
00
00
00
00
00
00
00
00
00
00
00
00
00
00
00
00
00
00
00
00
00
00
00
00
00
00
00
00
00
00
00
00
00
00
00
00
00
00
00
00
00
00
00
00
00
00
00
00
00
00
00
00
00
00
00
00
00
00
00
00
00
00
00
00
00
00
00
00
00
00
00
00
00
00
00
00
00
00
00
00
00
00
00
00
00
00
00
00
00
00
00
00
00
00
00
00
00
00
00
00
00
00
00
00
00
00
00
00
00
00
00
00
00
00
00
00
00
00
00
00
00
00
00
00
00
00
00
00
00
00
00
00
00
00
00
00
00
00
00
00
00
00
00
00
00
00
00
00
00
00
00
00
00
00
00
00
00
00
00
00
00
00
00
00
00
00
00
00
00
00
00
00
00
00
00
00
00
00
00
00
00
00
00
00
00
00
00
00
00
00
00
00
00
00
00
00
00
00
00
00
00
00
00
00
00
00
00
00
00
00
00
00
00
00
00
00
00
00
00
00
00
00
00
00
00
00
00
00
00
00
00
00
00
00
00
00
00
00
00
00
00
00
00
00
00
00
00
00
00
00
00
00
00
00
00
00
00
00
00
00
00
00
00
00
00
00
00
00
00
00
00
00
00
00
00
00
00
00
00
00
00
00
00
00
00
00
00
00
00
00
00
00
00
00
00
00
00
00
00
00
00
00
00
00
00
00
00
00
00
00
00
00
00
00
00
00
00
00
00
00
00
00
00
00
00
00
00
00
00
00
00
00
00
00
00
00
00
00
00
00
00
00
00
00
00
00
00
00
00
00
00
00
00
00
00
00
00
00
00
00
00
00
00
00
00
00
00
00
00
00
00
00
00
00
00
00
00
00
00
00
00
00
00
00
00
00
00
00
00
00
00
00
00
00
00
00
00
00
00
00
00
00
00
00
00
00
00
00
00
00
00
00
00
00
00
00
00
00
00
00
00
00
00
00
00
00
00
00
00
00
00
00
00
00
00
00
00
00
00
00
00
00
00
00
00
00
00
00
00
00
00
00
00
00
00
00
00
00
00
00
00
00
00
00
00
00
00
00
00
00
00
00
00
00
00
00
00
00
00
00
00
00
00
00
00
00
00
00
00
00
00
00
00
00
00
00
00
00
00
00
00
00
00
00
00
00
00
00
00
00
00
00
00
00
00
00
00
00
00
00
00
00
00
00
00
00
00
00
00
00
00
00
00
00
00
00
00
00
00
00
00
00
00
00
00
00
00
00
00
00
00
00
00
00
00
00
00
00
00
00
00
00
00
00
00
00
00
00
00
00
00
00
00
00
00
00
00
00
00
00
00
00
00
00
00
00
00
00
00
00
00
00
00
00
00
00
00
00
00
00
00
00
00
00
00
00
00
00
00
00
00
00
00
00
00
00
00
00
00
00
00
00
00
00
00
00
00
00
00
00
00
00
00
00
00
00
00
00
00
00
00
00
00
00
00
00
00
00
00
00
00
00
00
00
00
00
00
00
00
00
00
00
00
00
00
00
00
00
00
00
00
00
00
00
00
00
00
00
00
00
00
00
00
00
00
00
00
00
00
00
00
00
00
00
00
00
00
00
00
00
00
00
00
00
00
00
00
00
00
00
00
00
00
00
00
00
00
00
00
00
00
00
00
00
00
00
00
00
00
00
00
00
00
00
00
00
00
00
00
00
00
00
00
00
00
00
00
00
00
00
00
00
00
00
00
00
00
00
00
00
00
00
00
00
00
00
00
00
00
00
00
00
00
00
00
00
00
00
00
00
00
00
00
00
00
00
00
00
00
00
00
00
00
00
00
00
00
00
00
00
00
00
00
00
00
00
00
00
00
00
00
00
00
00
00
00
00
00
00
00
00
00
00
00
00
00
00
00
00
00
00
00
00
00
00
00
00
00
00
00
00
00
00
00
00
00
00
00
00
00
00
00
00
00
00
00
00
00
00
00
00
00
00
00
00
00
00
00
00
00
00
00
00
00
00
00
00
00
00
00
00
00
00
00
00
00
00
00
00
00
00
00
00
00
00
00
00
00
00
00
00
00
00
00
00
00
00
00
00
00
00
00
00
00
00
00
00
00
00
00
00
00
00
00
00
00
00
00
00
00
00
00
00
00
00
00
00
00
00
00
00
00
00
00
00
00
00
00
00
00
00
00
00
00
00
00
00
00
00
00
00
00
00
00
00
00
00
00
00
00
00
00
00
00
00
00
00
00
00
00
00
00
00
00
00
00
00
00
00
00
00
00
00
00
00
00
00
00
00
00
00
00
00
00
00
00
00
00
00
00
00
00
00
00
00
00
00
00
00
00
00
00
00
00
00
00
00
00
00
00
00
00
00
00
00
00
00
00
00
00
00
00
00
00
00
00
00
00
00
00
00
00
00
00
00
00
00
00
00
00
00
00
00
00
00
00
00
00
00
00
00
00
00
00
00
00
00
00
00
00
00
00
00
00
00
00
00
00
00
00
00
00
00
00
00
00
00
00
00
00
00
00
00
00
00
00
00
00
00
00
00
00
00
00
00
00
00
00
00
00
00
00
00
00
00
00
00
00
00
00
00
00
00
00
00
00
00
00
00
00
00
00
00
00
00
00
00
00
00
00
00
00
00
00
00
00
00
00
00
00
00
00
00
00
00
00
00
00
00
00
00
00
00
00
00
00
00
00
00
00
00
00
00
00
00
00
00
00
00
00
00
00
00
00
00
00
00
00
00
00
00
00
00
00
00
00
00
00
00
00
00
00
00
00
00
00
00
00
00
00
00
00
00
00
00
00
00
00
00
00
00
00
00
00
00
00
00
00
00
00
00
00
00
00
00
00
00
00
00
00
00
00
00
00
00
00
00
00
00
00
00
00
00
00
00
00
00
00
00
00
00
00
00
00
00
00
00
00
00
00
00
00
00
00
00
00
00
00
00
00
00
00
00
00
00
00
00
00
00
00
00
00
00
00
00
00
00
00
00
00
00
00
00
00
00
00
00
00
00
00
00
00
00
00
00
00
00
00
00
00
00
00
00
00
00
00
00
00
00
00
00
00
00
00
00
00
00
00
00
00
00
00
00
00
00
00
00
00
00
00
00
00
00
00
00
00
00
00
00
00
00
00
00
00
00
00
00
00
00
00
00
00
00
00
00
00
00
00
00
00
00
00
00
00
00
00
00
00
00
00
00
00
00
00
00
00
00
00
00
00
00
00
00
00
00
00
00
00
00
00
00
00
00
00
00
00
00
00
00
00
00
00
00
00
00
00
00
00
00
00
00
00
00
00
00
00
00
00
00
00
00
00
00
00
00
00
00
00
00
00
00
00
00
00
00
00
00
00
00
00
00
00
00
00
00
00
00
00
00
00
00
00
00
00
00
00
00
00
00
00
00
00
00
00
00
00
00
00
00
00
00
00
00
00
00
00
00
00
00
00
00
00
00
00
00
00
00
00
00
00
00
00
00
00
00
00
00
00
00
00
00
00
00
00
00
00
00
00
00
00
00
00
00
00
00
00
00
00
00
00
00
00
00
00
00
00
00
00
00
00
00
00
00
00
00
00
00
00
00
00
00
00
00
00
00
00
00
00
00
00
00
00
00
00
00
00
00
00
00
00
00
00
00
00
00
00
00
00
00
00
00
00
00
00
00
00
00
00
00
00
00
00
00
00
00
00
00
00
00
00
00
00
00
00
00
00
00
00
00
00
00
00
00
00
00
00
00
00
00
00
00
00
00
00
00
00
00
00
00
00
00
00
00
00
00
00
00
00
00
00
00
00
00
00
00
00
00
00
00
00
00
00
00
00
00
00
00
00
00
00
00
00
00
00
00
00
00
00
00
00
00
00
00
00
00
00
00
00
00
00
00
00
00
00
00
00
00
00
00
00
00
00
00
00
00
00
00
00
00
00
00
00
00
00
00
00
00
00
00
00
00
00
00
00
00
00
00
00
00
00
00
00
00
00
00
00
00
00
00
00
00
00
00
00
00
00
00
00
00
00
00
00
00
00
00
00
00
00
00
00
00
00
00
00
00
00
00
00
00
00
00
00
00
00
00
00
00
00
00
00
00
00
00
00
00
00
00
00
00
00
00
00
00
00
00
00
00
00
00
00
00
00
00
00
00
00
00
00
00
00
00
00
00
00
00
00
00
00
00
00
00
00
00
00
00
00
00
00
00
00
00
00
00
00
00
00
00
00
00
00
00
00
00
00
00
00
00
00
00
00
00
00
00
00
00
00
00
00
00
00
00
00
00
00
00
00
00
00
00
00
00
00
00
00
00
00
00
00
00
00
00
00
00
00
00
00
00
00
00
00
00
00
00
00
00
00
00
00
00
00
00
00
00
00
00
00
00
00
00
00
00
00
00
00
00
00
00
00
00
00
00
00
00
00
00
00
00
00
00
00
00
00
00
00
00
00
00
00
00
00
00
00
00
00
00
00
00
00
00
00
00
00
00
00
00
00
00
00
00
00
00
00
00
00
00
00
00
00
00
00
00
00
00
00
00
00
00
00
00
00
00
00
00
00
00
00
00
00
00
00
00
00
00
00
00
00
00
00
00
00
00
00
00
00
00
00
00
00
00
00
00
00
00
00
00
00
00
00
00
00
00
00
00
00
00
00
00
00
00
00
00
00
00
00
00
00
00
00
00
00
00
00
00
00
00
00
00
00
00
00
00
00
00
00
00
00
00
00
00
00
00
00
00
00
00
00
00
00
00
00
00
00
00
00
00
00
00
00
00
00
00
00
00
00
00
00
00
00
00
00
00
00
00
00
00
00
00
00
00
00
00
00
00
00
00
00
00
00
00
00
00
00
00
00
00
00
00
00
00
00
00
00
00
00
00
00
00
00
00
00
00
00
00
00
00
00
00
00
00
00
00
00
00
00
00
00
00
00
00
00
00
00
00
00
00
00
00
00
00
00
00
00
00
00
00
00
00
00
00
00
00
00
00
00
00
00
00
00
00
00
00
00
00
00
00
00
00
00
00
00
00
00
00
00
00
00
00
00
00
00
00
00
00
00
00
00
00
00
00
00
00
00
00
00
00
00
00
00
00
00
00
00
00
00
00
00
00
00
00
00
00
00
00
00
00
00
00
00
00
00
00
00
00
00
00
00
00
00
00
00
00
00
00
00
00
00
00
00
00
00
00
00
00
00
00
00
00
00
00
00
00
00
00
00
00
00
00
00
00
00
00
00
00
00
00
00
00
00
00
00
00
00
00
00
00
00
00
00
00
00
00
00
00
00
00
00
00
00
00
00
00
00
00
00
00
00
00
00
00
00
00
00
00
00
00
00
00
00
00
00
00
00
00
00
00
00
00
00
00
00
00
00
00
00
00
00
00
00
00
00
00
00
00
00
00
00
00
00
00
00
00
00
00
00
00
00
00
00
00
00
00
00
00
00
00
00
00
00
00
00
00
00
00
00
00
00
00
00
00
00
00
00
00
00
00
00
00
00
00
00
00
00
00
00
00
00
00
00
00
00
00
00
00
00
00
00
00
00
00
00
00
00
00
00
00
00
00
00
00
00
00
00
00
00
00
00
00
00
00
00
00
00
00
00
00
00
00
00
00
00
00
00
00
00
00
00
00
00
00
00
00
00
00
00
00
00
00
00
00
00
00
00
00
00
00
00
00
00
00
00
00
00
00
00
00
00
00
00
00
00
00
00
00
00
00
00
00
00
00
00
00
00
00
00
00
00
00
00
00
00
00
00
00
00
00
00
00
00
00
00
00
00
00
00
00
00
00
00
00
00
00
00
00
00
00
00
00
00
00
00
00
00
00
00
00
00
00
00
00
00
00
00
00
00
00
00
00
00
00
00
00
00
00
00
00
00
00
00
00
00
00
00
00
00
00
00
00
00
00
00
00
00
00
00
00
00
00
00
00
00
00
00
00
00
00
00
00
00
00
00
00
00
00
00
00
00
00
00
00
00
00
00
00
00
00
00
00
00
00
00
00
00
00
00
00
00
00
00
00
00
00
00
00
00
00
00
00
00
00
00
00
00
00
00
00
00
00
00
00
00
00
00
00
00
00
00
00
00
00
00
00
00
00
00
00
00
00
00
00
00
00
00
00
00
00
00
00
00
00
00
00
00
00
00
00
00
00
00
00
00
00
00
00
00
00
00
00
00
00
00
00
00
00
00
00
00
00
00
00
00
00
00
00
00
00
00
00
00
00
00
00
00
00
00
00
00
00
00
00
00
00
00
00
00
00
00
00
00
00
00
00
00
00
00
00
00
00
00
00
00
00
00
00
00
00
00
00
00
00
00
00
00
00
00
00
00
00
00
00
00
00
00
00
00
00
00
00
00
00
00
00
00
00
00
00
00
00
00
00
00
00
00
00
00
00
00
00
00
00
f4
fc
06
00
02
04
02
03
06
fb
fa
f6
f1
f0
0b
ef
f6
09
00
00
00
00
00
00
00
00
00
00
fc
fe
fd
04
fe
04
f4
fc
05
0b
11
02
09
01
00
05
f4
10
17
07
08
ff
fd
02
f9
f4
ff
02
fa
ff
01
05
02
fd
03
fd
01
04
fa
fa
0a
fd
05
11
04
01
05
ff
02
02
00
fb
fa
fc
fb
07
f8
09
07
fd
11
fa
00
00
00
00
00
00
00
00
00
fc
03
fc
fd
f7
01
f4
f5
00
fe
f8
01
f8
00
fb
01
02
f9
fd
09
fc
fe
f6
01
f8
f2
05
05
02
02
fb
0f
0a
fd
00
03
f7
f9
f9
fc
02
05
09
04
02
f9
00
fe
fc
fb
fb
05
05
04
04
03
fc
ff
fc
fb
05
01
ff
07
f3
f5
fd
f1
f1
01
f6
f0
00
00
00
00
00
00
00
00
00
fb
03
02
fc
07
fd
fc
ff
fb
0f
05
06
0e
fe
02
0c
03
fd
03
06
03
0e
f9
f7
05
f5
01
f4
fc
0b
f5
01
06
f1
fb
0d
00
00
00
00
ff
00
00
00
00
06
01
00
00
fc
00
00
01
06
fa
fe
01
02
fc
fc
08
0d
0c
09
12
00
08
03
ea
0d
fd
f1
f8
06
fb
06
10
f4
0a
05
f2
fb
fc
f8
fc
0a
f4
0d
0b
ed
f1
f9
f3
f2
fc
ef
f7
f9
f1
04
f9
07
f0
f9
fe
fe
fb
02
01
00
04
0a
02
fa
fb
ff
f5
fa
05
fe
01
f9
f9
06
fa
07
fa
fd
00
f0
fb
03
fd
ff
03
07
06
04
01
fc
fc
04
fc
f7
08
11
02
07
08
01
04
03
08
fe
f8
fd
07
01
00
02
00
fb
07
08
03
fa
02
0b
f5
f8
02
00
00
00
00
00
00
00
00
00
f6
05
fc
11
02
ec
01
f4
f0
f8
02
fd
fa
fe
f5
fe
fe
f6
f2
f9
01
e7
f6
0a
e4
f1
0c
e8
fa
fc
eb
ff
09
e7
ff
0b
01
00
fb
fb
f8
05
f6
ff
0a
00
00
00
00
00
00
00
00
00
02
01
04
f1
02
03
fe
0c
fa
00
00
00
00
00
00
00
00
00
f4
f5
fc
f8
fd
0e
02
fc
06
e9
f4
09
e9
f7
0f
e7
f8
06
01
0d
06
12
1e
f8
ff
f7
ed
00
00
00
00
00
00
00
00
00
01
02
01
00
00
00
00
00
01
f9
03
04
ff
00
05
00
01
06
04
f6
fe
ff
ec
f8
02
fe
fa
f6
fd
0b
fd
fa
ff
fd
fe
02
f7
01
f6
f9
f7
fd
00
00
02
00
00
00
00
00
00
00
00
00
00
02
fe
00
fe
fd
00
fa
fb
00
00
00
00
00
00
00
00
00
f5
f2
f8
f1
05
fb
fa
0b
f8
00
00
00
00
00
00
00
00
00
f0
ed
03
01
fe
08
0e
f9
02
f7
08
04
19
07
ed
e8
fb
07
fd
02
03
fa
fb
f7
03
ff
f8
04
02
f9
fe
f6
00
ff
fd
06
fd
f7
03
00
01
07
02
f8
fa
fe
ff
03
00
ff
fc
00
06
00
00
00
00
00
00
00
00
00
00
fd
04
fb
fb
fe
fc
00
0a
0a
f5
fe
03
fa
08
06
ff
03
0d
fe
f8
f2
0a
fd
f9
06
ff
f8
00
00
00
00
00
00
00
00
00
00
00
00
00
00
00
00
00
00
fd
fd
ff
03
f9
ff
00
f7
f3
fe
02
fd
04
03
01
fa
01
fd
03
01
fd
fe
00
04
00
fc
01
00
00
00
00
00
00
00
00
00
00
00
00
00
00
00
00
00
00
02
07
ff
00
f9
04
f2
ff
00
f8
fd
04
fd
fa
ff
fb
02
05
01
ff
03
fe
fa
fb
04
fa
fc
f7
03
01
f8
ff
f7
f6
fb
04
00
00
00
00
00
00
00
00
00
00
00
00
00
00
00
00
00
00
02
0b
f9
01
03
f2
fd
f5
fe
fb
05
01
0d
fd
f3
ff
ef
05
00
07
02
03
07
02
03
04
fc
fa
fd
09
fe
0e
02
0a
01
ff
00
09
0d
00
0a
05
00
04
03
f6
ec
fc
e6
ed
00
f6
f7
fc
fa
04
09
ff
00
03
ff
f7
f4
00
00
00
00
00
00
00
00
00
fb
10
fe
10
fe
fc
f9
f9
fa
00
00
00
00
00
00
00
00
00
00
00
00
00
00
00
00
00
00
06
00
07
07
f9
f7
fc
f3
fc
13
fc
f7
06
eb
f1
07
fb
f2
00
00
00
00
00
00
00
00
00
00
00
00
00
00
00
00
00
00
17
ff
f2
13
f9
fd
07
fa
02
00
00
00
00
00
00
00
00
00
ff
07
02
f7
f9
04
f9
f8
fa
00
ff
fe
f7
f7
02
00
fe
f9
05
02
fc
0a
f8
f8
0b
04
01
fe
02
ff
03
03
fe
07
00
fd
f8
f8
fd
f2
f6
04
f6
06
0a
fe
ff
f7
fc
f8
04
f8
fa
08
0b
06
fd
0f
fb
ea
fe
f7
ed
ff
07
07
f6
00
00
f6
fe
fb
01
0d
0b
03
05
fb
01
0a
01
13
10
06
07
fd
03
06
04
0a
f9
06
01
ff
00
fa
ff
01
02
fd
f9
00
fb
0d
01
f6
06
f4
fd
f8
f7
f5
01
05
02
fd
04
03
ff
fd
03
f8
fb
02
01
05
f7
06
01
05
fd
fd
f8
f3
fe
00
00
00
00
00
00
00
00
00
00
ff
fb
00
06
00
ff
0f
02
ff
fc
fc
f9
f8
fc
fc
fe
04
03
02
0a
08
03
00
06
06
02
0a
08
f6
04
f8
06
02
f5
03
f8
00
f8
01
f9
fd
07
fe
ff
00
ff
02
fd
03
03
f3
fc
ff
00
00
00
00
00
00
00
00
00
ff
03
0a
ff
01
06
f9
fb
06
11
04
fc
fb
ee
fe
f9
f4
02
eb
fd
03
ef
0c
07
00
04
02
ff
02
fc
f9
fc
01
ff
fe
fd
07
05
fc
f4
fd
08
f3
0d
11
04
04
02
fd
02
04
fa
ff
00
05
04
f9
ff
04
09
04
0a
0a
0c
fd
f8
0b
fb
01
04
fb
01
06
05
06
fa
fa
00
f5
f7
fd
04
f4
f6
04
f7
01
05
fd
03
00
01
fa
f0
f4
f6
f8
f6
fd
03
ff
fd
05
fd
ff
03
fc
02
06
04
05
03
ff
02
00
ff
01
ff
02
fd
07
fc
fc
03
fd
fc
00
00
00
00
00
00
00
00
00
00
00
00
00
00
00
00
00
00
02
f8
fc
e8
fd
00
f8
0a
0c
06
01
08
fb
f8
03
f7
f5
fe
fd
fd
01
fd
fb
01
fc
fd
fc
01
03
05
f7
04
fa
fe
0f
f8
f8
fc
01
01
01
09
07
05
03
fc
fe
f9
01
00
f7
ff
07
02
00
00
00
00
00
00
00
00
00
05
02
ff
09
04
ef
13
06
03
f2
fa
fb
f8
ff
fd
f5
01
ff
fb
02
07
09
06
ff
02
01
fa
00
02
fe
04
fe
02
fd
00
03
00
00
00
00
00
00
00
00
00
05
00
fd
fc
ff
03
ff
0a
07
0b
0c
07
00
fc
f4
02
ff
fc
fc
01
fd
05
ff
f8
ff
0a
ff
f1
05
08
fd
03
03
f9
fb
09
00
00
00
00
00
00
00
00
00
00
ff
03
ff
fc
fa
02
f9
fe
00
00
00
00
00
00
00
00
00
16
1a
0d
06
fd
03
f9
f7
0b
00
00
00
00
00
00
00
00
00
10
01
f5
03
04
fb
fe
07
ff
07
04
06
04
00
f9
0a
fd
f8
f5
f8
0f
e8
f5
15
f8
fc
06
00
00
00
00
00
00
00
00
00
ff
03
f7
06
09
f5
fd
00
03
03
05
03
00
fc
fd
fa
fc
fd
05
04
01
00
f7
00
07
02
05
00
00
00
00
00
00
00
00
00
02
fd
f1
00
f8
ff
fb
fc
04
f5
fc
03
f3
fc
0b
fa
f6
f4
01
0b
fa
07
03
fb
02
00
fd
f4
fb
f7
ed
fa
05
f3
f9
0e
fb
f7
f5
f2
fc
f1
f3
fb
f2
03
02
fa
01
fb
03
f2
fa
f6
f7
ee
f1
e8
f9
03
f3
03
05
00
00
00
00
00
00
00
00
00
0a
02
f7
0c
00
f6
0b
f9
f9
00
00
00
00
00
00
00
00
00
fb
01
ff
04
fb
f8
00
01
04
00
00
00
fe
ff
00
ff
00
01
eb
02
0a
09
19
f6
0a
ff
f7
ff
ff
06
01
fc
f9
fc
fd
fa
00
01
08
fa
01
02
f9
03
04
ff
0a
f5
0e
04
f8
0a
fd
fe
00
00
00
00
00
00
00
00
00
02
06
05
f9
fc
f5
01
fd
fe
00
00
00
00
00
00
00
00
00
f6
f9
0c
fc
fd
fd
0a
08
fe
02
fe
fc
fe
fd
fb
0c
0b
f9
f8
03
0c
fe
0e
09
01
09
fe
00
00
00
00
00
00
00
00
00
00
00
00
00
00
00
00
00
00
00
00
00
00
00
00
00
00
00
00
00
00
00
00
00
00
00
00
00
00
00
00
00
00
00
00
00
00
00
00
00
00
00
00
00
00
00
00
00
00
00
00
00
00
00
00
00
00
00
00
00
00
00
00
00
00
00
00
00
00
00
00
00
00
00
00
00
00
00
00
00
00
00
00
00
00
00
00
00
00
00
00
00
00
00
00
00
00
00
00
00
00
00
00
00
00
00
00
00
00
00
00
00
00
00
00
00
00
00
00
00
00
00
00
00
00
00
00
00
00
00
00
00
00
00
00
00
00
00
00
00
00
00
00
00
00
00
00
00
00
00
00
00
00
00
00
00
00
00
00
00
00
00
00
00
00
00
00
00
00
00
00
00
00
00
00
00
00
00
00
00
00
00
00
00
00
00
00
00
00
00
00
00
00
00
00
00
00
00
00
00
00
00
00
00
00
00
00
00
00
00
00
00
00
00
00
00
00
00
00
00
00
00
00
00
00
00
00
00
00
00
00
00
00
00
00
00
00
00
00
00
00
00
00
00
00
00
00
00
00
00
00
00
00
00
00
00
00
00
00
00
00
00
00
00
00
00
00
00
00
00
00
00
00
00
00
00
00
00
00
00
00
00
00
00
00
00
00
00
00
00
00
00
00
00
00
00
00
00
00
00
00
00
00
00
00
00
00
00
00
00
00
00
00
00
00
00
00
00
00
00
00
00
00
00
00
00
00
00
00
00
00
00
00
00
00
00
00
00
00
00
00
00
00
00
00
00
00
00
00
00
00
00
00
00
00
00
00
00
00
00
00
00
00
00
00
00
00
00
00
00
00
00
00
00
00
00
00
00
00
00
00
00
00
00
00
00
00
00
00
00
00
00
00
00
00
00
00
00
00
00
00
00
00
00
00
00
00
00
00
00
00
00
00
00
00
00
00
00
00
00
00
00
00
00
00
00
00
00
00
00
00
00
00
00
00
00
00
00
00
00
00
00
00
00
00
00
00
00
00
00
00
00
00
00
00
00
00
00
00
00
00
00
00
00
00
00
00
00
00
00
00
00
00
00
00
00
00
00
00
00
00
00
00
00
00
00
00
00
00
00
00
00
00
00
00
00
00
00
00
00
00
00
00
00
00
00
00
00
00
00
00
00
00
00
00
00
00
00
00
00
00
00
00
00
00
00
00
00
00
00
00
00
00
00
00
00
00
00
00
00
00
00
00
00
00
00
00
00
00
00
00
00
00
00
00
00
00
00
00
00
00
00
00
00
00
00
00
00
00
00
00
00
00
00
00
00
00
00
00
00
00
00
00
00
00
00
00
00
00
00
00
00
00
00
00
00
00
00
00
00
00
00
00
00
00
00
00
00
00
00
00
00
00
00
00
00
00
00
00
00
00
00
00
00
00
00
00
00
00
00
00
00
00
00
00
00
00
00
00
00
00
00
00
00
00
00
00
00
00
00
00
00
00
00
00
00
00
00
00
00
00
00
00
00
00
00
00
00
00
00
00
00
00
00
00
00
00
00
00
00
00
00
00
00
00
00
00
00
00
00
00
00
00
00
00
00
00
00
00
00
00
00
00
00
00
00
00
00
00
00
00
00
00
00
00
00
00
00
00
00
00
00
00
00
00
00
00
00
00
00
00
00
00
00
00
00
00
00
00
00
00
00
00
00
00
00
00
00
00
00
00
00
00
00
00
00
00
00
00
00
00
00
00
00
00
00
00
00
00
00
00
00
00
00
00
00
00
00
00
00
00
00
00
00
00
00
00
00
00
00
00
00
00
00
00
00
00
00
00
00
00
00
00
00
00
00
00
00
00
00
00
00
00
00
00
00
00
00
00
00
00
00
00
00
00
00
00
00
00
00
00
00
00
00
00
00
00
00
00
00
00
00
00
00
00
00
00
00
00
00
00
00
00
00
00
00
00
00
00
00
00
00
00
00
00
00
00
00
00
00
00
00
00
00
00
00
00
00
00
00
00
00
00
00
00
00
00
00
00
00
00
00
00
00
00
00
00
00
00
00
00
00
00
00
00
00
00
00
00
00
00
00
00
00
00
00
00
00
00
00
00
00
00
00
00
00
00
00
00
00
00
00
00
00
00
00
00
00
00
00
00
00
00
00
00
00
00
00
00
00
00
00
00
00
00
00
00
00
00
00
00
00
00
00
00
00
00
00
00
00
00
00
00
00
00
00
00
00
00
00
00
00
00
00
00
00
00
00
00
00
00
00
00
00
00
00
00
00
00
00
00
00
00
00
00
00
00
00
00
00
00
00
00
00
00
00
00
00
00
00
00
00
00
00
00
00
00
00
00
00
00
00
00
00
00
00
00
00
00
00
00
00
00
00
00
00
00
00
00
00
00
00
00
00
00
00
00
00
00
00
00
00
00
00
00
00
00
00
00
00
00
00
00
00
00
00
00
00
00
00
00
00
00
00
00
00
00
00
00
00
00
00
00
00
00
00
00
00
00
00
00
00
00
00
00
00
00
00
00
00
00
00
00
00
00
00
00
00
00
00
00
00
00
00
00
00
00
00
00
00
00
00
00
00
00
00
00
00
00
00
00
00
00
00
00
00
00
00
00
00
00
00
00
00
00
00
00
00
00
00
00
00
00
00
00
00
00
00
00
00
00
00
00
00
00
00
00
00
00
00
00
00
00
00
00
00
00
00
00
00
00
00
00
00
00
00
00
00
00
00
00
00
00
00
00
00
00
00
00
00
00
00
00
00
00
00
00
00
00
00
00
00
00
00
00
00
00
00
00
00
00
00
00
00
00
00
00
00
00
00
00
00
00
00
00
00
00
00
00
00
00
00
00
00
00
00
00
00
00
00
00
00
00
00
00
00
00
00
00
00
00
00
00
00
00
00
00
00
00
00
00
00
00
00
00
00
00
00
00
00
00
00
00
00
00
00
00
00
00
00
00
00
00
00
00
00
00
00
00
00
00
00
00
00
00
00
00
00
00
00
00
00
00
00
00
00
00
00
00
00
00
00
00
00
00
00
00
00
00
00
00
00
00
00
00
00
00
00
00
00
00
00
00
00
00
00
00
00
00
00
00
00
00
00
00
00
00
00
00
00
00
00
00
00
00
00
00
00
00
00
00
00
00
00
00
00
00
00
00
00
00
00
00
00
00
00
00
00
00
00
00
00
00
00
00
00
00
00
00
00
00
00
00
00
00
00
00
00
00
00
00
00
00
00
00
00
00
00
00
00
00
00
00
00
00
00
00
00
00
00
00
00
00
00
00
00
00
00
00
00
00
00
00
00
00
00
00
00
00
00
00
00
00
00
00
00
00
00
00
00
00
00
00
00
00
00
00
00
00
00
00
00
00
00
00
00
00
00
00
00
00
00
00
00
00
00
00
00
00
00
00
00
00
00
00
00
00
00
00
00
00
00
00
00
00
00
00
00
00
00
00
00
00
00
00
00
00
00
00
00
00
00
00
00
00
00
00
00
00
00
00
00
00
00
00
00
00
00
00
00
00
00
00
00
00
00
00
00
00
00
00
00
00
00
00
00
00
00
00
00
00
00
00
00
00
00
00
00
00
00
00
00
00
00
00
00
00
00
00
00
00
00
00
00
00
00
00
00
00
00
00
00
00
00
00
00
00
00
00
00
00
00
00
00
00
00
00
00
00
00
00
00
00
00
00
00
00
00
00
00
00
00
00
00
00
00
00
00
00
00
00
00
00
00
00
00
00
00
00
00
00
00
00
00
00
00
00
00
00
00
00
00
00
00
00
00
00
00
00
00
00
00
00
00
00
00
00
00
00
00
00
00
00
00
00
00
00
00
00
00
00
00
00
00
00
00
00
00
00
00
00
00
00
00
00
00
00
00
00
00
00
00
00
00
00
00
00
00
00
00
00
00
00
00
00
00
00
00
00
00
00
00
00
00
00
00
00
00
00
00
00
00
00
00
00
00
00
00
00
00
00
00
00
00
00
00
00
00
00
00
00
00
00
00
00
00
00
00
00
00
00
00
00
00
00
00
00
00
00
00
00
00
00
00
00
00
00
00
00
00
00
00
00
00
00
00
00
00
00
00
00
00
00
00
00
00
00
00
00
00
00
00
00
00
00
00
00
00
00
00
00
00
00
00
00
00
00
00
00
00
00
00
00
00
00
00
00
00
00
00
00
00
00
00
00
00
00
00
00
00
00
00
00
00
00
00
00
00
00
00
00
00
00
00
00
00
00
00
00
00
00
00
00
00
00
00
00
00
00
00
00
00
00
00
00
00
00
00
00
00
00
00
00
00
00
00
00
00
00
00
00
00
00
00
00
00
00
00
00
00
00
00
00
00
00
00
00
00
00
00
00
00
00
00
00
00
00
00
00
00
00
00
00
00
00
00
00
00
00
00
00
00
00
00
00
00
00
00
00
00
00
00
00
00
00
00
00
00
00
00
00
00
00
00
00
00
00
00
00
00
00
00
00
00
00
00
00
00
00
00
00
00
00
00
00
00
00
00
00
00
00
00
00
00
00
00
00
00
00
00
00
00
00
00
00
00
00
00
00
00
00
00
00
00
00
00
00
00
00
00
00
00
00
00
00
00
00
00
00
00
00
00
00
00
00
00
00
00
00
00
00
00
00
00
00
00
00
00
00
00
00
00
00
00
00
00
00
00
00
00
00
00
00
00
00
00
00
00
00
00
00
00
00
00
00
00
00
00
00
00
00
00
00
00
00
00
00
00
00
00
00
00
00
00
00
00
00
00
00
00
00
00
00
00
00
00
00
00
00
00
00
00
00
00
00
00
00
00
00
00
00
00
00
00
00
00
00
00
00
00
00
00
00
00
00
00
00
00
00
00
00
00
00
00
00
00
00
00
00
00
00
00
00
00
00
00
00
00
00
00
00
00
00
00
00
00
00
00
00
00
00
00
00
00
00
00
00
00
00
00
00
00
00
00
00
00
00
00
00
00
00
00
00
00
00
00
00
00
00
00
00
00
00
00
00
00
00
00
00
00
00
00
00
00
00
00
00
00
00
00
