16
c4
0d
25
10
17
23
1e
09
23
a2
1f
b5
d0
d2
1e
c0
bc
c4
b3
08
1f
18
18
d9
d3
16
13
18
15
09
c8
16
ea
eb
27
d4
17
e2
b8
c2
16
15
11
10
0c
d6
10
c8
15
be
c8
e5
d6
1e
fe
21
12
17
0a
0e
f2
f7
cc
bf
13
bf
17
15
18
05
1c
d0
1c
09
1b
1a
c4
1c
1d
03
d7
e5
1a
00
dd
11
e4
d2
cc
19
12
15
e7
1b
20
b2
11
df
0f
20
be
15
fc
c4
bc
23
ea
ca
a0
2e
10
14
ce
16
dc
cd
11
0e
c1
27
16
12
21
19
21
d4
1b
00
ce
ef
14
df
16
d6
c9
db
0b
29
be
29
ce
18
d2
21
16
cc
d0
c5
c3
c5
1e
17
d1
d3
15
11
cc
ce
00
19
1e
27
15
27
f0
14
20
db
d7
cf
17
16
d8
14
16
c7
e8
1a
d2
1e
df
d0
27
1e
d8
c6
18
b4
27
d4
2f
e7
16
1b
16
14
c6
e0
10
1b
17
c2
14
f8
da
09
e2
21
d1
27
16
da
0e
25
0b
02
c4
18
c8
19
c6
1d
d0
22
e3
19
17
ca
de
bf
14
13
c8
19
ca
2a
d5
c2
3a
d6
fd
19
db
d2
f9
12
12
06
eb
e2
1a
0c
eb
c8
1c
c6
00
17
cf
cd
f7
0f
14
24
cd
0b
27
12
fc
25
22
27
d0
1a
2b
1c
22
0d
1b
18
de
1d
c7
12
17
15
de
c6
17
c3
05
e1
22
e8
11
d8
13
1f
be
12
0b
f0
c0
d8
10
0c
12
19
e9
17
f9
cb
d4
23
0d
18
07
22
2a
e0
1d
b7
ba
12
12
0f
cc
b9
12
d6
1f
c6
be
1d
cc
c9
f8
d1
0d
c0
11
08
f2
07
ca
e5
cb
13
de
15
d0
1a
13
15
e6
19
0c
26
1a
f1
be
29
0e
28
ec
da
00
21
bc
17
e5
1d
0e
da
dc
de
00
26
12
c0
23
d8
1e
22
19
00
f2
15
d5
eb
cf
18
f4
23
cf
de
12
d1
23
d1
1f
13
e2
24
20
24
0b
1e
10
cf
1e
1f
ce
1b
15
dd
d2
16
c8
fa
d1
d5
1b
cf
1e
13
d0
0a
d7
cf
25
09
15
0f
17
0d
1b
19
03
16
f9
1c
14
14
0c
ff
d7
2c
21
d3
f0
0b
ef
da
19
1a
08
df
12
14
08
1b
d4
05
25
e6
c4
d0
b1
1a
e9
e2
c2
15
16
0d
cc
0d
0a
1f
0f
de
16
cd
e3
e4
1a
11
17
06
22
15
19
16
16
ff
c9
0b
0f
11
1e
15
d2
0b
c5
dd
02
c4
12
23
e8
ed
f5
cb
00
14
19
d7
27
cc
1c
24
24
15
d8
17
f7
01
16
22
d3
18
30
24
25
eb
15
c5
15
22
1d
13
ba
13
18
11
bf
16
f5
14
f7
21
c9
e6
18
1f
0c
ca
13
27
c3
c6
18
c1
b7
1f
e3
1c
26
d1
dc
d2
1a
15
0f
ce
e9
dd
d7
12
d5
0e
d1
1e
1c
e2
17
bb
ce
14
18
17
d8
d4
df
0f
b6
0b
cf
0f
22
0b
dc
19
d4
1a
b8
c7
e2
b7
b7
1c
df
d9
08
24
22
ae
0b
27
ce
26
c1
09
08
2a
13
b7
07
c5
11
11
d9
d7
bf
df
f0
11
c8
24
1c
cc
14
00
d3
18
cd
fc
17
fa
d4
ee
11
e2
19
cc
20
fe
d8
1b
1a
33
21
1f
12
c1
bc
ea
22
fe
00
1e
ce
e3
dd
cb
d5
28
ec
dc
1f
d7
e0
14
16
be
d6
c9
25
12
da
1a
1e
c7
1d
0d
c3
2a
09
19
c7
1b
da
c5
f2
2d
db
1a
12
d5
17
cf
1c
f9
08
15
0c
c1
cc
ee
18
0d
fc
c9
e2
12
f3
1d
0d
00
ba
17
14
15
e7
11
b6
23
15
1e
1b
d6
1d
a9
df
20
e2
05
23
1a
cd
1f
e7
09
db
11
18
d9
21
df
16
11
cf
0b
21
13
1a
e6
15
d2
23
c9
00
1b
c9
d0
db
0d
b2
23
d4
cb
d4
12
24
28
1a
23
15
0b
21
21
23
a4
22
16
1f
21
1b
14
19
18
d1
0e
10
15
27
13
df
0d
d9
1f
17
cd
0f
e2
0e
1b
b2
15
bb
17
18
b1
19
19
20
c4
17
cf
b9
bf
0b
1d
2d
22
0c
12
0d
10
12
bc
22
b8
14
cc
1f
c6
b7
d1
bb
d3
15
12
15
08
c4
0f
1d
09
c6
16
09
d0
be
17
1e
ca
05
ef
cf
1b
09
c9
17
19
0d
28
12
ec
1a
15
06
cc
b6
df
16
da
15
16
10
0c
09
d4
11
c4
ca
c0
1e
18
ed
00
d0
18
1a
24
d4
c8
f4
de
19
d0
1a
e1
e2
1f
f8
d3
d5
32
f7
ff
16
02
d9
1a
cf
15
d0
d3
cd
1a
da
fc
1f
d9
18
0d
d7
da
e0
c5
1f
12
14
ca
e7
e9
20
19
21
0c
25
ce
e5
2a
ce
d9
d8
1b
b5
bf
e2
04
de
21
12
d2
bd
d2
1d
c3
bd
c1
14
df
c8
19
20
08
2a
21
13
1c
0e
d9
b7
ed
ce
e9
19
d9
1e
14
23
1c
18
24
1a
1b
23
ca
da
28
1d
af
e2
d7
d3
de
df
0b
24
13
19
d2
ea
c6
13
b9
e1
0b
bf
e3
14
eb
21
1b
0f
1b
00
11
c1
15
db
15
1b
23
23
be
21
bc
27
0b
ea
db
e4
15
e8
c5
c1
15
b6
0f
e3
c3
21
17
de
c5
1d
10
0f
21
e1
c0
2a
f3
18
25
15
0d
1e
c2
14
c2
17
1a
b8
1b
d4
da
13
1d
dc
26
1d
21
b2
13
05
29
c5
2c
19
10
1c
d0
fb
b2
17
08
e3
16
17
06
d8
c6
de
1b
e7
13
ea
14
1c
a6
d6
0f
1c
c4
0b
f4
e6
17
ea
d2
cf
c4
1a
e5
0a
10
c0
bf
bd
c4
12
2b
eb
1c
c0
3a
c7
19
16
25
1a
e0
b4
13
c8
26
c1
cf
11
22
e6
20
fe
00
c4
0b
13
20
dc
de
d2
29
c4
29
10
2a
d2
e6
f6
20
ce
d4
d2
1f
c9
f8
d6
e1
d0
dd
c2
cc
c3
18
d2
e4
19
fe
15
f8
c3
0d
25
d2
1b
14
15
d9
ce
16
ef
b6
d2
e1
ca
1b
ed
c4
27
d2
26
b8
ee
c1
2b
dc
2e
1e
15
1b
12
e3
b6
de
06
d4
16
18
11
1b
0c
0c
1e
1f
0d
24
0e
d2
01
1f
e7
1e
bd
15
13
16
ec
dd
14
1e
cb
16
dd
16
db
13
13
0e
13
ce
27
27
1b
c0
3d
13
b8
13
d9
d6
0f
11
08
01
28
11
1a
d8
c9
de
d6
0f
00
